#pragma once
#include <cstddef>
#include <cstdint>

alignas(16) const unsigned char espcn_micro_int8_tflite[] = {
  0x1c, 0x00, 0x00, 0x00, 0x54, 0x46, 0x4c, 0x33, 0x14, 0x00, 0x20, 0x00, 0x1c, 0x00, 0x18, 0x00,
  0x14, 0x00, 0x10, 0x00, 0x0c, 0x00, 0x00, 0x00, 0x08, 0x00, 0x04, 0x00, 0x14, 0x00, 0x00, 0x00,
  0x1c, 0x00, 0x00, 0x00, 0x90, 0x00, 0x00, 0x00, 0xe8, 0x00, 0x00, 0x00, 0xac, 0x08, 0x00, 0x00,
  0xbc, 0x08, 0x00, 0x00, 0xc4, 0x13, 0x00, 0x00, 0x03, 0x00, 0x00, 0x00, 0x01, 0x00, 0x00, 0x00,
  0x10, 0x00, 0x00, 0x00, 0x00, 0x00, 0x0a, 0x00, 0x10, 0x00, 0x0c, 0x00, 0x08, 0x00, 0x04, 0x00,
  0x0a, 0x00, 0x00, 0x00, 0x0c, 0x00, 0x00, 0x00, 0x1c, 0x00, 0x00, 0x00, 0x3c, 0x00, 0x00, 0x00,
  0x0f, 0x00, 0x00, 0x00, 0x73, 0x65, 0x72, 0x76, 0x69, 0x6e, 0x67, 0x5f, 0x64, 0x65, 0x66, 0x61,
  0x75, 0x6c, 0x74, 0x00, 0x01, 0x00, 0x00, 0x00, 0x04, 0x00, 0x00, 0x00, 0x98, 0xff, 0xff, 0xff,
  0x0a, 0x00, 0x00, 0x00, 0x04, 0x00, 0x00, 0x00, 0x08, 0x00, 0x00, 0x00, 0x6f, 0x75, 0x74, 0x70,
  0x75, 0x74, 0x5f, 0x30, 0x00, 0x00, 0x00, 0x00, 0x01, 0x00, 0x00, 0x00, 0x04, 0x00, 0x00, 0x00,
  0x3a, 0xf7, 0xff, 0xff, 0x04, 0x00, 0x00, 0x00, 0x05, 0x00, 0x00, 0x00, 0x69, 0x6e, 0x70, 0x75,
  0x74, 0x00, 0x00, 0x00, 0x02, 0x00, 0x00, 0x00, 0x34, 0x00, 0x00, 0x00, 0x04, 0x00, 0x00, 0x00,
  0xdc, 0xff, 0xff, 0xff, 0x0d, 0x00, 0x00, 0x00, 0x04, 0x00, 0x00, 0x00, 0x13, 0x00, 0x00, 0x00,
  0x43, 0x4f, 0x4e, 0x56, 0x45, 0x52, 0x53, 0x49, 0x4f, 0x4e, 0x5f, 0x4d, 0x45, 0x54, 0x41, 0x44,
  0x41, 0x54, 0x41, 0x00, 0x08, 0x00, 0x0c, 0x00, 0x08, 0x00, 0x04, 0x00, 0x08, 0x00, 0x00, 0x00,
  0x0c, 0x00, 0x00, 0x00, 0x04, 0x00, 0x00, 0x00, 0x13, 0x00, 0x00, 0x00, 0x6d, 0x69, 0x6e, 0x5f,
  0x72, 0x75, 0x6e, 0x74, 0x69, 0x6d, 0x65, 0x5f, 0x76, 0x65, 0x72, 0x73, 0x69, 0x6f, 0x6e, 0x00,
  0x0e, 0x00, 0x00, 0x00, 0xc0, 0x07, 0x00, 0x00, 0xb4, 0x07, 0x00, 0x00, 0x94, 0x07, 0x00, 0x00,
  0x64, 0x06, 0x00, 0x00, 0x34, 0x06, 0x00, 0x00, 0xa4, 0x01, 0x00, 0x00, 0x54, 0x01, 0x00, 0x00,
  0xb4, 0x00, 0x00, 0x00, 0xac, 0x00, 0x00, 0x00, 0xa4, 0x00, 0x00, 0x00, 0x9c, 0x00, 0x00, 0x00,
  0x94, 0x00, 0x00, 0x00, 0x74, 0x00, 0x00, 0x00, 0x04, 0x00, 0x00, 0x00, 0xe6, 0xf7, 0xff, 0xff,
  0x04, 0x00, 0x00, 0x00, 0x60, 0x00, 0x00, 0x00, 0x0c, 0x00, 0x00, 0x00, 0x08, 0x00, 0x0e, 0x00,
  0x08, 0x00, 0x04, 0x00, 0x08, 0x00, 0x00, 0x00, 0x10, 0x00, 0x00, 0x00, 0x28, 0x00, 0x00, 0x00,
  0x00, 0x00, 0x06, 0x00, 0x08, 0x00, 0x04, 0x00, 0x06, 0x00, 0x00, 0x00, 0x04, 0x00, 0x00, 0x00,
  0x01, 0x00, 0x00, 0x00, 0xeb, 0x03, 0x00, 0x00, 0x0c, 0x00, 0x18, 0x00, 0x14, 0x00, 0x10, 0x00,
  0x0c, 0x00, 0x04, 0x00, 0x0c, 0x00, 0x00, 0x00, 0xcc, 0x75, 0x17, 0x39, 0x61, 0x4f, 0xaf, 0x55,
  0x02, 0x00, 0x00, 0x00, 0x02, 0x00, 0x00, 0x00, 0x04, 0x00, 0x00, 0x00, 0x06, 0x00, 0x00, 0x00,
  0x32, 0x2e, 0x32, 0x31, 0x2e, 0x30, 0x00, 0x00, 0x52, 0xf8, 0xff, 0xff, 0x04, 0x00, 0x00, 0x00,
  0x10, 0x00, 0x00, 0x00, 0x32, 0x2e, 0x35, 0x2e, 0x30, 0x00, 0x00, 0x00, 0x00, 0x00, 0x00, 0x00,
  0x00, 0x00, 0x00, 0x00, 0x04, 0xf9, 0xff, 0xff, 0x08, 0xf9, 0xff, 0xff, 0x0c, 0xf9, 0xff, 0xff,
  0x10, 0xf9, 0xff, 0xff, 0x7e, 0xf8, 0xff, 0xff, 0x04, 0x00, 0x00, 0x00, 0x90, 0x00, 0x00, 0x00,
  0xa4, 0x1b, 0x32, 0xf2, 0x7f, 0xd3, 0xc2, 0xee, 0xc7, 0xdf, 0xcd, 0xd0, 0x0b, 0x95, 0x81, 0xb9,
  0x9a, 0x29, 0x07, 0xfc, 0x34, 0x01, 0x7f, 0xf5, 0x15, 0x10, 0xef, 0x25, 0xb6, 0x75, 0x7e, 0x9e,
  0x7f, 0xa8, 0x50, 0x52, 0xbb, 0x52, 0x1d, 0x45, 0x7f, 0xe9, 0xa8, 0x34, 0x3c, 0x21, 0x33, 0x28,
  0xd6, 0x81, 0xd3, 0xf5, 0x97, 0xc6, 0xa2, 0xd1, 0xbb, 0x0f, 0xfd, 0xbc, 0xec, 0x1d, 0x7f, 0xfc,
  0xdd, 0xd9, 0x1b, 0xd6, 0xe0, 0xb6, 0xbd, 0x81, 0x3c, 0xcd, 0xbd, 0x55, 0x20, 0xb7, 0x7f, 0x70,
  0x31, 0x7c, 0x2a, 0x10, 0xee, 0xe2, 0xde, 0x27, 0x46, 0x7f, 0x31, 0xe8, 0xcd, 0x30, 0x7f, 0x1b,
  0xca, 0x0d, 0x22, 0x5d, 0xb3, 0xb5, 0x93, 0x3a, 0x81, 0x28, 0x83, 0x51, 0x39, 0x49, 0x81, 0x4f,
  0x4d, 0x88, 0xf0, 0x03, 0x4f, 0x22, 0x9d, 0xd2, 0xe9, 0x7f, 0xbf, 0x75, 0x1e, 0x7c, 0x8e, 0x77,
  0x5e, 0x85, 0x10, 0xe0, 0xec, 0x7f, 0x6c, 0x23, 0x4b, 0x05, 0x32, 0xa6, 0x7f, 0x7b, 0x57, 0xbd,
  0x1a, 0xf9, 0xff, 0xff, 0x04, 0x00, 0x00, 0x00, 0x40, 0x00, 0x00, 0x00, 0xcf, 0x73, 0x00, 0x00,
  0x8a, 0xeb, 0xff, 0xff, 0xfb, 0xfc, 0xff, 0xff, 0x0b, 0x27, 0x00, 0x00, 0xdf, 0x0e, 0x00, 0x00,
  0xdd, 0x39, 0x00, 0x00, 0xc4, 0x7e, 0x00, 0x00, 0x36, 0x4b, 0x00, 0x00, 0x88, 0x49, 0x00, 0x00,
  0xa4, 0xe0, 0xff, 0xff, 0x95, 0x04, 0x00, 0x00, 0x97, 0x1a, 0x00, 0x00, 0x9d, 0x82, 0x00, 0x00,
  0xca, 0xe3, 0xff, 0xff, 0x92, 0x86, 0x00, 0x00, 0x48, 0xe6, 0xff, 0xff, 0x66, 0xf9, 0xff, 0xff,
  0x04, 0x00, 0x00, 0x00, 0x80, 0x04, 0x00, 0x00, 0xfd, 0x11, 0xb8, 0xdf, 0xb1, 0xa8, 0x31, 0x96,
  0x01, 0xaf, 0x44, 0x19, 0x10, 0xe2, 0x35, 0xf0, 0x2e, 0x01, 0xb5, 0xb8, 0xba, 0xfc, 0xa3, 0xc6,
  0x3e, 0x01, 0xb5, 0xbc, 0x1f, 0x98, 0x3e, 0x4b, 0xfc, 0x0a, 0xea, 0x07, 0x02, 0xf9, 0x31, 0xc0,
  0xcd, 0xcf, 0xcd, 0xa0, 0xc8, 0x17, 0xf9, 0x9a, 0x0e, 0xe2, 0xfe, 0x96, 0x9c, 0xfc, 0x39, 0xbd,
  0xf3, 0xf1, 0xe7, 0xfb, 0xbe, 0x11, 0x17, 0xfd, 0xd8, 0x50, 0x81, 0x4d, 0xb4, 0xd6, 0x30, 0x33,
  0x1b, 0xdd, 0xbe, 0x3a, 0x20, 0x9e, 0xc3, 0x07, 0x24, 0xa6, 0xcf, 0xeb, 0x3a, 0xc3, 0xb6, 0x19,
  0xc7, 0xfb, 0xf3, 0xde, 0xb8, 0x47, 0x9f, 0xba, 0x3d, 0xf3, 0xd2, 0x94, 0xe5, 0xdd, 0x00, 0x46,
  0xe6, 0xb8, 0x4c, 0x08, 0x43, 0x47, 0xaa, 0x1d, 0x3a, 0x33, 0xb7, 0xae, 0xa4, 0x1d, 0xdd, 0xd8,
  0xc3, 0xe0, 0x0f, 0x04, 0x00, 0x24, 0xc0, 0xb2, 0xd9, 0xca, 0x0e, 0xc0, 0x2a, 0x2a, 0x1b, 0x37,
  0xdc, 0x31, 0x2a, 0xcc, 0x06, 0x4b, 0x94, 0x29, 0x0d, 0x25, 0x81, 0x04, 0x16, 0xd1, 0xf6, 0xe1,
  0xfe, 0x38, 0x0a, 0x06, 0xe5, 0xfa, 0xeb, 0xf4, 0xdb, 0xdc, 0xfb, 0xf7, 0x35, 0xf2, 0x10, 0xdb,
  0x23, 0x10, 0x33, 0xeb, 0x12, 0x45, 0x31, 0x0b, 0xda, 0x23, 0x16, 0xed, 0xfe, 0xe6, 0xf2, 0xf4,
  0x15, 0xe1, 0xb2, 0x0c, 0x1e, 0x05, 0x11, 0x31, 0xe1, 0xea, 0x3d, 0x32, 0x1f, 0xf3, 0x08, 0xe1,
  0x0a, 0xdf, 0xe7, 0x14, 0x06, 0xdc, 0xe9, 0xf7, 0x09, 0x23, 0x65, 0xe4, 0x1e, 0xd0, 0xdc, 0xf6,
  0xdd, 0xfc, 0x43, 0x0c, 0xf3, 0x03, 0x13, 0x06, 0xeb, 0x14, 0xce, 0xf1, 0x11, 0xdc, 0xdd, 0xee,
  0x09, 0x27, 0x14, 0x0e, 0xef, 0x05, 0xf7, 0xfc, 0xf8, 0x22, 0x3e, 0x29, 0x17, 0xe5, 0x03, 0x1a,
  0xd4, 0x0e, 0x02, 0xdf, 0xe6, 0x00, 0xe6, 0x22, 0xf3, 0xe0, 0xc5, 0x08, 0x30, 0x0c, 0xd2, 0xeb,
  0xfb, 0xb2, 0x15, 0xcf, 0x19, 0x03, 0x1b, 0x32, 0x14, 0xe6, 0x22, 0xf8, 0x0d, 0xf8, 0xd6, 0x1a,
  0x12, 0x03, 0x2e, 0x05, 0xde, 0xee, 0xe7, 0xfc, 0xd9, 0x0a, 0xbf, 0x22, 0x17, 0x02, 0x19, 0xeb,
  0xfa, 0x07, 0x2e, 0xe5, 0xfb, 0xec, 0x12, 0x05, 0x07, 0xf7, 0x4f, 0x04, 0x2f, 0xd9, 0x08, 0xd5,
  0x26, 0x0a, 0x22, 0x03, 0x0b, 0x0c, 0x05, 0x13, 0xf1, 0x09, 0xe0, 0x15, 0x0e, 0xfe, 0xfa, 0x09,
  0x11, 0xed, 0xc7, 0x10, 0xeb, 0xe9, 0xee, 0x25, 0x0c, 0xfc, 0x19, 0x09, 0x0a, 0xf7, 0xdc, 0x1e,
  0xee, 0xf1, 0x0a, 0xfe, 0xfc, 0x0a, 0x07, 0x11, 0x2c, 0xfc, 0x7f, 0xd4, 0x2c, 0x04, 0xff, 0x0b,
  0x07, 0xe1, 0x60, 0xd3, 0x14, 0xf6, 0x03, 0x01, 0xf7, 0xed, 0x01, 0x3b, 0x07, 0x12, 0x03, 0x1d,
  0xf0, 0x25, 0x1b, 0xfa, 0x1c, 0xed, 0xea, 0x13, 0xe8, 0x0b, 0xdd, 0x04, 0xf8, 0x09, 0xfd, 0x0d,
  0x12, 0xfe, 0x12, 0xe7, 0x22, 0xf2, 0xf8, 0x01, 0xe8, 0x12, 0xa1, 0x07, 0x0f, 0x09, 0xed, 0x0c,
  0x05, 0x1e, 0xc7, 0xd8, 0x14, 0x12, 0x0a, 0x0e, 0x01, 0x07, 0x04, 0x0a, 0xe3, 0x23, 0xf6, 0x0a,
  0xef, 0x1d, 0xe7, 0x0c, 0xf7, 0x01, 0x18, 0xf6, 0xeb, 0xed, 0xa0, 0x02, 0x22, 0x06, 0xff, 0xf7,
  0xf0, 0x07, 0x1b, 0xf7, 0x05, 0x2e, 0x0e, 0x10, 0x16, 0xf8, 0x18, 0xf4, 0x1b, 0xd9, 0xea, 0x00,
  0x28, 0xf2, 0xf2, 0xde, 0xfe, 0x19, 0x01, 0x1b, 0xea, 0xf4, 0xf7, 0xf8, 0xf5, 0x06, 0xf4, 0xe6,
  0x1b, 0xfc, 0xe7, 0xf0, 0xf4, 0x05, 0x0b, 0x19, 0x18, 0x14, 0x05, 0x1d, 0xf9, 0xf0, 0x0c, 0x08,
  0xe3, 0xf7, 0xfe, 0x0e, 0xe7, 0x1b, 0xff, 0x2b, 0x05, 0xff, 0x7f, 0xf3, 0x29, 0xe9, 0x0f, 0xdd,
  0xfa, 0xc3, 0x4e, 0x24, 0x06, 0x24, 0x00, 0x02, 0x0a, 0xf3, 0x1d, 0xfe, 0x10, 0xfa, 0xef, 0x18,
  0x0a, 0xf6, 0x03, 0x01, 0xf2, 0x02, 0xed, 0xfc, 0xe4, 0xf7, 0xeb, 0xf5, 0x02, 0xef, 0x00, 0xe1,
  0xf1, 0xfe, 0xfd, 0x00, 0x0c, 0xf6, 0xfc, 0x0a, 0xf0, 0xfe, 0x19, 0xe0, 0x10, 0xf9, 0xe9, 0xdd,
  0xe9, 0xf1, 0x1b, 0xef, 0xf3, 0x0d, 0xff, 0x1b, 0xe8, 0x04, 0x1b, 0x1c, 0xf7, 0xf6, 0xf7, 0xee,
  0x0a, 0x10, 0xf3, 0x17, 0x03, 0x04, 0xe5, 0xfe, 0x09, 0xe2, 0x19, 0xf4, 0xfe, 0x02, 0x0b, 0x00,
  0x05, 0xf6, 0x21, 0x0f, 0x0e, 0xf3, 0xee, 0x0c, 0x0b, 0xeb, 0x37, 0x10, 0x33, 0xfc, 0x10, 0x18,
  0x10, 0x1f, 0x12, 0xec, 0x0e, 0xf6, 0x09, 0x05, 0xff, 0xf2, 0x04, 0x02, 0x16, 0xe9, 0x06, 0xf3,
  0x1f, 0x13, 0x02, 0xf8, 0x0c, 0xfe, 0x02, 0x1d, 0x12, 0xfe, 0xee, 0xeb, 0xf3, 0x00, 0xe2, 0xfe,
  0xf0, 0xd9, 0x0a, 0x03, 0x15, 0xf5, 0x1d, 0x29, 0xfd, 0x0d, 0x7f, 0xff, 0x01, 0xe9, 0xfd, 0x03,
  0x06, 0x0c, 0x1f, 0xf7, 0x18, 0x01, 0x04, 0x00, 0xea, 0x18, 0x08, 0xed, 0xf5, 0xf0, 0x01, 0xf2,
  0x0b, 0x0b, 0x15, 0xf9, 0xef, 0x29, 0x08, 0xf5, 0xf0, 0x11, 0x09, 0x1b, 0x19, 0x1d, 0x09, 0xf3,
  0x0b, 0xf8, 0xf5, 0x09, 0xec, 0x0d, 0x0a, 0x03, 0xe5, 0xe7, 0x28, 0x21, 0xf8, 0x01, 0x11, 0x09,
  0xdb, 0x04, 0xf0, 0x0d, 0xe4, 0xdf, 0xf8, 0xfd, 0xf1, 0xfe, 0xff, 0xda, 0x15, 0x0b, 0x01, 0xe6,
  0x18, 0xd4, 0xf3, 0xe7, 0x19, 0xde, 0x0f, 0xf6, 0xc1, 0x28, 0x95, 0x1e, 0xe7, 0x50, 0x24, 0xb2,
  0x4c, 0xac, 0x44, 0xf4, 0x91, 0x58, 0x5e, 0x9a, 0x33, 0xc1, 0xe3, 0x1a, 0xb4, 0xa7, 0xa5, 0xb7,
  0x4a, 0x46, 0x38, 0x5e, 0xef, 0xcd, 0xe6, 0x5b, 0xa3, 0xa7, 0x51, 0x30, 0x49, 0xfb, 0xb9, 0x2c,
  0x1b, 0xaa, 0xa0, 0xad, 0xb1, 0xac, 0x9d, 0xf9, 0xb2, 0xf3, 0xb4, 0x1a, 0x27, 0xef, 0xfd, 0x5d,
  0x58, 0xe7, 0xd5, 0xc3, 0xa9, 0x3e, 0xe4, 0xc8, 0xb7, 0xed, 0x0a, 0x28, 0x15, 0x2d, 0xe2, 0xa7,
  0x3b, 0xed, 0xde, 0x22, 0x43, 0x1e, 0x94, 0x8a, 0x1e, 0x9e, 0xf6, 0xc6, 0xc2, 0xe2, 0x15, 0xe9,
  0x8b, 0x15, 0x12, 0xe5, 0x2c, 0xe0, 0x06, 0xf2, 0x1c, 0xe6, 0x68, 0x0f, 0x97, 0xdf, 0x22, 0xf4,
  0xc3, 0x16, 0xdb, 0x9c, 0x65, 0xfa, 0x4b, 0x81, 0xf2, 0x1b, 0xa8, 0xdd, 0x4d, 0x62, 0xbb, 0x59,
  0x26, 0x01, 0x01, 0xd5, 0xb6, 0x3e, 0x8f, 0xce, 0xb0, 0xa7, 0x58, 0x50, 0x96, 0xb6, 0x3d, 0x5c,
  0x49, 0xee, 0xdf, 0xce, 0xf4, 0xf4, 0x46, 0xee, 0x07, 0x1d, 0xe6, 0x14, 0xf4, 0xec, 0x2d, 0xdb,
  0xcb, 0x14, 0x00, 0xf7, 0xed, 0x28, 0xee, 0x16, 0xc7, 0xea, 0x03, 0x16, 0xfa, 0x00, 0x14, 0xe2,
  0x21, 0x22, 0xf2, 0xc8, 0xf7, 0x09, 0x1e, 0x1c, 0xf9, 0x08, 0x2e, 0xd9, 0xe8, 0x0d, 0x03, 0xf1,
  0x23, 0xd8, 0xf1, 0xb5, 0xe5, 0x1d, 0xee, 0x06, 0x21, 0xe4, 0x9b, 0x4b, 0xc8, 0x21, 0xfc, 0xfd,
  0x1a, 0xeb, 0x04, 0xd1, 0xdb, 0x38, 0xf4, 0x6b, 0x26, 0xe0, 0x78, 0xe1, 0xe0, 0x10, 0x0e, 0x06,
  0x18, 0xe0, 0x2e, 0x57, 0x3c, 0x32, 0x2a, 0x83, 0xff, 0x08, 0xe0, 0x7f, 0x52, 0xf7, 0x0b, 0x07,
  0xdc, 0xea, 0x38, 0xee, 0x2c, 0xd7, 0xee, 0xc9, 0x50, 0x0c, 0x4c, 0x0a, 0x2c, 0x02, 0xe9, 0x27,
  0xdc, 0x24, 0xfd, 0xf3, 0xc8, 0xf2, 0x11, 0x10, 0xe2, 0xd9, 0xdc, 0x7a, 0xb4, 0x4f, 0xad, 0x41,
  0xcc, 0x60, 0x93, 0x39, 0xdc, 0x24, 0x13, 0x41, 0x48, 0x15, 0x60, 0x9e, 0x10, 0xfe, 0xed, 0xbf,
  0xff, 0x60, 0x1c, 0x23, 0x04, 0xa3, 0xf6, 0x27, 0x14, 0x0c, 0xeb, 0x2f, 0x02, 0x03, 0xf2, 0xf0,
  0x00, 0x0d, 0xf3, 0xf4, 0x17, 0x02, 0x07, 0x39, 0x07, 0xf6, 0x79, 0x04, 0xff, 0xf1, 0xf9, 0xee,
  0xf7, 0xf9, 0x20, 0xe1, 0x02, 0x0d, 0xf1, 0x15, 0xee, 0x0d, 0x22, 0xf5, 0xe4, 0x09, 0xf9, 0xf7,
  0xf9, 0xe9, 0x14, 0x1b, 0x2a, 0x08, 0x1e, 0x21, 0x1f, 0x24, 0x1b, 0xef, 0x2e, 0x0f, 0xe6, 0xe4,
  0x01, 0xef, 0x0f, 0x08, 0xe7, 0x09, 0x0f, 0x09, 0xeb, 0x18, 0x7f, 0xd9, 0x0c, 0xdf, 0x0e, 0xf7,
  0x09, 0xde, 0x0e, 0xef, 0x02, 0xfb, 0x09, 0x10, 0x17, 0xe2, 0xa1, 0xfd, 0xeb, 0xec, 0x19, 0xff,
  0xe6, 0x1f, 0xf7, 0x25, 0xed, 0xf6, 0xff, 0x0e, 0xec, 0x06, 0x18, 0x12, 0xf3, 0x0e, 0x1e, 0x19,
  0xf9, 0x04, 0xe0, 0x22, 0x0f, 0x07, 0x0b, 0xfe, 0xe4, 0xeb, 0xa9, 0xdd, 0x2a, 0xf5, 0xe6, 0x1b,
  0x0a, 0xc1, 0x0e, 0xf0, 0x15, 0xf0, 0x26, 0xff, 0xdf, 0xf8, 0x19, 0x19, 0x23, 0x02, 0x1b, 0x02,
  0x29, 0x95, 0x1f, 0xe6, 0xed, 0x00, 0xff, 0x0d, 0xf2, 0xfd, 0xff, 0xff, 0x04, 0x00, 0x00, 0x00,
  0x20, 0x00, 0x00, 0x00, 0x64, 0x19, 0x00, 0x00, 0x86, 0x0e, 0x00, 0x00, 0x46, 0x06, 0x00, 0x00,
  0x50, 0x0f, 0x00, 0x00, 0xf1, 0xea, 0xff, 0xff, 0xb8, 0xb3, 0xff, 0xff, 0xda, 0x13, 0x00, 0x00,
  0x49, 0x1d, 0x00, 0x00, 0x1e, 0xfe, 0xff, 0xff, 0x04, 0x00, 0x00, 0x00, 0x20, 0x01, 0x00, 0x00,
  0xf8, 0x19, 0xcc, 0x26, 0x30, 0xec, 0x13, 0xe1, 0xfa, 0xfc, 0xd0, 0x2f, 0x1e, 0x10, 0xbe, 0x1f,
  0xdf, 0xf5, 0xfc, 0x12, 0xe5, 0x0b, 0x0c, 0x12, 0x12, 0x1d, 0xfc, 0x09, 0x1e, 0x02, 0xea, 0x13,
  0xfb, 0x12, 0x7f, 0x2b, 0xfb, 0x21, 0x30, 0xf1, 0xe0, 0xfb, 0x0d, 0x03, 0x21, 0x2c, 0xbe, 0xf3,
  0xf6, 0x25, 0xf3, 0xeb, 0xcb, 0xd9, 0x05, 0x1f, 0x2c, 0x0f, 0x2d, 0x22, 0x2c, 0x0c, 0xc6, 0xfc,
  0x1b, 0xde, 0xf9, 0x0d, 0x26, 0x29, 0xfc, 0xfd, 0x0d, 0x37, 0xd3, 0xd3, 0x32, 0xf1, 0x39, 0x1e,
  0x0e, 0xf2, 0xf4, 0x2e, 0xeb, 0xe9, 0xed, 0xe2, 0x10, 0x1c, 0xef, 0x35, 0xfc, 0xce, 0xdb, 0x18,
  0xcb, 0xdf, 0xe7, 0xfd, 0xff, 0xdb, 0xe1, 0xd2, 0xdc, 0x45, 0x7f, 0x25, 0x34, 0xee, 0x6e, 0x21,
  0xf5, 0x23, 0x13, 0x40, 0xc6, 0x16, 0xf9, 0x28, 0x18, 0xe0, 0xd7, 0xff, 0x19, 0x29, 0x19, 0x14,
  0xf3, 0xe8, 0x44, 0x17, 0x01, 0xe5, 0xd2, 0x2e, 0xf7, 0x11, 0xe6, 0x10, 0xf1, 0x31, 0xfb, 0x04,
  0xe3, 0xf8, 0xf3, 0x0b, 0xec, 0xf4, 0xec, 0x1d, 0xe4, 0x33, 0xe6, 0x00, 0xdd, 0xe5, 0x81, 0x1c,
  0x02, 0xfc, 0x0a, 0xf7, 0xee, 0x08, 0x1c, 0xf1, 0x03, 0x16, 0x0b, 0x2f, 0xee, 0xe3, 0xd9, 0x21,
  0xe3, 0x19, 0x44, 0x5b, 0x21, 0x01, 0x15, 0x28, 0x2c, 0x24, 0x19, 0x26, 0xfc, 0xf0, 0xbf, 0x0b,
  0xe8, 0x33, 0xf7, 0xf4, 0xe0, 0x15, 0x04, 0xfb, 0x0b, 0x1f, 0x39, 0x3a, 0x15, 0xdf, 0x06, 0xef,
  0x09, 0xe7, 0xe7, 0xdb, 0x17, 0xfa, 0x07, 0x16, 0xd2, 0x2c, 0xbe, 0xd5, 0x21, 0x09, 0x7f, 0x22,
  0x15, 0x08, 0xba, 0xe5, 0x1b, 0xfd, 0x98, 0xf8, 0x2a, 0x1d, 0xef, 0xda, 0x33, 0xf5, 0xe7, 0xe8,
  0xce, 0x12, 0xef, 0xf0, 0x2f, 0x39, 0xc3, 0x08, 0xd8, 0x5c, 0x4b, 0x73, 0x0f, 0x2f, 0x05, 0xfb,
  0x26, 0x32, 0x24, 0x4b, 0x0b, 0x24, 0xc2, 0x1f, 0x04, 0x17, 0xeb, 0xd0, 0xfd, 0x27, 0x07, 0xf1,
  0x38, 0x2d, 0x12, 0x3b, 0x02, 0xe6, 0x1d, 0x3e, 0xf5, 0x09, 0x0c, 0x0f, 0xeb, 0xfe, 0x0b, 0xe4,
  0x4a, 0xff, 0xff, 0xff, 0x04, 0x00, 0x00, 0x00, 0x10, 0x00, 0x00, 0x00, 0xf2, 0x09, 0x00, 0x00,
  0x91, 0x01, 0x00, 0x00, 0x03, 0x06, 0x00, 0x00, 0x56, 0x14, 0x00, 0x00, 0xfc, 0xff, 0xff, 0xff,
  0x04, 0x00, 0x04, 0x00, 0x04, 0x00, 0x00, 0x00, 0x0f, 0x00, 0x00, 0x00, 0x4d, 0x4c, 0x49, 0x52,
  0x20, 0x43, 0x6f, 0x6e, 0x76, 0x65, 0x72, 0x74, 0x65, 0x64, 0x2e, 0x00, 0x01, 0x00, 0x00, 0x00,
  0x14, 0x00, 0x00, 0x00, 0x00, 0x00, 0x0e, 0x00, 0x18, 0x00, 0x14, 0x00, 0x10, 0x00, 0x0c, 0x00,
  0x08, 0x00, 0x04, 0x00, 0x0e, 0x00, 0x00, 0x00, 0x14, 0x00, 0x00, 0x00, 0x1c, 0x00, 0x00, 0x00,
  0x5c, 0x01, 0x00, 0x00, 0x60, 0x01, 0x00, 0x00, 0x64, 0x01, 0x00, 0x00, 0x04, 0x00, 0x00, 0x00,
  0x6d, 0x61, 0x69, 0x6e, 0x00, 0x00, 0x00, 0x00, 0x04, 0x00, 0x00, 0x00, 0xf8, 0x00, 0x00, 0x00,
  0xa8, 0x00, 0x00, 0x00, 0x60, 0x00, 0x00, 0x00, 0x14, 0x00, 0x00, 0x00, 0x00, 0x00, 0x0e, 0x00,
  0x1a, 0x00, 0x14, 0x00, 0x10, 0x00, 0x0c, 0x00, 0x0b, 0x00, 0x04, 0x00, 0x0e, 0x00, 0x00, 0x00,
  0x1c, 0x00, 0x00, 0x00, 0x00, 0x00, 0x00, 0x5e, 0x1c, 0x00, 0x00, 0x00, 0x20, 0x00, 0x00, 0x00,
  0x01, 0x00, 0x00, 0x00, 0x00, 0x00, 0x06, 0x00, 0x08, 0x00, 0x04, 0x00, 0x06, 0x00, 0x00, 0x00,
  0x02, 0x00, 0x00, 0x00, 0x01, 0x00, 0x00, 0x00, 0x0a, 0x00, 0x00, 0x00, 0x01, 0x00, 0x00, 0x00,
  0x09, 0x00, 0x00, 0x00, 0x00, 0x00, 0x0e, 0x00, 0x16, 0x00, 0x00, 0x00, 0x10, 0x00, 0x0c, 0x00,
  0x0b, 0x00, 0x04, 0x00, 0x0e, 0x00, 0x00, 0x00, 0x1c, 0x00, 0x00, 0x00, 0x00, 0x00, 0x00, 0x01,
  0x20, 0x00, 0x00, 0x00, 0x24, 0x00, 0x00, 0x00, 0x00, 0x00, 0x0a, 0x00, 0x0c, 0x00, 0x00, 0x00,
  0x08, 0x00, 0x04, 0x00, 0x0a, 0x00, 0x00, 0x00, 0x01, 0x00, 0x00, 0x00, 0x01, 0x00, 0x00, 0x00,
  0x01, 0x00, 0x00, 0x00, 0x09, 0x00, 0x00, 0x00, 0x03, 0x00, 0x00, 0x00, 0x08, 0x00, 0x00, 0x00,
  0x02, 0x00, 0x00, 0x00, 0x01, 0x00, 0x00, 0x00, 0xc2, 0xff, 0xff, 0xff, 0x10, 0x00, 0x00, 0x00,
  0x00, 0x00, 0x00, 0x01, 0x18, 0x00, 0x00, 0x00, 0x1c, 0x00, 0x00, 0x00, 0xb4, 0xff, 0xff, 0xff,
  0x00, 0x00, 0x00, 0x01, 0x01, 0x00, 0x00, 0x00, 0x01, 0x00, 0x00, 0x00, 0x01, 0x00, 0x00, 0x00,
  0x08, 0x00, 0x00, 0x00, 0x03, 0x00, 0x00, 0x00, 0x07, 0x00, 0x00, 0x00, 0x04, 0x00, 0x00, 0x00,
  0x03, 0x00, 0x00, 0x00, 0x00, 0x00, 0x0e, 0x00, 0x14, 0x00, 0x00, 0x00, 0x10, 0x00, 0x0c, 0x00,
  0x0b, 0x00, 0x04, 0x00, 0x0e, 0x00, 0x00, 0x00, 0x1c, 0x00, 0x00, 0x00, 0x00, 0x00, 0x00, 0x01,
  0x24, 0x00, 0x00, 0x00, 0x28, 0x00, 0x00, 0x00, 0x0c, 0x00, 0x10, 0x00, 0x00, 0x00, 0x0c, 0x00,
  0x08, 0x00, 0x07, 0x00, 0x0c, 0x00, 0x00, 0x00, 0x00, 0x00, 0x00, 0x01, 0x01, 0x00, 0x00, 0x00,
  0x01, 0x00, 0x00, 0x00, 0x01, 0x00, 0x00, 0x00, 0x07, 0x00, 0x00, 0x00, 0x03, 0x00, 0x00, 0x00,
  0x00, 0x00, 0x00, 0x00, 0x06, 0x00, 0x00, 0x00, 0x05, 0x00, 0x00, 0x00, 0x01, 0x00, 0x00, 0x00,
  0x0a, 0x00, 0x00, 0x00, 0x01, 0x00, 0x00, 0x00, 0x00, 0x00, 0x00, 0x00, 0x0b, 0x00, 0x00, 0x00,
  0x00, 0x09, 0x00, 0x00, 0x18, 0x08, 0x00, 0x00, 0x74, 0x07, 0x00, 0x00, 0x58, 0x06, 0x00, 0x00,
  0x84, 0x05, 0x00, 0x00, 0x08, 0x04, 0x00, 0x00, 0xd4, 0x02, 0x00, 0x00, 0x00, 0x02, 0x00, 0x00,
  0x2c, 0x01, 0x00, 0x00, 0x78, 0x00, 0x00, 0x00, 0x04, 0x00, 0x00, 0x00, 0x42, 0xf7, 0xff, 0xff,
  0x00, 0x00, 0x00, 0x01, 0x14, 0x00, 0x00, 0x00, 0x30, 0x00, 0x00, 0x00, 0x0b, 0x00, 0x00, 0x00,
  0x00, 0x00, 0x00, 0x09, 0x44, 0x00, 0x00, 0x00, 0x2c, 0xf7, 0xff, 0xff, 0x08, 0x00, 0x00, 0x00,
  0x10, 0x00, 0x00, 0x00, 0x01, 0x00, 0x00, 0x00, 0xa9, 0xff, 0xff, 0xff, 0xff, 0xff, 0xff, 0xff,
  0x01, 0x00, 0x00, 0x00, 0xea, 0x18, 0xbd, 0x3b, 0x1b, 0x00, 0x00, 0x00, 0x53, 0x74, 0x61, 0x74,
  0x65, 0x66, 0x75, 0x6c, 0x50, 0x61, 0x72, 0x74, 0x69, 0x74, 0x69, 0x6f, 0x6e, 0x65, 0x64, 0x43,
  0x61, 0x6c, 0x6c, 0x5f, 0x31, 0x3a, 0x30, 0x00, 0x04, 0x00, 0x00, 0x00, 0x01, 0x00, 0x00, 0x00,
  0x30, 0x00, 0x00, 0x00, 0x40, 0x00, 0x00, 0x00, 0x01, 0x00, 0x00, 0x00, 0xb2, 0xf7, 0xff, 0xff,
  0x00, 0x00, 0x00, 0x01, 0x14, 0x00, 0x00, 0x00, 0x30, 0x00, 0x00, 0x00, 0x0a, 0x00, 0x00, 0x00,
  0x00, 0x00, 0x00, 0x09, 0x84, 0x00, 0x00, 0x00, 0x9c, 0xf7, 0xff, 0xff, 0x08, 0x00, 0x00, 0x00,
  0x10, 0x00, 0x00, 0x00, 0x01, 0x00, 0x00, 0x00, 0xa9, 0xff, 0xff, 0xff, 0xff, 0xff, 0xff, 0xff,
  0x01, 0x00, 0x00, 0x00, 0xea, 0x18, 0xbd, 0x3b, 0x5b, 0x00, 0x00, 0x00, 0x66, 0x75, 0x6e, 0x63,
  0x74, 0x69, 0x6f, 0x6e, 0x61, 0x6c, 0x5f, 0x31, 0x2f, 0x63, 0x6f, 0x6e, 0x76, 0x32, 0x5f, 0x31,
  0x2f, 0x42, 0x69, 0x61, 0x73, 0x41, 0x64, 0x64, 0x3b, 0x66, 0x75, 0x6e, 0x63, 0x74, 0x69, 0x6f,
  0x6e, 0x61, 0x6c, 0x5f, 0x31, 0x2f, 0x63, 0x6f, 0x6e, 0x76, 0x32, 0x5f, 0x31, 0x2f, 0x63, 0x6f,
  0x6e, 0x76, 0x6f, 0x6c, 0x75, 0x74, 0x69, 0x6f, 0x6e, 0x3b, 0x66, 0x75, 0x6e, 0x63, 0x74, 0x69,
  0x6f, 0x6e, 0x61, 0x6c, 0x5f, 0x31, 0x2f, 0x63, 0x6f, 0x6e, 0x76, 0x32, 0x5f, 0x31, 0x2f, 0x53,
  0x71, 0x75, 0x65, 0x65, 0x7a, 0x65, 0x31, 0x00, 0x04, 0x00, 0x00, 0x00, 0x01, 0x00, 0x00, 0x00,
  0x18, 0x00, 0x00, 0x00, 0x20, 0x00, 0x00, 0x00, 0x04, 0x00, 0x00, 0x00, 0x62, 0xf8, 0xff, 0xff,
  0x00, 0x00, 0x00, 0x01, 0x14, 0x00, 0x00, 0x00, 0x34, 0x00, 0x00, 0x00, 0x09, 0x00, 0x00, 0x00,
  0x00, 0x00, 0x00, 0x09, 0xa4, 0x00, 0x00, 0x00, 0x4c, 0xf8, 0xff, 0xff, 0x08, 0x00, 0x00, 0x00,
  0x14, 0x00, 0x00, 0x00, 0x01, 0x00, 0x00, 0x00, 0x80, 0xff, 0xff, 0xff, 0xff, 0xff, 0xff, 0xff,
  0x00, 0x00, 0x00, 0x00, 0x01, 0x00, 0x00, 0x00, 0x53, 0x06, 0x09, 0x3c, 0x75, 0x00, 0x00, 0x00,
  0x66, 0x75, 0x6e, 0x63, 0x74, 0x69, 0x6f, 0x6e, 0x61, 0x6c, 0x5f, 0x31, 0x2f, 0x63, 0x6f, 0x6e,
  0x76, 0x31, 0x5f, 0x31, 0x2f, 0x52, 0x65, 0x6c, 0x75, 0x3b, 0x66, 0x75, 0x6e, 0x63, 0x74, 0x69,
  0x6f, 0x6e, 0x61, 0x6c, 0x5f, 0x31, 0x2f, 0x63, 0x6f, 0x6e, 0x76, 0x31, 0x5f, 0x31, 0x2f, 0x42,
  0x69, 0x61, 0x73, 0x41, 0x64, 0x64, 0x3b, 0x66, 0x75, 0x6e, 0x63, 0x74, 0x69, 0x6f, 0x6e, 0x61,
  0x6c, 0x5f, 0x31, 0x2f, 0x63, 0x6f, 0x6e, 0x76, 0x31, 0x5f, 0x31, 0x2f, 0x63, 0x6f, 0x6e, 0x76,
  0x6f, 0x6c, 0x75, 0x74, 0x69, 0x6f, 0x6e, 0x3b, 0x66, 0x75, 0x6e, 0x63, 0x74, 0x69, 0x6f, 0x6e,
  0x61, 0x6c, 0x5f, 0x31, 0x2f, 0x63, 0x6f, 0x6e, 0x76, 0x31, 0x5f, 0x31, 0x2f, 0x53, 0x71, 0x75,
  0x65, 0x65, 0x7a, 0x65, 0x31, 0x00, 0x00, 0x00, 0x04, 0x00, 0x00, 0x00, 0x01, 0x00, 0x00, 0x00,
  0x18, 0x00, 0x00, 0x00, 0x20, 0x00, 0x00, 0x00, 0x08, 0x00, 0x00, 0x00, 0x32, 0xf9, 0xff, 0xff,
  0x00, 0x00, 0x00, 0x01, 0x14, 0x00, 0x00, 0x00, 0x34, 0x00, 0x00, 0x00, 0x08, 0x00, 0x00, 0x00,
  0x00, 0x00, 0x00, 0x09, 0xa4, 0x00, 0x00, 0x00, 0x1c, 0xf9, 0xff, 0xff, 0x08, 0x00, 0x00, 0x00,
  0x14, 0x00, 0x00, 0x00, 0x01, 0x00, 0x00, 0x00, 0x80, 0xff, 0xff, 0xff, 0xff, 0xff, 0xff, 0xff,
  0x00, 0x00, 0x00, 0x00, 0x01, 0x00, 0x00, 0x00, 0x76, 0x31, 0xab, 0x3b, 0x75, 0x00, 0x00, 0x00,
  0x66, 0x75, 0x6e, 0x63, 0x74, 0x69, 0x6f, 0x6e, 0x61, 0x6c, 0x5f, 0x31, 0x2f, 0x63, 0x6f, 0x6e,
  0x76, 0x30, 0x5f, 0x31, 0x2f, 0x52, 0x65, 0x6c, 0x75, 0x3b, 0x66, 0x75, 0x6e, 0x63, 0x74, 0x69,
  0x6f, 0x6e, 0x61, 0x6c, 0x5f, 0x31, 0x2f, 0x63, 0x6f, 0x6e, 0x76, 0x30, 0x5f, 0x31, 0x2f, 0x42,
  0x69, 0x61, 0x73, 0x41, 0x64, 0x64, 0x3b, 0x66, 0x75, 0x6e, 0x63, 0x74, 0x69, 0x6f, 0x6e, 0x61,
  0x6c, 0x5f, 0x31, 0x2f, 0x63, 0x6f, 0x6e, 0x76, 0x30, 0x5f, 0x31, 0x2f, 0x63, 0x6f, 0x6e, 0x76,
  0x6f, 0x6c, 0x75, 0x74, 0x69, 0x6f, 0x6e, 0x3b, 0x66, 0x75, 0x6e, 0x63, 0x74, 0x69, 0x6f, 0x6e,
  0x61, 0x6c, 0x5f, 0x31, 0x2f, 0x63, 0x6f, 0x6e, 0x76, 0x30, 0x5f, 0x31, 0x2f, 0x53, 0x71, 0x75,
  0x65, 0x65, 0x7a, 0x65, 0x31, 0x00, 0x00, 0x00, 0x04, 0x00, 0x00, 0x00, 0x01, 0x00, 0x00, 0x00,
  0x18, 0x00, 0x00, 0x00, 0x20, 0x00, 0x00, 0x00, 0x10, 0x00, 0x00, 0x00, 0x02, 0xfa, 0xff, 0xff,
  0x00, 0x00, 0x00, 0x01, 0x14, 0x00, 0x00, 0x00, 0xe8, 0x00, 0x00, 0x00, 0x07, 0x00, 0x00, 0x00,
  0x00, 0x00, 0x00, 0x09, 0x04, 0x01, 0x00, 0x00, 0xec, 0xf9, 0xff, 0xff, 0x08, 0x00, 0x00, 0x00,
  0x8c, 0x00, 0x00, 0x00, 0x10, 0x00, 0x00, 0x00, 0x00, 0x00, 0x00, 0x00, 0x00, 0x00, 0x00, 0x00,
  0x00, 0x00, 0x00, 0x00, 0x00, 0x00, 0x00, 0x00, 0x00, 0x00, 0x00, 0x00, 0x00, 0x00, 0x00, 0x00,
  0x00, 0x00, 0x00, 0x00, 0x00, 0x00, 0x00, 0x00, 0x00, 0x00, 0x00, 0x00, 0x00, 0x00, 0x00, 0x00,
  0x00, 0x00, 0x00, 0x00, 0x00, 0x00, 0x00, 0x00, 0x00, 0x00, 0x00, 0x00, 0x00, 0x00, 0x00, 0x00,
  0x00, 0x00, 0x00, 0x00, 0x00, 0x00, 0x00, 0x00, 0x00, 0x00, 0x00, 0x00, 0x00, 0x00, 0x00, 0x00,
  0x00, 0x00, 0x00, 0x00, 0x00, 0x00, 0x00, 0x00, 0x00, 0x00, 0x00, 0x00, 0x00, 0x00, 0x00, 0x00,
  0x00, 0x00, 0x00, 0x00, 0x00, 0x00, 0x00, 0x00, 0x00, 0x00, 0x00, 0x00, 0x00, 0x00, 0x00, 0x00,
  0x00, 0x00, 0x00, 0x00, 0x00, 0x00, 0x00, 0x00, 0x00, 0x00, 0x00, 0x00, 0x00, 0x00, 0x00, 0x00,
  0x00, 0x00, 0x00, 0x00, 0x00, 0x00, 0x00, 0x00, 0x00, 0x00, 0x00, 0x00, 0x10, 0x00, 0x00, 0x00,
  0xac, 0xb0, 0x18, 0x3b, 0x8d, 0xb0, 0x10, 0x3b, 0x9e, 0x4f, 0x9e, 0x3b, 0x19, 0xcf, 0x1f, 0x3b,
  0x69, 0x7d, 0x38, 0x3b, 0x98, 0xd7, 0x14, 0x3b, 0x87, 0x81, 0x0d, 0x3b, 0xf1, 0x79, 0x50, 0x3b,
  0x06, 0xb0, 0x2f, 0x3b, 0x2d, 0x04, 0x5b, 0x3b, 0xac, 0x41, 0x60, 0x3b, 0xfd, 0xe2, 0x2a, 0x3b,
  0xe9, 0xaf, 0x07, 0x3b, 0xaf, 0x0f, 0x38, 0x3b, 0x16, 0xda, 0x19, 0x3b, 0x2b, 0xf9, 0x3d, 0x3b,
  0x20, 0x00, 0x00, 0x00, 0x66, 0x75, 0x6e, 0x63, 0x74, 0x69, 0x6f, 0x6e, 0x61, 0x6c, 0x5f, 0x31,
  0x2f, 0x63, 0x6f, 0x6e, 0x76, 0x30, 0x5f, 0x31, 0x2f, 0x63, 0x6f, 0x6e, 0x76, 0x6f, 0x6c, 0x75,
  0x74, 0x69, 0x6f, 0x6e, 0x00, 0x00, 0x00, 0x00, 0x04, 0x00, 0x00, 0x00, 0x10, 0x00, 0x00, 0x00,
  0x03, 0x00, 0x00, 0x00, 0x03, 0x00, 0x00, 0x00, 0x01, 0x00, 0x00, 0x00, 0x32, 0xfb, 0xff, 0xff,
  0x00, 0x00, 0x00, 0x01, 0x14, 0x00, 0x00, 0x00, 0xe8, 0x00, 0x00, 0x00, 0x06, 0x00, 0x00, 0x00,
  0x00, 0x00, 0x00, 0x02, 0x58, 0x01, 0x00, 0x00, 0x1c, 0xfb, 0xff, 0xff, 0x08, 0x00, 0x00, 0x00,
  0x8c, 0x00, 0x00, 0x00, 0x10, 0x00, 0x00, 0x00, 0x00, 0x00, 0x00, 0x00, 0x00, 0x00, 0x00, 0x00,
  0x00, 0x00, 0x00, 0x00, 0x00, 0x00, 0x00, 0x00, 0x00, 0x00, 0x00, 0x00, 0x00, 0x00, 0x00, 0x00,
  0x00, 0x00, 0x00, 0x00, 0x00, 0x00, 0x00, 0x00, 0x00, 0x00, 0x00, 0x00, 0x00, 0x00, 0x00, 0x00,
  0x00, 0x00, 0x00, 0x00, 0x00, 0x00, 0x00, 0x00, 0x00, 0x00, 0x00, 0x00, 0x00, 0x00, 0x00, 0x00,
  0x00, 0x00, 0x00, 0x00, 0x00, 0x00, 0x00, 0x00, 0x00, 0x00, 0x00, 0x00, 0x00, 0x00, 0x00, 0x00,
  0x00, 0x00, 0x00, 0x00, 0x00, 0x00, 0x00, 0x00, 0x00, 0x00, 0x00, 0x00, 0x00, 0x00, 0x00, 0x00,
  0x00, 0x00, 0x00, 0x00, 0x00, 0x00, 0x00, 0x00, 0x00, 0x00, 0x00, 0x00, 0x00, 0x00, 0x00, 0x00,
  0x00, 0x00, 0x00, 0x00, 0x00, 0x00, 0x00, 0x00, 0x00, 0x00, 0x00, 0x00, 0x00, 0x00, 0x00, 0x00,
  0x00, 0x00, 0x00, 0x00, 0x00, 0x00, 0x00, 0x00, 0x00, 0x00, 0x00, 0x00, 0x10, 0x00, 0x00, 0x00,
  0xf7, 0x49, 0x19, 0x37, 0xcf, 0x41, 0x11, 0x37, 0x8d, 0xee, 0x9e, 0x37, 0x89, 0x6f, 0x20, 0x37,
  0xa0, 0x36, 0x39, 0x37, 0x06, 0x6d, 0x15, 0x37, 0x97, 0x0f, 0x0e, 0x37, 0x3d, 0x4b, 0x51, 0x37,
  0x67, 0x60, 0x30, 0x37, 0x0e, 0xe0, 0x5b, 0x37, 0xd0, 0x22, 0x61, 0x37, 0x8c, 0x8e, 0x2b, 0x37,
  0x22, 0x38, 0x08, 0x37, 0x78, 0xc8, 0x38, 0x37, 0x8b, 0x74, 0x1a, 0x37, 0xe4, 0xb7, 0x3e, 0x37,
  0x74, 0x00, 0x00, 0x00, 0x66, 0x75, 0x6e, 0x63, 0x74, 0x69, 0x6f, 0x6e, 0x61, 0x6c, 0x5f, 0x31,
  0x2f, 0x63, 0x6f, 0x6e, 0x76, 0x30, 0x5f, 0x31, 0x2f, 0x52, 0x65, 0x6c, 0x75, 0x3b, 0x66, 0x75,
  0x6e, 0x63, 0x74, 0x69, 0x6f, 0x6e, 0x61, 0x6c, 0x5f, 0x31, 0x2f, 0x63, 0x6f, 0x6e, 0x76, 0x30,
  0x5f, 0x31, 0x2f, 0x42, 0x69, 0x61, 0x73, 0x41, 0x64, 0x64, 0x3b, 0x66, 0x75, 0x6e, 0x63, 0x74,
  0x69, 0x6f, 0x6e, 0x61, 0x6c, 0x5f, 0x31, 0x2f, 0x63, 0x6f, 0x6e, 0x76, 0x30, 0x5f, 0x31, 0x2f,
  0x63, 0x6f, 0x6e, 0x76, 0x6f, 0x6c, 0x75, 0x74, 0x69, 0x6f, 0x6e, 0x3b, 0x66, 0x75, 0x6e, 0x63,
  0x74, 0x69, 0x6f, 0x6e, 0x61, 0x6c, 0x5f, 0x31, 0x2f, 0x63, 0x6f, 0x6e, 0x76, 0x30, 0x5f, 0x31,
  0x2f, 0x53, 0x71, 0x75, 0x65, 0x65, 0x7a, 0x65, 0x00, 0x00, 0x00, 0x00, 0x01, 0x00, 0x00, 0x00,
  0x10, 0x00, 0x00, 0x00, 0xaa, 0xfc, 0xff, 0xff, 0x00, 0x00, 0x00, 0x01, 0x14, 0x00, 0x00, 0x00,
  0x88, 0x00, 0x00, 0x00, 0x05, 0x00, 0x00, 0x00, 0x00, 0x00, 0x00, 0x09, 0xa4, 0x00, 0x00, 0x00,
  0x94, 0xfc, 0xff, 0xff, 0x08, 0x00, 0x00, 0x00, 0x4c, 0x00, 0x00, 0x00, 0x08, 0x00, 0x00, 0x00,
  0x00, 0x00, 0x00, 0x00, 0x00, 0x00, 0x00, 0x00, 0x00, 0x00, 0x00, 0x00, 0x00, 0x00, 0x00, 0x00,
  0x00, 0x00, 0x00, 0x00, 0x00, 0x00, 0x00, 0x00, 0x00, 0x00, 0x00, 0x00, 0x00, 0x00, 0x00, 0x00,
  0x00, 0x00, 0x00, 0x00, 0x00, 0x00, 0x00, 0x00, 0x00, 0x00, 0x00, 0x00, 0x00, 0x00, 0x00, 0x00,
  0x00, 0x00, 0x00, 0x00, 0x00, 0x00, 0x00, 0x00, 0x00, 0x00, 0x00, 0x00, 0x00, 0x00, 0x00, 0x00,
  0x00, 0x00, 0x00, 0x00, 0x08, 0x00, 0x00, 0x00, 0x62, 0xb0, 0x65, 0x3a, 0x2d, 0xb0, 0x0d, 0x3b,
  0xcc, 0x6b, 0x71, 0x3b, 0x07, 0x7b, 0x44, 0x3b, 0xd6, 0xe5, 0x31, 0x3b, 0x18, 0xf8, 0x3d, 0x3a,
  0xb2, 0xf7, 0xef, 0x3a, 0x14, 0x91, 0x12, 0x3b, 0x20, 0x00, 0x00, 0x00, 0x66, 0x75, 0x6e, 0x63,
  0x74, 0x69, 0x6f, 0x6e, 0x61, 0x6c, 0x5f, 0x31, 0x2f, 0x63, 0x6f, 0x6e, 0x76, 0x31, 0x5f, 0x31,
  0x2f, 0x63, 0x6f, 0x6e, 0x76, 0x6f, 0x6c, 0x75, 0x74, 0x69, 0x6f, 0x6e, 0x00, 0x00, 0x00, 0x00,
  0x04, 0x00, 0x00, 0x00, 0x08, 0x00, 0x00, 0x00, 0x03, 0x00, 0x00, 0x00, 0x03, 0x00, 0x00, 0x00,
  0x10, 0x00, 0x00, 0x00, 0x7a, 0xfd, 0xff, 0xff, 0x00, 0x00, 0x00, 0x01, 0x14, 0x00, 0x00, 0x00,
  0x88, 0x00, 0x00, 0x00, 0x04, 0x00, 0x00, 0x00, 0x00, 0x00, 0x00, 0x02, 0xf8, 0x00, 0x00, 0x00,
  0x64, 0xfd, 0xff, 0xff, 0x08, 0x00, 0x00, 0x00, 0x4c, 0x00, 0x00, 0x00, 0x08, 0x00, 0x00, 0x00,
  0x00, 0x00, 0x00, 0x00, 0x00, 0x00, 0x00, 0x00, 0x00, 0x00, 0x00, 0x00, 0x00, 0x00, 0x00, 0x00,
  0x00, 0x00, 0x00, 0x00, 0x00, 0x00, 0x00, 0x00, 0x00, 0x00, 0x00, 0x00, 0x00, 0x00, 0x00, 0x00,
  0x00, 0x00, 0x00, 0x00, 0x00, 0x00, 0x00, 0x00, 0x00, 0x00, 0x00, 0x00, 0x00, 0x00, 0x00, 0x00,
  0x00, 0x00, 0x00, 0x00, 0x00, 0x00, 0x00, 0x00, 0x00, 0x00, 0x00, 0x00, 0x00, 0x00, 0x00, 0x00,
  0x00, 0x00, 0x00, 0x00, 0x08, 0x00, 0x00, 0x00, 0x32, 0x99, 0x99, 0x36, 0x1c, 0x80, 0x3d, 0x37,
  0xa6, 0x71, 0xa1, 0x37, 0x24, 0x64, 0x83, 0x37, 0xca, 0xed, 0x6d, 0x37, 0xd8, 0x12, 0x7e, 0x36,
  0xd1, 0x78, 0x20, 0x37, 0x73, 0x06, 0x44, 0x37, 0x74, 0x00, 0x00, 0x00, 0x66, 0x75, 0x6e, 0x63,
  0x74, 0x69, 0x6f, 0x6e, 0x61, 0x6c, 0x5f, 0x31, 0x2f, 0x63, 0x6f, 0x6e, 0x76, 0x31, 0x5f, 0x31,
  0x2f, 0x52, 0x65, 0x6c, 0x75, 0x3b, 0x66, 0x75, 0x6e, 0x63, 0x74, 0x69, 0x6f, 0x6e, 0x61, 0x6c,
  0x5f, 0x31, 0x2f, 0x63, 0x6f, 0x6e, 0x76, 0x31, 0x5f, 0x31, 0x2f, 0x42, 0x69, 0x61, 0x73, 0x41,
  0x64, 0x64, 0x3b, 0x66, 0x75, 0x6e, 0x63, 0x74, 0x69, 0x6f, 0x6e, 0x61, 0x6c, 0x5f, 0x31, 0x2f,
  0x63, 0x6f, 0x6e, 0x76, 0x31, 0x5f, 0x31, 0x2f, 0x63, 0x6f, 0x6e, 0x76, 0x6f, 0x6c, 0x75, 0x74,
  0x69, 0x6f, 0x6e, 0x3b, 0x66, 0x75, 0x6e, 0x63, 0x74, 0x69, 0x6f, 0x6e, 0x61, 0x6c, 0x5f, 0x31,
  0x2f, 0x63, 0x6f, 0x6e, 0x76, 0x31, 0x5f, 0x31, 0x2f, 0x53, 0x71, 0x75, 0x65, 0x65, 0x7a, 0x65,
  0x00, 0x00, 0x00, 0x00, 0x01, 0x00, 0x00, 0x00, 0x08, 0x00, 0x00, 0x00, 0x92, 0xfe, 0xff, 0xff,
  0x00, 0x00, 0x00, 0x01, 0x14, 0x00, 0x00, 0x00, 0x58, 0x00, 0x00, 0x00, 0x03, 0x00, 0x00, 0x00,
  0x00, 0x00, 0x00, 0x09, 0x74, 0x00, 0x00, 0x00, 0x7c, 0xfe, 0xff, 0xff, 0x08, 0x00, 0x00, 0x00,
  0x2c, 0x00, 0x00, 0x00, 0x04, 0x00, 0x00, 0x00, 0x00, 0x00, 0x00, 0x00, 0x00, 0x00, 0x00, 0x00,
  0x00, 0x00, 0x00, 0x00, 0x00, 0x00, 0x00, 0x00, 0x00, 0x00, 0x00, 0x00, 0x00, 0x00, 0x00, 0x00,
  0x00, 0x00, 0x00, 0x00, 0x00, 0x00, 0x00, 0x00, 0x00, 0x00, 0x00, 0x00, 0x04, 0x00, 0x00, 0x00,
  0xb1, 0xa7, 0x28, 0x3b, 0xc8, 0x6f, 0x04, 0x3b, 0x01, 0x40, 0x40, 0x3b, 0xad, 0x11, 0x0b, 0x3b,
  0x20, 0x00, 0x00, 0x00, 0x66, 0x75, 0x6e, 0x63, 0x74, 0x69, 0x6f, 0x6e, 0x61, 0x6c, 0x5f, 0x31,
  0x2f, 0x63, 0x6f, 0x6e, 0x76, 0x32, 0x5f, 0x31, 0x2f, 0x63, 0x6f, 0x6e, 0x76, 0x6f, 0x6c, 0x75,
  0x74, 0x69, 0x6f, 0x6e, 0x00, 0x00, 0x00, 0x00, 0x04, 0x00, 0x00, 0x00, 0x04, 0x00, 0x00, 0x00,
  0x03, 0x00, 0x00, 0x00, 0x03, 0x00, 0x00, 0x00, 0x08, 0x00, 0x00, 0x00, 0x32, 0xff, 0xff, 0xff,
  0x00, 0x00, 0x00, 0x01, 0x14, 0x00, 0x00, 0x00, 0x58, 0x00, 0x00, 0x00, 0x02, 0x00, 0x00, 0x00,
  0x00, 0x00, 0x00, 0x02, 0xac, 0x00, 0x00, 0x00, 0x1c, 0xff, 0xff, 0xff, 0x08, 0x00, 0x00, 0x00,
  0x2c, 0x00, 0x00, 0x00, 0x04, 0x00, 0x00, 0x00, 0x00, 0x00, 0x00, 0x00, 0x00, 0x00, 0x00, 0x00,
  0x00, 0x00, 0x00, 0x00, 0x00, 0x00, 0x00, 0x00, 0x00, 0x00, 0x00, 0x00, 0x00, 0x00, 0x00, 0x00,
  0x00, 0x00, 0x00, 0x00, 0x00, 0x00, 0x00, 0x00, 0x00, 0x00, 0x00, 0x00, 0x04, 0x00, 0x00, 0x00,
  0xd1, 0x8b, 0xb4, 0x37, 0x2f, 0xc6, 0x8d, 0x37, 0x01, 0xce, 0xcd, 0x37, 0xca, 0xdf, 0x94, 0x37,
  0x5a, 0x00, 0x00, 0x00, 0x66, 0x75, 0x6e, 0x63, 0x74, 0x69, 0x6f, 0x6e, 0x61, 0x6c, 0x5f, 0x31,
  0x2f, 0x63, 0x6f, 0x6e, 0x76, 0x32, 0x5f, 0x31, 0x2f, 0x42, 0x69, 0x61, 0x73, 0x41, 0x64, 0x64,
  0x3b, 0x66, 0x75, 0x6e, 0x63, 0x74, 0x69, 0x6f, 0x6e, 0x61, 0x6c, 0x5f, 0x31, 0x2f, 0x63, 0x6f,
  0x6e, 0x76, 0x32, 0x5f, 0x31, 0x2f, 0x63, 0x6f, 0x6e, 0x76, 0x6f, 0x6c, 0x75, 0x74, 0x69, 0x6f,
  0x6e, 0x3b, 0x66, 0x75, 0x6e, 0x63, 0x74, 0x69, 0x6f, 0x6e, 0x61, 0x6c, 0x5f, 0x31, 0x2f, 0x63,
  0x6f, 0x6e, 0x76, 0x32, 0x5f, 0x31, 0x2f, 0x53, 0x71, 0x75, 0x65, 0x65, 0x7a, 0x65, 0x00, 0x00,
  0x01, 0x00, 0x00, 0x00, 0x04, 0x00, 0x00, 0x00, 0x00, 0x00, 0x16, 0x00, 0x1c, 0x00, 0x18, 0x00,
  0x17, 0x00, 0x10, 0x00, 0x0c, 0x00, 0x08, 0x00, 0x00, 0x00, 0x00, 0x00, 0x00, 0x00, 0x07, 0x00,
  0x16, 0x00, 0x00, 0x00, 0x00, 0x00, 0x00, 0x01, 0x20, 0x00, 0x00, 0x00, 0x3c, 0x00, 0x00, 0x00,
  0x01, 0x00, 0x00, 0x00, 0x00, 0x00, 0x00, 0x09, 0x4c, 0x00, 0x00, 0x00, 0x0c, 0x00, 0x0c, 0x00,
  0x00, 0x00, 0x00, 0x00, 0x08, 0x00, 0x04, 0x00, 0x0c, 0x00, 0x00, 0x00, 0x08, 0x00, 0x00, 0x00,
  0x10, 0x00, 0x00, 0x00, 0x01, 0x00, 0x00, 0x00, 0x80, 0xff, 0xff, 0xff, 0xff, 0xff, 0xff, 0xff,
  0x01, 0x00, 0x00, 0x00, 0x81, 0x80, 0x80, 0x3b, 0x17, 0x00, 0x00, 0x00, 0x73, 0x65, 0x72, 0x76,
  0x69, 0x6e, 0x67, 0x5f, 0x64, 0x65, 0x66, 0x61, 0x75, 0x6c, 0x74, 0x5f, 0x69, 0x6e, 0x70, 0x75,
  0x74, 0x3a, 0x30, 0x00, 0x04, 0x00, 0x00, 0x00, 0x01, 0x00, 0x00, 0x00, 0x18, 0x00, 0x00, 0x00,
  0x20, 0x00, 0x00, 0x00, 0x01, 0x00, 0x00, 0x00, 0x02, 0x00, 0x00, 0x00, 0x24, 0x00, 0x00, 0x00,
  0x04, 0x00, 0x00, 0x00, 0xf0, 0xff, 0xff, 0xff, 0x05, 0x00, 0x00, 0x00, 0x02, 0x00, 0x00, 0x00,
  0x00, 0x00, 0x00, 0x05, 0x0c, 0x00, 0x10, 0x00, 0x0f, 0x00, 0x00, 0x00, 0x08, 0x00, 0x04, 0x00,
  0x0c, 0x00, 0x00, 0x00, 0x03, 0x00, 0x00, 0x00, 0x03, 0x00, 0x00, 0x00, 0x00, 0x00, 0x00, 0x03,
};
const size_t espcn_micro_int8_tflite_len = 5168;
