/* Auto-generated from espcn_light_int8.tflite — do not edit */
#pragma once
#include <stddef.h>

const unsigned char espcn_light_int8_tflite[] = {
  0x1c, 0x00, 0x00, 0x00, 0x54, 0x46, 0x4c, 0x33, 0x14, 0x00, 0x20, 0x00, 0x1c, 0x00, 0x18, 0x00,
  0x14, 0x00, 0x10, 0x00, 0x0c, 0x00, 0x00, 0x00, 0x04, 0x00, 0x08, 0x00, 0x14, 0x00, 0x00, 0x00,
  0x1c, 0x00, 0x00, 0x00, 0x20, 0x00, 0x00, 0x00, 0x24, 0x00, 0x00, 0x00, 0x48, 0x00, 0x00, 0x00,
  0x64, 0x00, 0x00, 0x00, 0x68, 0x00, 0x00, 0x00, 0x03, 0x00, 0x00, 0x00, 0x01, 0x00, 0x00, 0x00,
  0x6c, 0x00, 0x00, 0x00, 0x01, 0x00, 0x00, 0x00, 0x98, 0x00, 0x00, 0x00, 0x09, 0x00, 0x00, 0x00,
  0xa0, 0x30, 0x00, 0x00, 0x4c, 0x2a, 0x00, 0x00, 0xfc, 0x29, 0x00, 0x00, 0xec, 0x05, 0x00, 0x00,
  0xbc, 0x05, 0x00, 0x00, 0x2c, 0x01, 0x00, 0x00, 0x14, 0x01, 0x00, 0x00, 0xf4, 0x00, 0x00, 0x00,
  0xd8, 0x00, 0x00, 0x00, 0x19, 0x00, 0x00, 0x00, 0x6f, 0x6e, 0x6e, 0x78, 0x32, 0x74, 0x66, 0x20,
  0x66, 0x6c, 0x61, 0x74, 0x62, 0x75, 0x66, 0x66, 0x65, 0x72, 0x5f, 0x64, 0x69, 0x72, 0x65, 0x63,
  0x74, 0x00, 0x00, 0x00, 0x01, 0x00, 0x00, 0x00, 0x6c, 0x30, 0x00, 0x00, 0x03, 0x00, 0x00, 0x00,
  0xf4, 0x36, 0x00, 0x00, 0xd8, 0x36, 0x00, 0x00, 0xc8, 0x36, 0x00, 0x00, 0x98, 0xff, 0xff, 0xff,
  0x08, 0x00, 0x00, 0x00, 0x04, 0x00, 0x00, 0x00, 0x19, 0x00, 0x00, 0x00, 0x72, 0x65, 0x64, 0x75,
  0x63, 0x65, 0x64, 0x5f, 0x70, 0x72, 0x65, 0x63, 0x69, 0x73, 0x69, 0x6f, 0x6e, 0x5f, 0x73, 0x75,
  0x70, 0x70, 0x6f, 0x72, 0x74, 0x00, 0x0a, 0x00, 0x10, 0x00, 0x0c, 0x00, 0x08, 0x00, 0x04, 0x00,
  0x0a, 0x00, 0x00, 0x00, 0x0c, 0x00, 0x00, 0x00, 0x1c, 0x00, 0x00, 0x00, 0x20, 0x00, 0x00, 0x00,
  0x0f, 0x00, 0x00, 0x00, 0x73, 0x65, 0x72, 0x76, 0x69, 0x6e, 0x67, 0x5f, 0x64, 0x65, 0x66, 0x61,
  0x75, 0x6c, 0x74, 0x00, 0x01, 0x00, 0x00, 0x00, 0x14, 0x00, 0x00, 0x00, 0x01, 0x00, 0x00, 0x00,
  0x24, 0x00, 0x00, 0x00, 0x08, 0x00, 0x0c, 0x00, 0x08, 0x00, 0x04, 0x00, 0x08, 0x00, 0x00, 0x00,
  0x0a, 0x00, 0x00, 0x00, 0x04, 0x00, 0x00, 0x00, 0x06, 0x00, 0x00, 0x00, 0x6f, 0x75, 0x74, 0x70,
  0x75, 0x74, 0x00, 0x00, 0x3e, 0xcf, 0xff, 0xff, 0x04, 0x00, 0x00, 0x00, 0x05, 0x00, 0x00, 0x00,
  0x69, 0x6e, 0x70, 0x75, 0x74, 0x00, 0x00, 0x00, 0x52, 0xcf, 0xff, 0xff, 0x04, 0x00, 0x00, 0x00,
  0x0b, 0x00, 0x00, 0x00, 0x66, 0x70, 0x31, 0x36, 0x61, 0x63, 0x63, 0x66, 0x70, 0x33, 0x32, 0x00,
  0x6a, 0xcf, 0xff, 0xff, 0x04, 0x00, 0x00, 0x00, 0x10, 0x00, 0x00, 0x00, 0x00, 0x00, 0x00, 0x00,
  0x01, 0x00, 0x00, 0x00, 0x02, 0x00, 0x00, 0x00, 0x03, 0x00, 0x00, 0x00, 0x86, 0xcf, 0xff, 0xff,
  0x04, 0x00, 0x00, 0x00, 0x08, 0x00, 0x00, 0x00, 0xda, 0x2d, 0x8e, 0x2b, 0x62, 0x2c, 0xe5, 0xa0,
  0x9a, 0xcf, 0xff, 0xff, 0x04, 0x00, 0x00, 0x00, 0x80, 0x04, 0x00, 0x00, 0xae, 0x9e, 0x2e, 0x28,
  0x11, 0xa0, 0x36, 0x28, 0x92, 0x29, 0xe2, 0xac, 0x0b, 0xa7, 0xca, 0x25, 0x0d, 0xad, 0xe6, 0x21,
  0xba, 0xa5, 0xdf, 0x28, 0xfb, 0xac, 0xd0, 0x2e, 0x69, 0x24, 0xe4, 0x2d, 0xdd, 0xa4, 0xfc, 0xa7,
  0xed, 0x9f, 0xcb, 0x28, 0x04, 0x2c, 0xf4, 0x21, 0x6e, 0xa9, 0x7a, 0xa8, 0xde, 0xa8, 0x60, 0xae,
  0x80, 0x91, 0xab, 0xa5, 0x2a, 0x30, 0x7a, 0x29, 0xee, 0xa0, 0x77, 0x30, 0x44, 0x2a, 0xab, 0xa9,
  0xd0, 0xa2, 0x62, 0xaf, 0x78, 0xab, 0xa0, 0x2d, 0xcd, 0x1e, 0x38, 0x30, 0x5b, 0xa0, 0x44, 0xa8,
  0x6f, 0x2d, 0xa4, 0x19, 0x36, 0xa8, 0xe5, 0xaf, 0xab, 0x22, 0x5c, 0x1f, 0xff, 0x2e, 0x57, 0xa7,
  0xe9, 0x29, 0x04, 0x21, 0xbb, 0x26, 0x6c, 0xab, 0x4d, 0x1a, 0x68, 0x2c, 0x88, 0x26, 0x0a, 0xa8,
  0x86, 0x2a, 0xba, 0x27, 0x35, 0xa9, 0x1e, 0x9b, 0x9d, 0xae, 0x21, 0xb0, 0x65, 0xa5, 0x28, 0xaa,
  0x22, 0x8c, 0xfb, 0x28, 0xf7, 0x29, 0x9f, 0x24, 0x69, 0xaf, 0x33, 0x9c, 0x00, 0x31, 0xe6, 0x31,
  0xa9, 0x2a, 0xad, 0x22, 0x74, 0x23, 0x93, 0xa6, 0x7c, 0x2d, 0xc5, 0x30, 0x7a, 0x2e, 0xaf, 0x20,
  0xd4, 0xad, 0x2f, 0x22, 0x70, 0xac, 0x8f, 0x2d, 0x00, 0xac, 0x0e, 0x2d, 0x22, 0x2f, 0x4e, 0xae,
  0xc1, 0x26, 0x5d, 0x2a, 0xd0, 0x9d, 0x93, 0xa3, 0xda, 0x26, 0x47, 0xac, 0xe8, 0x20, 0xa5, 0xa3,
  0x8a, 0x25, 0x04, 0xa4, 0x08, 0x2b, 0x9b, 0x26, 0x4c, 0xa5, 0x51, 0xaa, 0x89, 0x1c, 0x8b, 0x9d,
  0x4e, 0x29, 0xa2, 0x29, 0x78, 0xa8, 0x43, 0xa9, 0x7a, 0xaa, 0x65, 0x29, 0x17, 0xa5, 0x77, 0xaa,
  0x8f, 0xab, 0x53, 0xab, 0xc3, 0x2b, 0x67, 0x24, 0xc5, 0x30, 0x50, 0xa8, 0x3e, 0xab, 0x2f, 0x2a,
  0xb4, 0x9c, 0xee, 0x2c, 0xeb, 0xa8, 0x2d, 0x2c, 0x15, 0x26, 0x83, 0x24, 0x0e, 0x1f, 0xf2, 0x26,
  0xd4, 0xaa, 0xd7, 0xa8, 0xae, 0x2a, 0xd6, 0x2b, 0x7b, 0xa5, 0xd1, 0x2c, 0xf1, 0x21, 0x62, 0x25,
  0x2b, 0x2b, 0x53, 0x91, 0xf5, 0xa5, 0x30, 0x2d, 0x3a, 0xad, 0x28, 0x26, 0xe7, 0xab, 0xd8, 0x2d,
  0xa8, 0x24, 0xb8, 0x2d, 0x96, 0x28, 0x46, 0x1c, 0x3d, 0x28, 0x2f, 0x2c, 0x0f, 0x2a, 0x75, 0xa9,
  0x9b, 0x25, 0x4a, 0x29, 0xdc, 0xa9, 0x66, 0x27, 0x8e, 0xac, 0x1e, 0xac, 0x25, 0x33, 0x61, 0xad,
  0x60, 0xab, 0x6b, 0x2f, 0x4d, 0xaa, 0x24, 0xab, 0x6a, 0x25, 0xcb, 0xa6, 0x50, 0xaa, 0x01, 0xac,
  0x17, 0x27, 0x77, 0xa9, 0xde, 0x2e, 0x91, 0xa7, 0xf0, 0xae, 0xed, 0x26, 0x7f, 0xa9, 0xc5, 0x2b,
  0x14, 0x29, 0xdc, 0xa8, 0xac, 0xaa, 0x9c, 0x2b, 0x91, 0x2b, 0xcf, 0x21, 0x99, 0x18, 0xd5, 0xa7,
  0x80, 0xa9, 0x0e, 0xaa, 0x59, 0x2a, 0xcc, 0x25, 0xc5, 0xa9, 0x28, 0x2a, 0xb4, 0xaa, 0x7e, 0x2d,
  0x8a, 0xa9, 0x94, 0xa5, 0xe0, 0xa0, 0xac, 0x20, 0xa1, 0xaa, 0x15, 0xac, 0xcf, 0xa2, 0xd1, 0x27,
  0x7b, 0xa7, 0x95, 0xa0, 0xea, 0xa5, 0xc4, 0xab, 0x87, 0x31, 0x95, 0x2d, 0xed, 0x2b, 0xf6, 0x20,
  0xc3, 0x9f, 0x02, 0xa8, 0x91, 0xaa, 0x2f, 0xab, 0x8f, 0x30, 0x49, 0x2e, 0xcd, 0x31, 0x48, 0x31,
  0xbe, 0xa5, 0x8b, 0xa4, 0x9e, 0x9e, 0xac, 0xa8, 0xe0, 0x17, 0x7b, 0xad, 0x61, 0xa9, 0x53, 0x1d,
  0x76, 0x2c, 0xd8, 0xad, 0x5f, 0xa4, 0x60, 0x28, 0x6c, 0x2e, 0xc5, 0x2e, 0x77, 0x26, 0x5f, 0xa7,
  0xe6, 0xa8, 0xb4, 0xad, 0x26, 0xa9, 0x98, 0x2d, 0x10, 0xaa, 0xb7, 0x2c, 0xf7, 0x2a, 0x7d, 0xaa,
  0xa9, 0x25, 0x36, 0xac, 0x01, 0x19, 0xb4, 0x29, 0xbd, 0x2a, 0x75, 0x21, 0xb7, 0xa4, 0xc5, 0xa7,
  0x17, 0x9e, 0x80, 0x2a, 0x60, 0x98, 0x1b, 0x2c, 0xb5, 0x2d, 0x20, 0xac, 0x94, 0x89, 0x97, 0xa6,
  0xf5, 0x2c, 0x1a, 0xa5, 0x3c, 0xaa, 0x22, 0x1e, 0x14, 0x19, 0x20, 0xa8, 0x38, 0xa8, 0x04, 0x2a,
  0x69, 0x2b, 0xe6, 0x2a, 0x1e, 0x29, 0xa8, 0xa8, 0x0b, 0x92, 0xbb, 0xaa, 0x72, 0x9f, 0x3d, 0x28,
  0xf8, 0x27, 0x3b, 0x20, 0xac, 0xa8, 0x34, 0x2a, 0x96, 0x2d, 0xdb, 0xa8, 0xf7, 0x23, 0x0f, 0x9e,
  0xdd, 0x21, 0x0c, 0x2d, 0xbd, 0xa9, 0xe7, 0xa5, 0x8c, 0x9a, 0xbe, 0x22, 0x9f, 0xaa, 0xd0, 0xad,
  0xf0, 0x21, 0xf6, 0xa6, 0xf3, 0x26, 0xb6, 0x1e, 0x7e, 0x1e, 0xa5, 0x29, 0x10, 0xac, 0x6c, 0x20,
  0x4c, 0xab, 0x7b, 0x2c, 0x1d, 0xad, 0x77, 0x2b, 0xa6, 0x2d, 0xfe, 0x2d, 0xee, 0xac, 0x33, 0xa2,
  0x9b, 0x24, 0xf9, 0xa8, 0xb8, 0x03, 0xbb, 0x28, 0x34, 0x28, 0xce, 0xad, 0xcd, 0xa4, 0x11, 0xaf,
  0x16, 0x2c, 0x69, 0x1b, 0x25, 0x2e, 0x06, 0x21, 0xf1, 0x2c, 0xb2, 0x2a, 0x13, 0x15, 0x47, 0xac,
  0x47, 0x21, 0xf4, 0x23, 0x51, 0xa8, 0x99, 0xa8, 0xb1, 0x96, 0x23, 0x30, 0x60, 0xaa, 0x47, 0x2b,
  0xdf, 0x2d, 0x6d, 0xaa, 0xb1, 0x2a, 0xc5, 0x26, 0x6c, 0xa8, 0x61, 0xa4, 0x4b, 0x91, 0xc2, 0x28,
  0x48, 0x29, 0x87, 0x2c, 0xeb, 0x24, 0x35, 0x25, 0xde, 0x25, 0xcb, 0xa2, 0x7f, 0xa8, 0x75, 0x29,
  0x07, 0x2c, 0xaa, 0xad, 0xa1, 0x24, 0xd9, 0xa6, 0xb1, 0xb0, 0x17, 0xa2, 0x5a, 0x2c, 0x6c, 0xa3,
  0xb0, 0x2d, 0x54, 0x19, 0x37, 0x1c, 0x86, 0x2c, 0xc1, 0x2c, 0x43, 0x2b, 0x59, 0x30, 0xe4, 0x2f,
  0xcf, 0x99, 0x5b, 0x9c, 0x04, 0x30, 0xc5, 0x2b, 0xbe, 0x2c, 0xa3, 0x32, 0x39, 0x2c, 0xe0, 0xa2,
  0x89, 0xae, 0x7c, 0xaa, 0x5a, 0x20, 0x52, 0xa4, 0x50, 0xa9, 0x77, 0x2f, 0x72, 0x29, 0xf1, 0xae,
  0x40, 0xa6, 0x15, 0x24, 0x94, 0x29, 0x55, 0xaf, 0xbc, 0x2c, 0x6e, 0xab, 0xdc, 0x2a, 0x64, 0x99,
  0x8e, 0x2d, 0xd3, 0xa2, 0x6c, 0x9d, 0xe0, 0xa2, 0xb6, 0xa8, 0xfe, 0x29, 0xea, 0x1c, 0x57, 0xa9,
  0x1e, 0x26, 0xe1, 0x25, 0x54, 0xa5, 0x77, 0xa9, 0x31, 0xaf, 0x88, 0xab, 0xbf, 0xa9, 0x31, 0xa8,
  0x73, 0xa4, 0x98, 0x29, 0xa1, 0xa7, 0x56, 0xa6, 0x3a, 0xaa, 0x67, 0xaa, 0xe0, 0xa9, 0x16, 0x2b,
  0x76, 0x2b, 0xe0, 0x2c, 0xa6, 0xa8, 0xcd, 0x28, 0x92, 0x22, 0x26, 0x24, 0xda, 0x27, 0x0b, 0xaa,
  0x7a, 0xac, 0x89, 0x29, 0xba, 0x25, 0xce, 0xa8, 0x5d, 0xae, 0x69, 0x2d, 0xe0, 0x2b, 0x77, 0xaf,
  0x04, 0x2b, 0x96, 0x2c, 0xb4, 0xaa, 0x5d, 0x2c, 0x17, 0xa8, 0xd6, 0xac, 0x37, 0xa7, 0x28, 0x2b,
  0x99, 0x25, 0x32, 0x2e, 0xee, 0xab, 0x3d, 0xa9, 0x8a, 0x24, 0x4f, 0xad, 0x5b, 0x25, 0xa9, 0x2a,
  0xd9, 0xa9, 0x9e, 0xaa, 0x61, 0xad, 0x6a, 0xad, 0x49, 0x28, 0xff, 0x24, 0xa5, 0x2a, 0xd8, 0x15,
  0x2e, 0x2c, 0x6b, 0x2d, 0xfe, 0xa6, 0xd6, 0x28, 0x65, 0x2f, 0x2d, 0xab, 0xbf, 0xb0, 0xb2, 0xa2,
  0x50, 0xaa, 0x2a, 0x28, 0xe2, 0x30, 0xbd, 0xa9, 0xf9, 0xa4, 0xe8, 0x2e, 0xb0, 0xa4, 0xb6, 0xa3,
  0x0f, 0xa9, 0x31, 0xa8, 0xc2, 0x2b, 0x97, 0xac, 0xb7, 0x1f, 0x71, 0x2e, 0x81, 0xac, 0x29, 0x2c,
  0x9d, 0x2d, 0x4c, 0x2b, 0x45, 0x23, 0x97, 0x2c, 0x97, 0x26, 0xc2, 0xa4, 0x3e, 0xa7, 0x3d, 0x30,
  0x10, 0x2b, 0x99, 0x21, 0xe3, 0x2c, 0x90, 0x25, 0x37, 0x2e, 0xe2, 0x25, 0x2e, 0x17, 0x84, 0x26,
  0x30, 0x1d, 0x3c, 0xad, 0x73, 0x2b, 0xf3, 0x2b, 0xd6, 0x21, 0x22, 0xa2, 0x6c, 0x31, 0x6c, 0xa2,
  0xf1, 0xa0, 0x76, 0xa9, 0xe8, 0xa3, 0x2e, 0x24, 0xd6, 0x35, 0xa0, 0x2b, 0x1f, 0x20, 0x28, 0x29,
  0x57, 0x2c, 0x2b, 0x16, 0x33, 0x2c, 0xa7, 0xac, 0x93, 0x9b, 0xc2, 0xb0, 0x4b, 0xac, 0x37, 0xa7,
  0xf6, 0x2d, 0x08, 0xa9, 0x9b, 0xaa, 0x14, 0x2b, 0xca, 0x2e, 0xa0, 0xa5, 0x57, 0x2e, 0xf1, 0xb0,
  0xfc, 0xaa, 0x01, 0x28, 0xe3, 0xa7, 0x08, 0x2e, 0x21, 0x95, 0x3a, 0x2f, 0xd5, 0xab, 0x38, 0xa9,
  0x35, 0x24, 0x8f, 0x28, 0x1e, 0xa9, 0x5b, 0xa5, 0xa3, 0xa2, 0x34, 0x21, 0x96, 0xa6, 0x13, 0xa8,
  0xb9, 0x2c, 0xbe, 0x29, 0xf7, 0x25, 0xe0, 0x2a, 0x3e, 0x2f, 0xce, 0xab, 0x0b, 0xad, 0xad, 0x26,
  0xfb, 0x22, 0x56, 0x2c, 0x54, 0x89, 0x71, 0x2c, 0x11, 0x9e, 0xa2, 0xaa, 0x33, 0x2c, 0x63, 0x29,
  0x88, 0x2c, 0xf9, 0x27, 0x64, 0x26, 0xc3, 0x23, 0x1e, 0xaf, 0x48, 0xa8, 0xb2, 0x1a, 0xff, 0x25,
  0x24, 0xa8, 0x6f, 0x20, 0x34, 0x2a, 0x23, 0x1c, 0xfa, 0x2a, 0x9b, 0xaa, 0x50, 0x28, 0x20, 0xaa,
  0xb0, 0x2c, 0x32, 0xa3, 0x58, 0xa9, 0xb3, 0x2a, 0xa3, 0x25, 0xa8, 0x26, 0x26, 0xd4, 0xff, 0xff,
  0x04, 0x00, 0x00, 0x00, 0x20, 0x00, 0x00, 0x00, 0x8e, 0x09, 0xee, 0x9c, 0xe0, 0xa9, 0xca, 0xa7,
  0x69, 0x9f, 0x0c, 0x20, 0xbb, 0x2e, 0x98, 0xa7, 0x45, 0x2c, 0x34, 0xa8, 0x29, 0xa9, 0x45, 0x28,
  0x13, 0xa4, 0x4b, 0xa9, 0xd9, 0xa1, 0x93, 0xa9, 0x52, 0xd4, 0xff, 0xff, 0x04, 0x00, 0x00, 0x00,
  0x00, 0x24, 0x00, 0x00, 0x8d, 0xae, 0xdd, 0xa3, 0xc0, 0xa5, 0xfa, 0xab, 0xbe, 0xa8, 0x89, 0xa7,
  0x4d, 0xad, 0xd6, 0x9f, 0xe0, 0xa1, 0x89, 0xab, 0x14, 0x1c, 0x0b, 0xad, 0x4c, 0x32, 0x5c, 0x2f,
  0x54, 0x22, 0xb1, 0xaa, 0xe1, 0x29, 0x44, 0x23, 0x87, 0x28, 0xaa, 0x2a, 0x31, 0x26, 0x42, 0xa9,
  0x03, 0xa6, 0xda, 0x28, 0xb4, 0x20, 0x50, 0x1e, 0xe2, 0xa4, 0x44, 0xa1, 0x81, 0x29, 0xe1, 0xa7,
  0x9e, 0x2c, 0x87, 0xa9, 0x86, 0xac, 0x47, 0x2f, 0xad, 0x9f, 0x44, 0x29, 0x62, 0xb3, 0x7b, 0xa8,
  0x9a, 0xa6, 0x2e, 0xac, 0x4d, 0x28, 0x28, 0xac, 0xc9, 0xa9, 0x17, 0x2d, 0x36, 0xb4, 0xdf, 0xa5,
  0x0c, 0xa2, 0x77, 0xa4, 0x48, 0x26, 0x0a, 0x29, 0xcd, 0x16, 0x59, 0x30, 0xb6, 0x28, 0xdd, 0x28,
  0xc0, 0x9a, 0xf0, 0x1d, 0xab, 0x29, 0x97, 0xac, 0x1b, 0xa7, 0x94, 0x32, 0x22, 0x19, 0x3a, 0x2f,
  0x9a, 0x2e, 0x3d, 0xac, 0x7d, 0x25, 0xac, 0x2c, 0x09, 0xac, 0xb0, 0xb1, 0xfc, 0x32, 0x6b, 0x32,
  0xf7, 0x26, 0x46, 0x2d, 0x40, 0xac, 0x55, 0x28, 0xdf, 0xaa, 0xd5, 0x9d, 0xef, 0x21, 0xd2, 0xa4,
  0xd6, 0x2e, 0x6d, 0xa0, 0xc0, 0xab, 0x61, 0x28, 0xe2, 0xa9, 0x57, 0x2e, 0x13, 0xa1, 0x9b, 0x21,
  0x07, 0xa1, 0x44, 0x15, 0x21, 0xa9, 0xf2, 0xae, 0x55, 0x26, 0x1b, 0xac, 0x34, 0xaa, 0x95, 0x29,
  0x9b, 0xa6, 0x50, 0x9c, 0xf7, 0xa4, 0x17, 0x2c, 0x36, 0xa2, 0x59, 0xaf, 0xc7, 0x30, 0xa5, 0x28,
  0x01, 0x1d, 0x99, 0x97, 0xc0, 0x22, 0x20, 0x27, 0x9b, 0x2d, 0x4b, 0x1d, 0x0c, 0x28, 0x28, 0x2c,
  0x51, 0x20, 0x85, 0x24, 0xaf, 0x2c, 0x75, 0xa8, 0xa5, 0xab, 0xdd, 0xab, 0xcc, 0x26, 0xa8, 0x2c,
  0xed, 0x2c, 0x26, 0xaa, 0x6c, 0xac, 0xdc, 0x1d, 0xdd, 0xa4, 0xc7, 0xa7, 0x28, 0x28, 0xd6, 0xa5,
  0x0d, 0xad, 0x75, 0xa7, 0x6a, 0x26, 0x49, 0x33, 0x5e, 0xa7, 0x10, 0x29, 0xe2, 0x30, 0x46, 0xa4,
  0x68, 0x22, 0x6f, 0xa9, 0xfc, 0x1d, 0xfd, 0x2c, 0xad, 0x2a, 0x22, 0x22, 0xc8, 0xa2, 0x43, 0x24,
  0xff, 0x2b, 0x58, 0x28, 0x8c, 0xac, 0x4d, 0x2a, 0xfc, 0x27, 0xfa, 0x29, 0x40, 0x2d, 0x22, 0x2d,
  0x52, 0x21, 0xb9, 0x2d, 0x82, 0x29, 0x22, 0xaf, 0x54, 0x15, 0x28, 0x32, 0xbd, 0xa8, 0x24, 0x2d,
  0x9d, 0x30, 0x48, 0xad, 0x1f, 0x25, 0x26, 0xaa, 0x05, 0xac, 0xa3, 0xad, 0x58, 0x30, 0x33, 0xab,
  0xb8, 0xad, 0x42, 0x2e, 0x7d, 0xa8, 0x60, 0xac, 0x15, 0x2a, 0x98, 0xa8, 0x50, 0xae, 0x87, 0x2c,
  0xc0, 0x24, 0xde, 0x12, 0xdf, 0xaa, 0x30, 0xac, 0x4b, 0xa5, 0x24, 0x2b, 0x5b, 0x2f, 0x6d, 0x15,
  0x29, 0x2e, 0x3c, 0xa7, 0x30, 0x17, 0x26, 0xa8, 0x5d, 0x2a, 0xb9, 0xac, 0x4f, 0x29, 0x0d, 0x22,
  0xb0, 0xa4, 0x8c, 0xa5, 0xde, 0xae, 0xb1, 0xab, 0xf7, 0xa7, 0x4f, 0x24, 0x84, 0xa8, 0x36, 0x30,
  0x0d, 0xa4, 0xeb, 0x29, 0x35, 0x2a, 0x1d, 0x9d, 0xd7, 0xa8, 0x0d, 0x24, 0x8d, 0xb2, 0x24, 0x2a,
  0x08, 0xa8, 0xbf, 0x27, 0xf9, 0x26, 0x4e, 0xa9, 0x0d, 0xaa, 0x95, 0x2f, 0xea, 0x24, 0x87, 0x24,
  0x2c, 0xa2, 0x48, 0x18, 0x76, 0xaa, 0xae, 0x9d, 0xac, 0x24, 0x73, 0xb0, 0x7d, 0xa2, 0xe8, 0x27,
  0x1c, 0xb0, 0xc6, 0xaa, 0xc5, 0x2f, 0x78, 0x2d, 0x15, 0xad, 0x38, 0xa6, 0x27, 0x32, 0x40, 0x15,
  0x27, 0x2f, 0xe8, 0x29, 0x9f, 0x1a, 0xcf, 0xac, 0x13, 0x29, 0x07, 0xa9, 0x9e, 0xaa, 0x66, 0xa6,
  0x87, 0x2d, 0x6c, 0xaa, 0xf2, 0xa0, 0x9c, 0x9a, 0x58, 0x22, 0x36, 0xa9, 0x2f, 0x2b, 0x3f, 0x28,
  0x13, 0x30, 0x96, 0x2e, 0xf6, 0x2b, 0x56, 0xad, 0xe3, 0x2b, 0x77, 0xae, 0x7c, 0xa6, 0x1a, 0xab,
  0x4d, 0xb3, 0x03, 0xa9, 0x3a, 0xa4, 0x7f, 0xad, 0x55, 0x23, 0x64, 0x11, 0x0c, 0xb4, 0x39, 0xaf,
  0x5b, 0xa7, 0xf2, 0x20, 0xf4, 0x1f, 0x8d, 0xad, 0xd0, 0xa4, 0x3d, 0xa8, 0x92, 0xb2, 0xea, 0x24,
  0x43, 0x22, 0xb6, 0xa3, 0xa9, 0xa7, 0x6e, 0xaa, 0xcf, 0xae, 0x04, 0x2d, 0x2c, 0x2b, 0xc2, 0xa8,
  0xf8, 0x25, 0x6e, 0x29, 0x61, 0x2b, 0x74, 0x29, 0x1b, 0xad, 0xbe, 0x2e, 0x6b, 0xac, 0x18, 0x2a,
  0x33, 0xa8, 0xc9, 0xac, 0x36, 0x2d, 0xd2, 0xac, 0x82, 0x25, 0xe7, 0xb1, 0x06, 0xa2, 0x3a, 0x2e,
  0x0a, 0x1e, 0x0d, 0xa2, 0xb8, 0xa5, 0x80, 0xaa, 0xc5, 0x25, 0xa8, 0x1c, 0xfb, 0xb1, 0x88, 0xa5,
  0xc0, 0xa6, 0xea, 0x25, 0x95, 0xa9, 0xff, 0x24, 0x6d, 0x99, 0xf8, 0xab, 0x3e, 0x28, 0x75, 0x28,
  0x9e, 0x2d, 0xcc, 0x24, 0x7b, 0x2c, 0x55, 0x29, 0x97, 0x26, 0x50, 0xb0, 0x2f, 0x23, 0x05, 0xac,
  0x9d, 0x1f, 0x00, 0xad, 0x8e, 0xa5, 0x87, 0xaa, 0x2f, 0x2a, 0xd8, 0xa8, 0x8f, 0xa4, 0x2f, 0xad,
  0xc0, 0xae, 0x7a, 0x29, 0x37, 0xa9, 0x56, 0x1c, 0x85, 0x2b, 0xc0, 0x28, 0xa9, 0x30, 0x89, 0x0e,
  0xf3, 0x9f, 0x04, 0x28, 0xcc, 0x2c, 0xfb, 0xaa, 0xed, 0x29, 0xe7, 0x25, 0x33, 0x2c, 0x44, 0x26,
  0x70, 0x26, 0x41, 0x2b, 0xe5, 0xa4, 0x37, 0x29, 0x9e, 0x24, 0x47, 0xa4, 0x01, 0x28, 0x0a, 0xa8,
  0x41, 0x2d, 0x7d, 0x9d, 0x59, 0xab, 0xd8, 0x2c, 0xd8, 0xa5, 0x84, 0x25, 0x43, 0x25, 0xae, 0xaa,
  0x53, 0x21, 0x31, 0xa3, 0x5e, 0xaa, 0xb3, 0x20, 0x62, 0x9c, 0x1d, 0x29, 0x68, 0x2d, 0x02, 0x28,
  0x22, 0x2c, 0xcb, 0x9e, 0xd3, 0x28, 0x11, 0x29, 0xa7, 0xa5, 0x70, 0x29, 0xde, 0x20, 0x1b, 0x29,
  0x39, 0xa3, 0xaa, 0x25, 0x09, 0x22, 0x7c, 0xa8, 0xc4, 0xa9, 0x68, 0x2f, 0xac, 0xa8, 0xb0, 0x2a,
  0x1a, 0x30, 0x99, 0x99, 0xaf, 0xa0, 0xd0, 0xa7, 0x99, 0xa7, 0x20, 0xa6, 0x32, 0xb1, 0x7a, 0x24,
  0x42, 0x2c, 0x3d, 0x2e, 0x6d, 0xab, 0x4b, 0xab, 0x53, 0x2c, 0xe8, 0xa5, 0xfb, 0xa6, 0x04, 0xa1,
  0x9a, 0xa3, 0x91, 0x28, 0x2f, 0xa6, 0x4a, 0x29, 0x7c, 0xac, 0x6f, 0xa6, 0x16, 0x1d, 0xdb, 0x23,
  0xbc, 0x23, 0x2a, 0x2d, 0x27, 0x29, 0x20, 0x28, 0xc6, 0x19, 0x43, 0xa5, 0x84, 0x28, 0xdd, 0xa0,
  0x59, 0xac, 0xed, 0xa8, 0x22, 0x96, 0xc3, 0x2c, 0x36, 0x24, 0x8e, 0x29, 0x08, 0x33, 0x3d, 0x28,
  0xdb, 0xa6, 0x0e, 0x9f, 0x12, 0xa9, 0x2f, 0x9d, 0x56, 0xa3, 0xfc, 0x1c, 0x76, 0xb0, 0xf3, 0xa0,
  0xe9, 0xa9, 0x1c, 0x2c, 0x3c, 0xa9, 0x17, 0xac, 0x0e, 0xac, 0x51, 0xad, 0x1c, 0xa4, 0x92, 0x1c,
  0xe0, 0x29, 0x5b, 0xa9, 0x4a, 0x18, 0x50, 0x27, 0x96, 0x25, 0x68, 0x26, 0x2f, 0x27, 0x8c, 0x1f,
  0x88, 0x27, 0x0e, 0x16, 0xf1, 0xad, 0xf0, 0x2c, 0xbf, 0xa4, 0x3d, 0x2e, 0x6e, 0x26, 0x44, 0x1d,
  0x4f, 0x2c, 0x58, 0xa3, 0x59, 0x29, 0x06, 0xad, 0x8d, 0x1e, 0x88, 0xab, 0x81, 0xb0, 0x7a, 0xa9,
  0xfb, 0x28, 0x61, 0x2a, 0x0e, 0xac, 0x12, 0x2c, 0xcd, 0x28, 0x8e, 0x27, 0x36, 0x2d, 0x86, 0xa7,
  0x96, 0x2a, 0x0c, 0x22, 0x36, 0x2c, 0x0f, 0xa4, 0xb1, 0x29, 0x4b, 0x29, 0xd3, 0xab, 0xaf, 0xa3,
  0x61, 0x2e, 0x80, 0xaa, 0x5a, 0x29, 0x43, 0xac, 0x7c, 0x1c, 0xd8, 0x29, 0x62, 0x24, 0xc5, 0x2c,
  0x8a, 0xaf, 0x14, 0x2c, 0x41, 0xa0, 0xa6, 0x28, 0x6e, 0x28, 0x17, 0xaa, 0xfa, 0xb1, 0xe1, 0x27,
  0xb3, 0x24, 0x6f, 0xac, 0x58, 0xa8, 0xf9, 0xa7, 0x5f, 0x2a, 0x7a, 0x2d, 0xa9, 0x27, 0x49, 0x22,
  0x5d, 0xa0, 0xa6, 0x2f, 0x09, 0xa6, 0x39, 0x92, 0x35, 0xa8, 0x67, 0x28, 0x1f, 0x0b, 0x1c, 0x24,
  0x7e, 0x25, 0xf8, 0x14, 0xb0, 0x25, 0x9a, 0xaa, 0x78, 0xab, 0xf5, 0x21, 0x9e, 0xa5, 0x66, 0x20,
  0x2f, 0x24, 0x45, 0x1f, 0x61, 0x9e, 0xcb, 0x25, 0x90, 0x9c, 0x0f, 0x22, 0xf5, 0x2b, 0x72, 0xa8,
  0x58, 0x29, 0xa8, 0xa6, 0xdb, 0xaa, 0x35, 0xa6, 0xf5, 0x24, 0xc7, 0xa8, 0x93, 0x29, 0x41, 0xa7,
  0xec, 0x23, 0xdf, 0x2e, 0x02, 0x29, 0x05, 0x24, 0xed, 0xa8, 0xcd, 0xaa, 0x69, 0x28, 0xa9, 0x24,
  0x72, 0xac, 0x5f, 0xa8, 0xbb, 0x2c, 0x95, 0x2c, 0xb7, 0xaa, 0x96, 0xaa, 0x50, 0x32, 0x40, 0x29,
  0x17, 0x2b, 0x67, 0xa8, 0x21, 0x9c, 0x8d, 0x26, 0x1e, 0x26, 0x33, 0xab, 0xf2, 0x96, 0x80, 0x26,
  0x08, 0x27, 0x77, 0xa4, 0x35, 0x2a, 0xb3, 0xa3, 0x4b, 0x23, 0xed, 0xa5, 0x96, 0x24, 0x4c, 0x26,
  0x42, 0x94, 0xa9, 0x2c, 0x37, 0xa9, 0x90, 0x18, 0x1d, 0x22, 0x92, 0xab, 0xa3, 0x9b, 0x6a, 0xa4,
  0x5e, 0xad, 0x7b, 0xaa, 0x19, 0x2e, 0x1e, 0x24, 0x9f, 0x9c, 0x54, 0x29, 0x04, 0xa7, 0xfa, 0xaa,
  0xf6, 0x29, 0x4b, 0x24, 0xff, 0xa8, 0xde, 0xaa, 0x7a, 0xa6, 0x8a, 0x27, 0x87, 0xb8, 0x45, 0x22,
  0x1a, 0x29, 0xf8, 0xa8, 0x1c, 0x28, 0x13, 0x29, 0x71, 0xa6, 0x57, 0x2a, 0x46, 0xaa, 0x1c, 0x2a,
  0x33, 0x25, 0xf6, 0x2c, 0x81, 0x23, 0x83, 0xa0, 0x64, 0x23, 0x25, 0x30, 0xfc, 0x28, 0x8c, 0x2e,
  0x69, 0x2c, 0x5c, 0xad, 0xa3, 0x2b, 0x19, 0x30, 0x6f, 0xac, 0x18, 0xae, 0xe9, 0x21, 0x44, 0x28,
  0xce, 0xae, 0x11, 0x9e, 0x3d, 0xa6, 0x94, 0xa6, 0xbe, 0x28, 0x55, 0xa7, 0x2e, 0xb5, 0xca, 0x9f,
  0x5c, 0xa1, 0xcb, 0x99, 0xd6, 0xa9, 0x1a, 0x27, 0x14, 0xa7, 0xb6, 0x28, 0x5a, 0x2b, 0x57, 0x2c,
  0xa2, 0xa1, 0x6e, 0x18, 0x14, 0x23, 0x13, 0x21, 0x3e, 0x88, 0x62, 0xa2, 0x56, 0x28, 0xed, 0xa9,
  0xc0, 0xa9, 0xd1, 0x2a, 0xaf, 0xab, 0x67, 0x9e, 0x0f, 0xa7, 0xb7, 0xaf, 0x14, 0xb8, 0x8a, 0x21,
  0x3a, 0xa6, 0x77, 0x21, 0x6d, 0x2c, 0xc8, 0xaa, 0x49, 0x24, 0x88, 0x26, 0x26, 0xad, 0xdf, 0x9d,
  0xa4, 0x2c, 0xce, 0xa5, 0x4b, 0x28, 0x38, 0x24, 0xd5, 0xa5, 0xe2, 0x2b, 0xa4, 0x2a, 0x2b, 0x29,
  0x7b, 0xa9, 0x3c, 0x2a, 0x63, 0x28, 0x67, 0x23, 0x23, 0x2c, 0xf9, 0x27, 0x7e, 0x98, 0xdd, 0x29,
  0xd6, 0x28, 0x5d, 0x1b, 0x25, 0x2c, 0x67, 0x28, 0xde, 0xa8, 0xf5, 0x2e, 0xec, 0x33, 0x4c, 0x2a,
  0xbe, 0xad, 0x53, 0xa8, 0xa2, 0x9c, 0xc3, 0x20, 0x00, 0x24, 0x6b, 0xa4, 0x68, 0x33, 0x56, 0xa7,
  0x58, 0x23, 0x17, 0x1e, 0x46, 0x22, 0xc6, 0x24, 0xf8, 0x27, 0x71, 0x25, 0x81, 0x28, 0x09, 0xa9,
  0x68, 0xa4, 0xea, 0x2d, 0x22, 0xa9, 0x97, 0xa8, 0x69, 0xa1, 0xeb, 0x22, 0x5f, 0xa6, 0x4a, 0x26,
  0x43, 0xa6, 0x69, 0xa8, 0xfc, 0xa2, 0x53, 0x2d, 0xed, 0x25, 0x1b, 0xa6, 0x55, 0xb6, 0x10, 0x0d,
  0x61, 0xa2, 0x9e, 0xad, 0xf6, 0xa8, 0xa7, 0x91, 0x6e, 0x9f, 0xd0, 0xa0, 0x4f, 0xb1, 0x91, 0x29,
  0x9b, 0x2c, 0xb4, 0xa5, 0x61, 0x14, 0xd3, 0xa9, 0xd8, 0xa5, 0x5e, 0x2e, 0x02, 0x2c, 0xde, 0x25,
  0x6f, 0xac, 0x27, 0xa4, 0x85, 0xa4, 0xb3, 0xa5, 0x2c, 0x9c, 0x95, 0x92, 0x35, 0x20, 0x1d, 0x2c,
  0x69, 0xab, 0x8d, 0xaa, 0x85, 0x2a, 0x01, 0x28, 0xbf, 0x27, 0x1b, 0xac, 0xf7, 0x20, 0xfc, 0xad,
  0xf9, 0x2c, 0x78, 0xa8, 0x8f, 0x28, 0x3f, 0xa7, 0x75, 0xa3, 0xac, 0xa2, 0x2d, 0x22, 0x53, 0x2a,
  0x45, 0x2c, 0xc4, 0xa7, 0x83, 0xa9, 0x2f, 0xaa, 0x39, 0x26, 0x20, 0xa0, 0x91, 0x2b, 0x59, 0x29,
  0xf5, 0xa7, 0xf8, 0x28, 0xc2, 0x20, 0xea, 0xa3, 0xdc, 0xa6, 0x80, 0x95, 0x66, 0xa5, 0xf6, 0xa7,
  0x43, 0xae, 0xb4, 0x18, 0x65, 0x25, 0x1e, 0xab, 0x2b, 0x2a, 0x5b, 0x23, 0xe0, 0x34, 0xb3, 0x14,
  0x61, 0xa4, 0x25, 0x9c, 0xc8, 0x14, 0x7b, 0xa5, 0xc1, 0x2a, 0x9b, 0x88, 0xf8, 0xae, 0xb3, 0x2a,
  0xc2, 0xa5, 0xea, 0x1f, 0xd8, 0x28, 0x9e, 0xa4, 0xd0, 0xa9, 0x42, 0x1b, 0x36, 0x26, 0x75, 0x27,
  0xcd, 0x2a, 0x6c, 0xa5, 0xf1, 0xaa, 0x0b, 0xa3, 0x1f, 0x24, 0x0f, 0x24, 0xec, 0x21, 0xff, 0xa5,
  0x1c, 0xb0, 0x65, 0xa8, 0x71, 0x2c, 0xb1, 0xa0, 0x3e, 0xa5, 0xf9, 0x23, 0x15, 0xb7, 0x10, 0xa5,
  0xac, 0x24, 0x18, 0xae, 0x22, 0x29, 0x2b, 0xa9, 0xfc, 0x2b, 0x61, 0xab, 0x09, 0xaf, 0x13, 0xac,
  0x86, 0xa7, 0x11, 0x9e, 0x21, 0x97, 0xba, 0xa8, 0xfb, 0xaa, 0x39, 0x9c, 0x60, 0xa7, 0x39, 0x9d,
  0x59, 0xa5, 0x26, 0x2c, 0xd0, 0x27, 0x8e, 0x24, 0x46, 0xa9, 0xaf, 0x23, 0x4a, 0x2a, 0x1f, 0xa2,
  0x44, 0x28, 0x65, 0xa9, 0xe9, 0x1b, 0x86, 0x1b, 0x13, 0xa9, 0x9f, 0xa8, 0x08, 0x2b, 0x1f, 0x9d,
  0x84, 0xa3, 0x6a, 0xa9, 0x07, 0x24, 0xdb, 0xa3, 0xee, 0xa8, 0x6f, 0xa9, 0x75, 0x31, 0xaf, 0x26,
  0x8a, 0x2b, 0xbf, 0xa6, 0x75, 0xa9, 0x88, 0x29, 0x86, 0x29, 0x7a, 0x9d, 0x0b, 0xab, 0xfe, 0x21,
  0x2b, 0xa7, 0x7b, 0x2a, 0x33, 0x27, 0x5f, 0xa4, 0x5b, 0x29, 0x0a, 0xae, 0xe9, 0x28, 0xf5, 0xa6,
  0xe5, 0x28, 0x15, 0xa5, 0x48, 0xa4, 0x76, 0x21, 0x73, 0x2b, 0xc3, 0x29, 0xb9, 0xa8, 0x3a, 0x2a,
  0xf0, 0xac, 0xa8, 0x2d, 0x90, 0xa3, 0xd5, 0xa8, 0x7d, 0xac, 0xd0, 0xab, 0xcf, 0x34, 0x68, 0x29,
  0xac, 0xaa, 0xd5, 0xa9, 0xe7, 0x24, 0x87, 0xa8, 0x55, 0x29, 0x34, 0xa4, 0xc1, 0xa0, 0x6d, 0x9c,
  0xc1, 0x25, 0x28, 0xaa, 0x2c, 0xa8, 0x03, 0x23, 0xda, 0xa8, 0x7e, 0xaa, 0x35, 0xaa, 0xe7, 0xa9,
  0x32, 0x2a, 0x4b, 0x0c, 0x4e, 0xae, 0x27, 0x30, 0x90, 0xa6, 0xd6, 0x2a, 0x24, 0x0e, 0x67, 0xae,
  0x3b, 0x25, 0x5c, 0x19, 0xe6, 0x24, 0x2c, 0x1b, 0xfa, 0xa5, 0x46, 0x25, 0x5f, 0xaa, 0xd8, 0x24,
  0xd8, 0x23, 0x42, 0xa5, 0x7a, 0x2c, 0x86, 0x27, 0xe1, 0x1e, 0x3f, 0x28, 0x6d, 0x2e, 0x6b, 0x96,
  0x6a, 0xac, 0x21, 0xac, 0x89, 0x9b, 0x3e, 0x14, 0x68, 0xa5, 0x9e, 0x30, 0xbe, 0xa2, 0x69, 0x26,
  0xed, 0x9f, 0xef, 0x12, 0x38, 0xab, 0x6d, 0x26, 0x68, 0x28, 0x8f, 0x9a, 0xae, 0x30, 0x8e, 0xad,
  0x14, 0x1e, 0xa8, 0x29, 0x65, 0xa6, 0x6e, 0xa9, 0x0a, 0x2e, 0xa4, 0x29, 0x55, 0xb1, 0x94, 0xab,
  0x87, 0x21, 0x53, 0xaa, 0x81, 0x99, 0x83, 0x21, 0xb3, 0x26, 0xf9, 0x2e, 0x0c, 0x23, 0xbb, 0xa6,
  0xad, 0x23, 0xd6, 0xa7, 0xfa, 0x25, 0x06, 0xae, 0x85, 0x29, 0xef, 0x25, 0xf8, 0x1e, 0x9f, 0x2d,
  0x8c, 0xad, 0x7a, 0xa0, 0x02, 0x2c, 0xb0, 0xac, 0x91, 0x29, 0xf6, 0xae, 0x0f, 0x2c, 0x3f, 0x2e,
  0x37, 0x26, 0x31, 0x26, 0x55, 0x20, 0xa0, 0x18, 0x5d, 0x2e, 0x37, 0xa8, 0xa9, 0xaf, 0xb0, 0x2c,
  0x29, 0x2b, 0x48, 0x29, 0xb6, 0x29, 0x42, 0x28, 0x89, 0x1c, 0x21, 0x05, 0x9a, 0x8b, 0xbf, 0x29,
  0x25, 0x2a, 0x8a, 0xa4, 0xe8, 0x29, 0x32, 0xa0, 0x1f, 0x29, 0xe4, 0x88, 0x1e, 0xa7, 0x85, 0x27,
  0x9c, 0xa0, 0xd9, 0xa2, 0xdf, 0xa9, 0x2f, 0x28, 0x42, 0xa7, 0xad, 0x2c, 0xf4, 0xa8, 0x37, 0x2d,
  0x81, 0x29, 0x8c, 0xa8, 0x88, 0x25, 0x33, 0x1a, 0xe6, 0x2a, 0x78, 0xa1, 0x4d, 0x31, 0x07, 0x25,
  0x89, 0x1f, 0x59, 0x2c, 0xf0, 0x2b, 0xd2, 0x28, 0xe1, 0x24, 0x90, 0x2b, 0x05, 0x28, 0xe4, 0x98,
  0x00, 0x25, 0x52, 0x2d, 0x37, 0xa9, 0x7a, 0x2a, 0x78, 0xa4, 0xb6, 0x22, 0xaa, 0x24, 0x3e, 0x30,
  0x48, 0x2c, 0x58, 0x21, 0x9f, 0x22, 0xab, 0x2d, 0xd4, 0xa8, 0xf8, 0xaa, 0x12, 0x21, 0xcc, 0x24,
  0x54, 0xad, 0x27, 0xa7, 0x6c, 0x29, 0xd3, 0xaa, 0x71, 0x2b, 0xfa, 0x28, 0x6c, 0x2b, 0x02, 0x28,
  0x0e, 0x29, 0x3b, 0x27, 0x1a, 0xa2, 0x90, 0x9e, 0x93, 0x2b, 0x87, 0xa3, 0x0a, 0x2d, 0xab, 0x2b,
  0x4b, 0x2b, 0x62, 0x2b, 0x2e, 0x27, 0x2c, 0xa3, 0xfc, 0xa0, 0xc7, 0xab, 0x6c, 0xaa, 0xb7, 0x1c,
  0xe5, 0x2d, 0x4b, 0xaa, 0x7e, 0xa4, 0x92, 0xaa, 0x94, 0x25, 0xc8, 0x24, 0x58, 0xae, 0xd3, 0x1c,
  0xb9, 0xaf, 0x7f, 0x25, 0x6a, 0x1b, 0xf1, 0x21, 0xed, 0x2c, 0x31, 0x28, 0x65, 0xb1, 0x27, 0xa9,
  0xab, 0xaa, 0x3b, 0x28, 0x51, 0xac, 0xec, 0xa2, 0x25, 0xa4, 0xd0, 0xaa, 0x75, 0x16, 0x22, 0x29,
  0x77, 0x21, 0xf5, 0x21, 0x5f, 0xa6, 0xdb, 0x2a, 0x26, 0x27, 0xe3, 0x24, 0x41, 0x21, 0xa3, 0xa6,
  0x98, 0x22, 0xc6, 0x21, 0xe9, 0x2c, 0x92, 0x2b, 0x67, 0x2a, 0x9a, 0xad, 0xb2, 0x2d, 0xb2, 0xa5,
  0xe9, 0x1c, 0x94, 0x2b, 0xbc, 0x2a, 0x22, 0xa2, 0xf3, 0x19, 0x7e, 0x1d, 0xcf, 0xac, 0xaa, 0x17,
  0x0d, 0x1f, 0xb4, 0x1b, 0xd3, 0x28, 0x83, 0xa4, 0x0a, 0xa5, 0xae, 0x20, 0x38, 0x2d, 0x68, 0xa4,
  0x20, 0x2f, 0x2e, 0x2d, 0xd5, 0x17, 0xea, 0x26, 0x65, 0x2b, 0x7d, 0x29, 0xa5, 0x20, 0xcf, 0xa7,
  0x3f, 0xad, 0xf5, 0x26, 0xa5, 0xa0, 0xbc, 0x25, 0x0b, 0xa8, 0x13, 0xaa, 0x41, 0xb1, 0xf9, 0x1d,
  0xc6, 0x2c, 0xcf, 0x20, 0x93, 0x27, 0x1b, 0x25, 0xea, 0x29, 0x56, 0x9f, 0x1e, 0x25, 0x11, 0xac,
  0x4c, 0xa9, 0x16, 0xa9, 0x09, 0xa0, 0xf8, 0x26, 0x83, 0x11, 0x86, 0x2a, 0x9f, 0x2c, 0xd5, 0xa1,
  0xb3, 0xa6, 0x5d, 0x29, 0x58, 0xa6, 0x98, 0x20, 0x66, 0xac, 0xe7, 0x1d, 0x00, 0x23, 0x13, 0xa4,
  0x5f, 0xad, 0xa6, 0x96, 0xb8, 0xa0, 0x53, 0xa8, 0xd0, 0x26, 0x88, 0x1c, 0x8d, 0xa5, 0x1e, 0xab,
  0x0d, 0x28, 0x07, 0xac, 0xd8, 0xa6, 0x3d, 0xab, 0xdc, 0x20, 0x6e, 0x29, 0x2b, 0x2b, 0x60, 0xab,
  0xb8, 0xa9, 0xc2, 0x9c, 0xb7, 0xaa, 0x6f, 0x18, 0x83, 0x29, 0x93, 0x23, 0x15, 0xa4, 0xcf, 0xaa,
  0x24, 0xa8, 0x53, 0x28, 0xe1, 0x28, 0xe2, 0xaa, 0xec, 0xa9, 0x2f, 0x2a, 0x8a, 0x23, 0x55, 0xa7,
  0x13, 0x27, 0x0b, 0xa8, 0x5a, 0xa0, 0xfc, 0xa7, 0xe4, 0xa1, 0x06, 0x28, 0x0b, 0xab, 0x3f, 0xa4,
  0x48, 0x24, 0x5a, 0x28, 0x9c, 0xa9, 0x9f, 0xa0, 0x77, 0x99, 0x04, 0xaa, 0x86, 0xa6, 0x42, 0xa6,
  0x81, 0xab, 0x57, 0xac, 0xfc, 0xab, 0xb4, 0x25, 0x79, 0x9c, 0xd5, 0x29, 0xaa, 0xa9, 0x1f, 0xaa,
  0x61, 0xa8, 0xbe, 0xa5, 0x11, 0x13, 0x26, 0xa7, 0xd6, 0xab, 0xd2, 0xa7, 0xea, 0x29, 0x82, 0xa5,
  0x99, 0xab, 0xb4, 0x28, 0xea, 0xa7, 0x42, 0xa9, 0xc9, 0xa6, 0x45, 0xac, 0x9e, 0xa6, 0xa8, 0x25,
  0x6c, 0xaa, 0xbc, 0x9d, 0x36, 0xaa, 0xf8, 0xaa, 0xd6, 0xa9, 0x74, 0xa6, 0x11, 0xa4, 0x44, 0xa9,
  0x3b, 0xa8, 0x35, 0x23, 0x10, 0x11, 0xf3, 0xa5, 0x5e, 0xaa, 0x8c, 0xa6, 0x99, 0xab, 0x1e, 0x9e,
  0x82, 0x26, 0x83, 0x25, 0xbd, 0x24, 0xbb, 0x29, 0xb2, 0xab, 0x86, 0x16, 0x39, 0x88, 0xa2, 0x25,
  0xa1, 0xa7, 0x49, 0xa2, 0xbb, 0xa6, 0x8d, 0xa3, 0xec, 0x29, 0xa8, 0x25, 0xb0, 0x25, 0x7d, 0x27,
  0x00, 0xac, 0x84, 0x29, 0x59, 0xa9, 0x4e, 0x22, 0x0c, 0x27, 0xcf, 0xa9, 0xd1, 0x2a, 0x7e, 0xaa,
  0x2e, 0x1d, 0x4e, 0xaa, 0x4b, 0xa9, 0x3c, 0xa9, 0xe4, 0x25, 0xce, 0xaa, 0x09, 0x26, 0x77, 0x1d,
  0xc8, 0xab, 0xc5, 0xa9, 0x43, 0x27, 0x95, 0xa9, 0x86, 0xa5, 0xb9, 0x9e, 0xf3, 0xa7, 0x8b, 0xa7,
  0x56, 0xac, 0x2a, 0xac, 0x90, 0xa7, 0x7a, 0xac, 0xc9, 0x29, 0xe3, 0x22, 0x43, 0x22, 0xb2, 0xa9,
  0x41, 0x14, 0x9d, 0xa5, 0x80, 0x21, 0x77, 0x19, 0x7f, 0x8a, 0x27, 0xaa, 0x74, 0x2b, 0x59, 0xac,
  0xaf, 0xa7, 0x5a, 0x21, 0x63, 0x24, 0x74, 0xa1, 0x53, 0x9c, 0x44, 0xa9, 0x25, 0xac, 0xa4, 0xa5,
  0x9e, 0x23, 0xec, 0xa4, 0xdf, 0xa8, 0x16, 0x24, 0x7a, 0x23, 0x79, 0x28, 0xc8, 0x9e, 0x69, 0x28,
  0xe3, 0xab, 0x37, 0x29, 0xd8, 0xa2, 0xce, 0xa0, 0x26, 0x2a, 0xaf, 0xa8, 0x06, 0x9f, 0x4e, 0x1f,
  0x22, 0xa7, 0x0e, 0x28, 0xf4, 0xa9, 0x2b, 0xaa, 0xbe, 0x1f, 0x7f, 0x25, 0x8a, 0xa7, 0x0f, 0xa8,
  0xeb, 0xa7, 0x79, 0x1f, 0xdd, 0xaa, 0x04, 0xa9, 0x56, 0x29, 0x48, 0x23, 0xd6, 0x1d, 0xc3, 0xa8,
  0x1e, 0xaa, 0x83, 0xa5, 0x57, 0xa7, 0x51, 0xa8, 0xb9, 0x26, 0xb4, 0x29, 0x87, 0xa6, 0x14, 0xab,
  0x2b, 0x28, 0x02, 0xaa, 0x0d, 0x08, 0x7c, 0xa9, 0xd2, 0x1c, 0x6b, 0x25, 0x60, 0x25, 0x47, 0xa6,
  0xe9, 0xa3, 0x83, 0x1d, 0xf3, 0xab, 0x28, 0xa8, 0x40, 0xac, 0x41, 0xa9, 0xf0, 0x28, 0x96, 0x26,
  0x37, 0xa8, 0xcd, 0x29, 0x20, 0xa8, 0x1e, 0x28, 0x5a, 0xa8, 0xdc, 0x20, 0xd6, 0x9f, 0x1a, 0x29,
  0x0a, 0x1d, 0xb9, 0x16, 0xe1, 0x1f, 0x08, 0xab, 0x3e, 0x29, 0x15, 0xa4, 0x9d, 0xa2, 0xf9, 0xa4,
  0xdb, 0xa3, 0xce, 0x23, 0x76, 0x9a, 0x5d, 0x1a, 0x40, 0x29, 0x68, 0xa4, 0x3a, 0x29, 0xc8, 0x27,
  0x71, 0x28, 0x86, 0xa2, 0xee, 0x1c, 0x25, 0x2a, 0x49, 0xa8, 0xfd, 0xa7, 0x49, 0x29, 0x58, 0xa9,
  0x45, 0x23, 0x14, 0x25, 0xba, 0x29, 0xa3, 0x1c, 0x20, 0xa5, 0x5f, 0x21, 0xa7, 0xab, 0xc6, 0xab,
  0x2b, 0x19, 0x74, 0xa8, 0xe4, 0x28, 0x33, 0x22, 0x77, 0x25, 0xf3, 0xa9, 0x98, 0x16, 0x29, 0x1e,
  0xb1, 0x28, 0x0b, 0x28, 0x46, 0x29, 0xa3, 0xaa, 0x87, 0xab, 0x0d, 0x1b, 0x6f, 0xab, 0x04, 0xa8,
  0xf7, 0x27, 0x22, 0x29, 0x2a, 0xa0, 0xd3, 0x29, 0x81, 0x28, 0x32, 0xac, 0x98, 0x87, 0x70, 0xa7,
  0x27, 0x1c, 0xe7, 0x23, 0x57, 0xa7, 0x0e, 0xac, 0xb7, 0x28, 0x16, 0xab, 0xc4, 0xa4, 0x33, 0xa3,
  0x93, 0xab, 0x7f, 0x2a, 0x6e, 0x29, 0x14, 0x21, 0x2e, 0x2a, 0x48, 0x9f, 0x76, 0x28, 0x5d, 0x28,
  0x3a, 0x9e, 0x89, 0x28, 0x2a, 0x2c, 0x97, 0x20, 0x14, 0x24, 0x90, 0xac, 0xe2, 0x2e, 0x03, 0xa4,
  0x3b, 0xb0, 0x0e, 0x2c, 0x6d, 0xa0, 0xbb, 0xa3, 0xdd, 0xaa, 0x64, 0x18, 0x60, 0x32, 0xa5, 0xab,
  0x93, 0x12, 0xa4, 0x22, 0xa4, 0x20, 0xcf, 0xa5, 0xc2, 0xaa, 0x95, 0x2c, 0xc2, 0x26, 0x3d, 0x28,
  0x9f, 0x28, 0x4b, 0x2e, 0xd0, 0x2b, 0x08, 0x24, 0xa1, 0x26, 0x02, 0x26, 0x17, 0xac, 0x55, 0xa5,
  0x77, 0x2e, 0xc2, 0x29, 0xb3, 0x98, 0x00, 0xa2, 0x05, 0xac, 0xe1, 0xaa, 0x86, 0x29, 0x97, 0x2c,
  0xe4, 0x24, 0x2d, 0x1b, 0x3f, 0x29, 0x16, 0xa6, 0x77, 0x2b, 0xd1, 0x9f, 0x70, 0xa8, 0x22, 0x24,
  0x1b, 0x28, 0x07, 0xa8, 0xb5, 0x23, 0xc7, 0xa5, 0xcd, 0xa5, 0x91, 0x29, 0xc1, 0x9e, 0x34, 0x28,
  0xe4, 0xab, 0xfb, 0x2c, 0xa1, 0x30, 0x6d, 0x28, 0x9e, 0x29, 0x28, 0x2c, 0x86, 0x1f, 0x9b, 0x23,
  0xc0, 0x2c, 0x98, 0x26, 0x8e, 0xab, 0x32, 0xa5, 0xb9, 0xa9, 0x41, 0x27, 0xfa, 0x31, 0x11, 0x1d,
  0x1b, 0x2e, 0x90, 0x27, 0xd8, 0xa9, 0x26, 0x1f, 0x7e, 0x13, 0x5b, 0xaa, 0x69, 0xb1, 0x86, 0xa8,
  0x27, 0x1d, 0xbb, 0x28, 0x1d, 0xa0, 0xfe, 0x29, 0x8c, 0x28, 0x71, 0x24, 0x37, 0x9a, 0xbb, 0x25,
  0x76, 0x9f, 0x36, 0x27, 0xfd, 0xa1, 0xcc, 0xa5, 0xb9, 0xaa, 0x12, 0x91, 0x73, 0x2a, 0xb6, 0x21,
  0x86, 0xa6, 0x33, 0xab, 0x7a, 0x20, 0x52, 0xa4, 0xf9, 0xa5, 0x70, 0x2a, 0x4d, 0xaf, 0x6f, 0xa7,
  0x5d, 0x2d, 0xbb, 0xa6, 0x9d, 0xa4, 0x56, 0xa8, 0xec, 0x22, 0xc6, 0xaa, 0xc0, 0xab, 0x48, 0x24,
  0x41, 0x23, 0x21, 0x25, 0x38, 0x25, 0x74, 0xab, 0x8d, 0xa9, 0x16, 0x27, 0x4c, 0x21, 0x3a, 0x2a,
  0x1a, 0x22, 0xf6, 0xaf, 0xc6, 0xab, 0x80, 0x27, 0xa7, 0x1c, 0x76, 0x2c, 0x78, 0xab, 0x9b, 0xaa,
  0xe1, 0xaa, 0xfa, 0xac, 0x0e, 0xac, 0xf9, 0xa4, 0xf0, 0x29, 0x5e, 0x2b, 0x4d, 0x32, 0xe0, 0xa9,
  0xad, 0x9b, 0x5e, 0xa9, 0xd6, 0xa2, 0xf0, 0xab, 0x30, 0x25, 0xb0, 0x19, 0xea, 0x19, 0x2a, 0x29,
  0x75, 0x26, 0xac, 0x25, 0x00, 0xac, 0xb6, 0x27, 0x5e, 0x9c, 0x07, 0x23, 0x9c, 0x9c, 0x09, 0x27,
  0x1a, 0xad, 0x90, 0xb0, 0xf3, 0x26, 0x75, 0xa2, 0x6b, 0x28, 0x20, 0xa9, 0x9a, 0xa9, 0x69, 0xad,
  0x37, 0xb0, 0x4a, 0xa9, 0xbf, 0xad, 0x27, 0xad, 0x0c, 0x1d, 0xc2, 0x2e, 0x40, 0x33, 0x42, 0xab,
  0x93, 0x2c, 0x6a, 0x2e, 0x9c, 0xaa, 0xc2, 0xab, 0x62, 0x1f, 0x87, 0x28, 0x4f, 0xa9, 0xa5, 0x19,
  0x8b, 0xaa, 0x3d, 0x29, 0xac, 0xa4, 0xc0, 0xa1, 0xb9, 0xab, 0x86, 0xa8, 0xa2, 0x25, 0x70, 0xa5,
  0xd0, 0x24, 0xea, 0x2a, 0xc2, 0xa5, 0xe5, 0x26, 0x08, 0x1e, 0xdf, 0x2c, 0x3d, 0x29, 0x6a, 0xa6,
  0x76, 0xa7, 0x9c, 0xa2, 0x41, 0x28, 0x2b, 0xac, 0x18, 0x26, 0xaa, 0xaa, 0x0d, 0xb2, 0x0d, 0xab,
  0x42, 0x2e, 0x60, 0xad, 0xb4, 0xa3, 0x32, 0xa9, 0x6f, 0x2a, 0xa0, 0xa8, 0x4b, 0xa8, 0x82, 0x28,
  0xe2, 0x25, 0x3b, 0xa8, 0x8d, 0x20, 0xbe, 0x28, 0xa9, 0x98, 0x95, 0xae, 0xa2, 0xa9, 0xbb, 0x28,
  0x1a, 0x22, 0x2b, 0xa2, 0xa0, 0x9c, 0x09, 0x29, 0xc1, 0xa4, 0x67, 0x2c, 0x3c, 0x27, 0x3a, 0xaa,
  0xb2, 0x24, 0xb4, 0xa1, 0xf2, 0x97, 0x7f, 0xae, 0x89, 0x27, 0xb8, 0xaf, 0xdb, 0x30, 0xb4, 0xa6,
  0x57, 0xac, 0xae, 0xa8, 0x10, 0x1d, 0x1e, 0xa9, 0x53, 0x1b, 0xdc, 0x93, 0x15, 0x2c, 0x5a, 0x29,
  0xab, 0x25, 0x01, 0xac, 0xdc, 0xa0, 0x2e, 0x28, 0x06, 0x29, 0x46, 0xac, 0xb3, 0x28, 0xff, 0xa9,
  0xd0, 0xa9, 0x39, 0xa3, 0xf9, 0xac, 0x1a, 0xa8, 0xf0, 0xa4, 0xea, 0xa7, 0x93, 0xa8, 0xd0, 0xab,
  0x2b, 0x2a, 0xd6, 0xab, 0x46, 0xaa, 0x7e, 0xa7, 0x38, 0xab, 0xb8, 0x2a, 0x90, 0x2c, 0x16, 0xab,
  0x3d, 0x24, 0x81, 0xaa, 0x31, 0x29, 0xbe, 0xa0, 0x76, 0x29, 0x1d, 0xa1, 0x82, 0xa6, 0xdf, 0x9c,
  0x1e, 0xa8, 0x49, 0x26, 0xdf, 0xaa, 0x92, 0xa8, 0x98, 0xa0, 0x5e, 0xa8, 0x9c, 0xab, 0x9d, 0xa8,
  0x57, 0x28, 0x52, 0xab, 0x18, 0x98, 0x55, 0xa1, 0x7e, 0xa4, 0x39, 0x2d, 0xc3, 0xab, 0xb1, 0xa6,
  0x22, 0x20, 0x68, 0xa6, 0x31, 0xb2, 0x9c, 0xa3, 0x38, 0x26, 0xb1, 0xad, 0xc8, 0x30, 0xd5, 0xab,
  0x20, 0xa1, 0xed, 0xad, 0x01, 0xa7, 0x21, 0xad, 0x7c, 0xa5, 0xe4, 0xaa, 0x27, 0x31, 0x45, 0xa8,
  0xf6, 0x90, 0x10, 0xa7, 0xb4, 0xa9, 0xc9, 0xad, 0x6e, 0x27, 0xcb, 0x28, 0x49, 0xae, 0x15, 0xa3,
  0x0f, 0xab, 0xa9, 0xa9, 0xd4, 0x2e, 0xee, 0x18, 0x96, 0xac, 0x7d, 0xaa, 0x0b, 0xac, 0x30, 0xaf,
  0x6f, 0x24, 0x72, 0x1a, 0x83, 0x98, 0x00, 0x30, 0x98, 0xab, 0x44, 0x2d, 0x90, 0x31, 0x15, 0x2e,
  0x00, 0x2b, 0xe7, 0xac, 0xa0, 0x29, 0xe2, 0x93, 0x58, 0x2c, 0x7d, 0x2e, 0xef, 0x2e, 0x2a, 0xa8,
  0x4a, 0xa9, 0xa7, 0xa5, 0x36, 0xa6, 0x88, 0x20, 0x51, 0xad, 0x1d, 0x2c, 0x70, 0xa9, 0x68, 0x2c,
  0x06, 0xac, 0x16, 0x2f, 0x9e, 0x2b, 0xab, 0xae, 0x5c, 0x2b, 0x94, 0x31, 0x30, 0x27, 0x07, 0x2d,
  0xe3, 0x2c, 0x2f, 0x9f, 0x95, 0x2c, 0xf2, 0x28, 0xd0, 0xa9, 0x0a, 0xac, 0x13, 0xb0, 0xb7, 0x26,
  0x0e, 0xa1, 0xac, 0xb0, 0x37, 0xac, 0x06, 0x2d, 0x32, 0xb1, 0x53, 0x2a, 0x22, 0x27, 0x7e, 0x2e,
  0xd9, 0xa4, 0xcd, 0xa6, 0x07, 0x27, 0xb4, 0xa4, 0x2c, 0xa8, 0x8a, 0xad, 0xf9, 0x1d, 0x70, 0xab,
  0x20, 0xab, 0x87, 0x2c, 0x52, 0x2a, 0x40, 0x9d, 0x29, 0x2c, 0x46, 0x28, 0xcb, 0xa7, 0xa2, 0x18,
  0xd8, 0xab, 0x06, 0x20, 0x31, 0xb1, 0x8e, 0x2d, 0x9d, 0x21, 0x8c, 0x28, 0xc1, 0xaf, 0x4b, 0xab,
  0x4a, 0xa6, 0xa4, 0x20, 0xb7, 0x28, 0x83, 0xad, 0x7c, 0xaf, 0x3e, 0x2c, 0x2a, 0xb1, 0xeb, 0x25,
  0x1b, 0x9d, 0xad, 0x26, 0xf2, 0x25, 0x7d, 0xa9, 0x61, 0xa9, 0x9d, 0xa5, 0x11, 0xa6, 0x21, 0xa7,
  0xa5, 0xac, 0x66, 0xa5, 0x4d, 0xaa, 0x8c, 0x1c, 0x61, 0xac, 0x0a, 0x21, 0x51, 0x27, 0x9c, 0xa7,
  0xba, 0xaa, 0x06, 0xac, 0x33, 0x24, 0xac, 0x2e, 0x09, 0x2c, 0xc3, 0x20, 0xa0, 0x32, 0x31, 0x2b,
  0x6d, 0x28, 0x09, 0xb3, 0xc5, 0x2d, 0xda, 0x2a, 0x61, 0x33, 0x49, 0x28, 0x5d, 0xa4, 0x12, 0x2b,
  0xa2, 0x29, 0xa3, 0x2a, 0xbb, 0xa5, 0x8a, 0x2c, 0xf6, 0xa3, 0xd1, 0xa1, 0xd5, 0x2c, 0x17, 0x29,
  0xc1, 0x2b, 0x23, 0x0e, 0xfc, 0x24, 0x15, 0x9d, 0x95, 0x2d, 0xa7, 0x25, 0x53, 0x24, 0xa2, 0xab,
  0xed, 0xa3, 0x6d, 0xa5, 0xde, 0xac, 0xf0, 0xa7, 0x61, 0x2c, 0x77, 0xa5, 0x69, 0xb4, 0x0a, 0x2d,
  0x4f, 0xad, 0xbc, 0xa1, 0x94, 0x25, 0x8a, 0x23, 0x21, 0x28, 0xef, 0xa8, 0x0c, 0x2d, 0x55, 0xad,
  0x65, 0xa9, 0x29, 0x2a, 0x84, 0xa1, 0x5d, 0x2c, 0xcb, 0x23, 0x15, 0xab, 0x6d, 0x2b, 0x78, 0x99,
  0xf8, 0x20, 0xed, 0xab, 0x1d, 0xac, 0x1d, 0xa5, 0x01, 0xa4, 0x28, 0x28, 0xea, 0x24, 0x6f, 0xa3,
  0x58, 0xae, 0x57, 0xaa, 0x07, 0xa4, 0x5c, 0x24, 0x12, 0xa0, 0xdc, 0x1f, 0x29, 0xb1, 0x27, 0xa9,
  0xa6, 0xa2, 0xa9, 0x23, 0x62, 0xa0, 0xe7, 0xaa, 0xd4, 0xa4, 0xe4, 0xa9, 0xc0, 0xa9, 0x2a, 0xa0,
  0x96, 0xa8, 0x09, 0xa4, 0x4a, 0xac, 0x9e, 0x27, 0x4b, 0xa8, 0x14, 0xac, 0x54, 0xa9, 0x48, 0x21,
  0x7c, 0x2b, 0xe4, 0x26, 0xd2, 0x19, 0x6f, 0x2c, 0x97, 0xa5, 0x06, 0x23, 0x2a, 0xaa, 0xf9, 0x24,
  0x9e, 0x22, 0xc9, 0xab, 0x58, 0xa8, 0x18, 0x2b, 0x64, 0x2a, 0x24, 0xa8, 0xaa, 0x36, 0x92, 0xac,
  0xf4, 0x2d, 0xb1, 0xaa, 0xdb, 0x2a, 0x4b, 0xac, 0x4c, 0x2f, 0x45, 0x13, 0x98, 0xac, 0x41, 0x1e,
  0xc0, 0xa3, 0xbe, 0x2c, 0x39, 0x90, 0x35, 0xa8, 0x35, 0xab, 0x7b, 0x17, 0xa4, 0xab, 0x73, 0xa4,
  0x13, 0x2a, 0xa0, 0x2a, 0xdb, 0x28, 0xa3, 0xa4, 0x80, 0x2b, 0x6a, 0x20, 0x58, 0xaa, 0xf0, 0x11,
  0x22, 0xa5, 0x98, 0x8c, 0x93, 0x1b, 0x84, 0xa2, 0x2a, 0xa8, 0x5d, 0x23, 0xd0, 0xb2, 0x13, 0x2a,
  0xf9, 0xaa, 0xf3, 0x20, 0x12, 0x23, 0x4f, 0x9c, 0xaa, 0x22, 0x60, 0xa1, 0x68, 0x1d, 0x8c, 0xa6,
  0xc6, 0xa9, 0xe7, 0xa8, 0xfa, 0xa5, 0x75, 0x28, 0x16, 0xac, 0xe5, 0x20, 0x00, 0x26, 0x1a, 0x99,
  0xc5, 0x24, 0x46, 0x21, 0x28, 0xab, 0x7c, 0x2b, 0x8d, 0xac, 0xf2, 0x27, 0xfd, 0x1c, 0x9d, 0x28,
  0xa2, 0xa9, 0x12, 0x27, 0xe6, 0xac, 0xb5, 0x2e, 0x5a, 0xaa, 0x28, 0xa9, 0x3e, 0xae, 0x94, 0x27,
  0x2c, 0x2c, 0xb8, 0xaa, 0x6e, 0xa8, 0xd0, 0x28, 0x36, 0xac, 0xf7, 0x2b, 0xf7, 0x24, 0x95, 0x25,
  0x34, 0x2a, 0x17, 0xa5, 0x34, 0x2c, 0xfc, 0x25, 0x6e, 0x1d, 0xd9, 0x2d, 0x17, 0x2b, 0xee, 0x2a,
  0x0b, 0x29, 0x38, 0x21, 0xb3, 0xa7, 0x9a, 0xac, 0xa5, 0x28, 0x07, 0x28, 0xb6, 0x9e, 0xd4, 0xa2,
  0x89, 0x28, 0x93, 0xa5, 0x83, 0x1d, 0x42, 0xa9, 0x36, 0xab, 0xbd, 0x1f, 0x85, 0x30, 0x30, 0x2a,
  0x19, 0xac, 0x78, 0x24, 0xd9, 0x2c, 0xca, 0xa6, 0xdd, 0xa7, 0xf0, 0x29, 0x72, 0x31, 0x33, 0x24,
  0xb3, 0x2c, 0x38, 0xaa, 0x45, 0x25, 0x25, 0xa5, 0xef, 0xa8, 0xb7, 0x2d, 0xa4, 0xa8, 0x95, 0x2b,
  0xa8, 0xa5, 0xa0, 0x29, 0x93, 0x2c, 0xbc, 0xaa, 0x71, 0x29, 0x1b, 0xa9, 0x3d, 0xa9, 0xc2, 0x99,
  0x86, 0x2d, 0x38, 0x2c, 0x23, 0xac, 0x6d, 0x19, 0xd7, 0x84, 0x35, 0xa9, 0x50, 0x2d, 0xce, 0xa3,
  0x0f, 0xa1, 0x13, 0x2d, 0x2a, 0xa9, 0xe4, 0x22, 0x06, 0xa8, 0x14, 0xa7, 0xb0, 0xa1, 0xc2, 0xaa,
  0xe9, 0x26, 0xf6, 0x26, 0x78, 0xaa, 0xf8, 0x28, 0xbb, 0x9a, 0x00, 0x2c, 0xe5, 0x98, 0x06, 0x1f,
  0x4b, 0x25, 0xa9, 0xae, 0xf7, 0x22, 0x8c, 0xa1, 0xa0, 0x26, 0x2c, 0x2d, 0x4a, 0x1c, 0x6e, 0xa6,
  0x8b, 0x2e, 0x59, 0x15, 0x62, 0xa9, 0x26, 0x9c, 0x34, 0xa8, 0xa4, 0x9f, 0x9f, 0xb4, 0xd7, 0xa9,
  0xf5, 0x24, 0x5a, 0x29, 0x9c, 0x26, 0xe6, 0xa0, 0xe2, 0x25, 0x28, 0x2a, 0x3b, 0x30, 0x70, 0xa9,
  0x00, 0x29, 0xc2, 0xa8, 0x57, 0x8d, 0x29, 0x28, 0xb6, 0x26, 0xfa, 0x24, 0x87, 0xa9, 0x03, 0x2b,
  0x8f, 0xa4, 0x40, 0x2d, 0x1f, 0xa9, 0xca, 0x24, 0xa1, 0xa1, 0xb3, 0x28, 0x06, 0x20, 0x20, 0x2a,
  0x1d, 0x26, 0x59, 0xa5, 0xbf, 0xac, 0x8e, 0x2c, 0xaa, 0x98, 0x4f, 0xab, 0x00, 0x33, 0x4b, 0x2d,
  0x8a, 0x9b, 0x1c, 0x2d, 0xc0, 0xab, 0x27, 0x1f, 0x77, 0xab, 0xda, 0xab, 0x8e, 0xa7, 0x80, 0xaa,
  0xb6, 0x21, 0x87, 0x28, 0xf7, 0xa9, 0x41, 0x28, 0xc7, 0x22, 0xea, 0x27, 0x37, 0x29, 0xd0, 0xa4,
  0xb9, 0x2b, 0x9f, 0xa8, 0x3d, 0x28, 0xd6, 0x9d, 0x8c, 0xa6, 0xaf, 0xa9, 0x53, 0x2b, 0xa3, 0x27,
  0x4c, 0x1d, 0x39, 0x0a, 0x5c, 0xa8, 0x72, 0xa9, 0x87, 0x28, 0x4e, 0x1f, 0x1f, 0x2a, 0x11, 0xab,
  0xf4, 0x2a, 0xa7, 0x24, 0x31, 0xa0, 0xc6, 0xac, 0xe8, 0xa9, 0x2d, 0x28, 0x2f, 0xaf, 0x7c, 0x28,
  0x55, 0x27, 0xdd, 0x2b, 0x27, 0xa8, 0x5a, 0xa8, 0x21, 0x1d, 0x37, 0x2b, 0x84, 0x96, 0x1f, 0x1f,
  0x35, 0x29, 0xc8, 0x1b, 0x37, 0x2a, 0x19, 0xab, 0xe5, 0x28, 0x31, 0x28, 0x69, 0x1c, 0xda, 0x2b,
  0x5c, 0x1e, 0x4e, 0xac, 0x0f, 0xae, 0x91, 0x27, 0xf9, 0xa5, 0x89, 0xa2, 0x96, 0xb4, 0x16, 0xa0,
  0x81, 0x29, 0x63, 0x25, 0x4c, 0x24, 0x96, 0x29, 0xd0, 0xa6, 0x18, 0x26, 0x6c, 0xa5, 0x29, 0x22,
  0x8f, 0x95, 0x67, 0xa9, 0x7d, 0x8e, 0xd8, 0xa8, 0x0e, 0xab, 0x43, 0x29, 0x2d, 0x2a, 0xd1, 0xa5,
  0xb1, 0xac, 0xa8, 0x2a, 0x2d, 0x9c, 0x76, 0xaa, 0x3c, 0x23, 0xae, 0x94, 0x9b, 0xa8, 0x37, 0x9f,
  0xc6, 0x25, 0x2d, 0xac, 0x3f, 0x2c, 0x41, 0xad, 0x91, 0x9d, 0x15, 0xa8, 0x83, 0x30, 0xeb, 0x2a,
  0x34, 0xa2, 0xb3, 0x28, 0xfa, 0xa9, 0xcd, 0xa4, 0x01, 0xac, 0x21, 0x26, 0xc4, 0xa1, 0xa8, 0x26,
  0xc7, 0xa8, 0x34, 0x9d, 0x51, 0xa8, 0x9b, 0xaa, 0x71, 0xab, 0xbf, 0x24, 0x32, 0xa8, 0x12, 0x1d,
  0x0f, 0x27, 0x22, 0xac, 0x69, 0x28, 0x10, 0xa5, 0xee, 0xa6, 0xd4, 0x2a, 0x8d, 0x2b, 0x03, 0x27,
  0x9c, 0x9c, 0xda, 0x28, 0x9f, 0x2c, 0xa6, 0xa6, 0x69, 0xaa, 0x28, 0xaa, 0x91, 0xa6, 0xef, 0xab,
  0xdc, 0x2a, 0xb5, 0x26, 0x8c, 0xa7, 0xec, 0x28, 0xd7, 0x1d, 0x77, 0x26, 0x10, 0x1a, 0xd1, 0xa6,
  0x85, 0x28, 0x18, 0xaa, 0x74, 0xa8, 0x0e, 0xa6, 0x75, 0xad, 0x28, 0x28, 0x32, 0x25, 0x30, 0x20,
  0xbc, 0xa4, 0xd6, 0x21, 0xfb, 0x26, 0xa6, 0x24, 0x30, 0xa7, 0x2d, 0xad, 0x92, 0x1c, 0xca, 0xa5,
  0x28, 0xab, 0x79, 0xab, 0x60, 0x27, 0x4a, 0x2e, 0x1c, 0xa4, 0x77, 0xa4, 0xa9, 0xa5, 0x22, 0x30,
  0x1f, 0x29, 0x5a, 0x25, 0x3f, 0x95, 0xc4, 0xa0, 0x6e, 0x20, 0x74, 0xa7, 0xf1, 0xb4, 0x43, 0xa7,
  0x1d, 0xa3, 0x70, 0x18, 0x61, 0xac, 0x6a, 0xad, 0x2a, 0xac, 0x15, 0xae, 0x95, 0xa1, 0xa0, 0x29,
  0x5f, 0x2e, 0xb5, 0x2f, 0x49, 0x2d, 0x14, 0xae, 0x55, 0x2d, 0xd2, 0xa6, 0xe2, 0xa2, 0x6e, 0x22,
  0xa6, 0x2e, 0x3d, 0xa1, 0x72, 0xa1, 0x6a, 0x28, 0x4b, 0xad, 0x41, 0xad, 0x6e, 0x29, 0xbb, 0x33,
  0x3a, 0xac, 0x8e, 0x27, 0x58, 0xa8, 0xe1, 0x1e, 0x68, 0xae, 0x01, 0xa5, 0xca, 0xa8, 0x80, 0x21,
  0x3f, 0x30, 0xca, 0xa9, 0xec, 0xab, 0x63, 0x28, 0x5c, 0xb0, 0xf7, 0xa5, 0xd8, 0x9e, 0x41, 0xa4,
  0x16, 0x2c, 0xe9, 0x30, 0x5d, 0xa9, 0x37, 0xac, 0x98, 0x2b, 0x99, 0x28, 0x0b, 0xab, 0xbc, 0x96,
  0xae, 0x33, 0xb8, 0x9c, 0x8e, 0x20, 0x66, 0x2d, 0x0a, 0x28, 0x80, 0xaa, 0xa2, 0xb0, 0x55, 0x2e,
  0x87, 0xad, 0xb7, 0x26, 0xd3, 0x9a, 0x5c, 0x9e, 0x04, 0x29, 0x84, 0xac, 0x9a, 0xab, 0x7d, 0x2c,
  0xd0, 0x28, 0x3a, 0x24, 0xd4, 0xa9, 0x48, 0x9b, 0xd4, 0x9f, 0x72, 0x24, 0xfc, 0x2a, 0x4d, 0x2c,
  0xb8, 0x27, 0x5b, 0xa4, 0x16, 0x25, 0x8e, 0xa6, 0x75, 0x2c, 0x90, 0xab, 0x58, 0x26, 0x42, 0x2c,
  0x47, 0x24, 0x6e, 0x2a, 0x27, 0xaa, 0x2b, 0x2c, 0x20, 0xa6, 0x0a, 0x30, 0xdb, 0x22, 0xcf, 0xac,
  0x72, 0xa2, 0x02, 0x2e, 0x2f, 0x9e, 0xb4, 0x2f, 0x2b, 0xab, 0xc6, 0x28, 0x02, 0x32, 0xf3, 0xa1,
  0x1e, 0x2c, 0x66, 0xa6, 0x32, 0xaa, 0x05, 0xa8, 0x8c, 0xa5, 0xe9, 0xa3, 0xed, 0x2a, 0xb5, 0x9c,
  0xb7, 0xaf, 0x58, 0x24, 0xa0, 0xa9, 0x58, 0xa7, 0xdc, 0xa5, 0xa1, 0x2c, 0x65, 0xaa, 0xd3, 0x9a,
  0xe9, 0xaa, 0xb2, 0x97, 0x86, 0x2f, 0x66, 0x31, 0x62, 0xac, 0xbc, 0xae, 0x22, 0xa5, 0x8a, 0xae,
  0x44, 0x2e, 0x4b, 0xae, 0xe0, 0xa4, 0x78, 0xa8, 0x68, 0x2b, 0xc3, 0xa7, 0x91, 0x24, 0xf3, 0x2b,
  0xf1, 0x2b, 0x4c, 0x2b, 0xea, 0xa9, 0xb6, 0x28, 0x60, 0x28, 0xcc, 0x20, 0x47, 0x2f, 0xe9, 0xa9,
  0xad, 0x2e, 0xed, 0x9f, 0xf3, 0x1a, 0xb1, 0xa0, 0xae, 0xa6, 0x13, 0x26, 0xc4, 0x29, 0x57, 0xac,
  0x62, 0xb1, 0x68, 0xaf, 0x43, 0xa8, 0xca, 0xaf, 0xe2, 0xa4, 0x39, 0x28, 0x96, 0xad, 0xc5, 0xac,
  0x3d, 0x20, 0x04, 0x2a, 0x82, 0x23, 0xe5, 0xad, 0x19, 0x21, 0x78, 0x18, 0xb8, 0xad, 0xea, 0xad,
  0x69, 0xaa, 0xc5, 0x2d, 0xb8, 0xa8, 0xb1, 0x28, 0xfc, 0xa9, 0xd3, 0x2c, 0x17, 0xa7, 0xec, 0xa6,
  0xf2, 0x25, 0x13, 0xaa, 0x93, 0x2d, 0x12, 0x2b, 0xa3, 0xa8, 0x67, 0xa1, 0x60, 0x28, 0x55, 0x31,
  0x9e, 0xae, 0xa6, 0x94, 0x24, 0xa4, 0xd7, 0xa9, 0xe2, 0x28, 0x28, 0xa4, 0x37, 0xad, 0x85, 0x2c,
  0xf7, 0x9d, 0xc3, 0x22, 0x47, 0xa8, 0xe1, 0x2c, 0x0e, 0xa5, 0xb5, 0xad, 0x99, 0x30, 0xc1, 0x28,
  0xb7, 0x24, 0x9b, 0xa0, 0x5e, 0x9d, 0x13, 0xab, 0xdb, 0x22, 0x07, 0x29, 0x98, 0x21, 0x4f, 0x9d,
  0x07, 0xa6, 0x4f, 0x2c, 0xfc, 0xac, 0x28, 0xab, 0xdc, 0x25, 0xf8, 0x29, 0x81, 0xa9, 0xb3, 0x29,
  0x4f, 0xa7, 0x92, 0x2b, 0x5a, 0x2a, 0xd3, 0xaa, 0xb4, 0xa8, 0xd5, 0xb0, 0x7c, 0x2e, 0x4d, 0x21,
  0x1e, 0x31, 0x34, 0xa5, 0xc8, 0x9b, 0x58, 0x9e, 0x22, 0x16, 0x03, 0xaa, 0x14, 0xb1, 0x52, 0x27,
  0x75, 0x27, 0x37, 0xad, 0x92, 0x2e, 0x17, 0x28, 0x6a, 0xa4, 0x41, 0x2d, 0x6d, 0xa1, 0x0a, 0xaa,
  0x2b, 0x2c, 0x1f, 0x2f, 0x4f, 0x1f, 0x34, 0x2d, 0xd1, 0x20, 0x24, 0x1a, 0xe5, 0x2a, 0x80, 0xa1,
  0x48, 0x1c, 0x4d, 0x28, 0x7e, 0x2f, 0x63, 0x2c, 0x02, 0xa7, 0xd3, 0xab, 0xcf, 0x2e, 0xe5, 0x1c,
  0xc3, 0x2a, 0x60, 0xaa, 0x49, 0x25, 0xcf, 0x2c, 0xd8, 0xa9, 0x1d, 0x26, 0xd6, 0x2c, 0x36, 0x25,
  0xff, 0xa9, 0x81, 0xab, 0x6b, 0x28, 0x0d, 0x1f, 0x65, 0xa3, 0xbe, 0x23, 0x6b, 0xa9, 0x73, 0x25,
  0x2a, 0xac, 0x81, 0x2d, 0x0b, 0xad, 0x58, 0x26, 0x3e, 0xac, 0xc8, 0x1f, 0xaf, 0xa6, 0xc5, 0xac,
  0x45, 0x30, 0xdf, 0x24, 0x77, 0xb0, 0x95, 0x20, 0xbc, 0x96, 0x63, 0xab, 0xa8, 0xaa, 0x02, 0x28,
  0x0a, 0xae, 0x13, 0xac, 0xd8, 0xa7, 0xa0, 0x28, 0x1b, 0x2c, 0xd6, 0xa8, 0x86, 0x31, 0x53, 0x17,
  0x93, 0x2b, 0x39, 0xa9, 0xe0, 0x27, 0x05, 0x29, 0x49, 0x2a, 0x23, 0xa5, 0x17, 0x26, 0x34, 0x1c,
  0xcb, 0x2f, 0x14, 0xad, 0xf4, 0x2b, 0x0b, 0x2c, 0x7f, 0xa9, 0xf1, 0xae, 0x4a, 0xaa, 0x78, 0x25,
  0x14, 0xae, 0xe2, 0xa6, 0x77, 0xa5, 0x9b, 0x27, 0x67, 0xa8, 0xeb, 0x2a, 0x4c, 0xa1, 0x8f, 0x1e,
  0x21, 0x30, 0xb3, 0xa4, 0xf4, 0x28, 0x1d, 0xa5, 0x4a, 0x1f, 0x87, 0xa1, 0xad, 0xad, 0xf9, 0x29,
  0x59, 0x2a, 0x34, 0xa7, 0x81, 0xad, 0x4b, 0x28, 0x04, 0x2c, 0xfe, 0x2f, 0xbc, 0x2d, 0x33, 0xa3,
  0xb9, 0x2c, 0x65, 0x32, 0x6b, 0x26, 0x49, 0xad, 0x42, 0x2d, 0xa1, 0x31, 0x41, 0xa9, 0x66, 0xa8,
  0x5a, 0x31, 0x20, 0xa8, 0x4d, 0xa8, 0x92, 0x2f, 0xc0, 0x2b, 0x9e, 0x2c, 0xe4, 0xa9, 0x0d, 0xa2,
  0x56, 0xa5, 0xbd, 0x29, 0xb1, 0xa8, 0x19, 0x1d, 0x40, 0x28, 0x4b, 0xa5, 0xfc, 0xa9, 0x7a, 0xa2,
  0xc8, 0x2c, 0xa6, 0x9e, 0x01, 0xa9, 0x0a, 0x27, 0x37, 0xac, 0x0d, 0xa1, 0xa3, 0xad, 0x7c, 0x09,
  0xea, 0x2c, 0x11, 0x26, 0x77, 0x2e, 0xa0, 0x09, 0x01, 0x26, 0xf8, 0xad, 0x05, 0xa8, 0x51, 0xaf,
  0x30, 0x2f, 0x65, 0x27, 0xe2, 0x94, 0x5c, 0xad, 0xae, 0xac, 0x6f, 0x2b, 0x86, 0x30, 0x2a, 0x24,
  0xc2, 0x2d, 0x75, 0xac, 0x9c, 0x25, 0xe8, 0x2b, 0x80, 0xa4, 0x94, 0x2a, 0x15, 0xac, 0x56, 0x25,
  0xa9, 0xac, 0x92, 0xa9, 0x44, 0x22, 0xa5, 0xab, 0x29, 0x1d, 0x1f, 0xab, 0xc2, 0x25, 0xc2, 0x17,
  0x48, 0x27, 0xb1, 0x2a, 0x3e, 0xa6, 0xa9, 0x26, 0x25, 0x2a, 0x7d, 0x2f, 0x7c, 0xab, 0xce, 0x30,
  0xea, 0x28, 0xf9, 0xa9, 0x6c, 0x2e, 0x55, 0x32, 0x4c, 0xa1, 0xd5, 0xab, 0x4e, 0xad, 0xe4, 0xac,
  0x38, 0x2b, 0xc4, 0x9a, 0x19, 0xaa, 0xaa, 0x29, 0xf8, 0x2a, 0x58, 0xa1, 0xf8, 0xb0, 0x4c, 0x24,
  0x91, 0x2c, 0xdb, 0x2c, 0x09, 0x21, 0xc6, 0x9d, 0xc8, 0x2b, 0x8c, 0xac, 0xf1, 0x2b, 0xad, 0x92,
  0xa8, 0x30, 0x9f, 0x28, 0xfe, 0x28, 0x1e, 0xa8, 0xab, 0x24, 0xa7, 0xac, 0x54, 0x26, 0xf1, 0x2b,
  0x4a, 0xaf, 0x43, 0xa8, 0x2d, 0x29, 0x6d, 0xa0, 0xc8, 0x27, 0xf7, 0x24, 0x7a, 0x32, 0x6c, 0xab,
  0xee, 0xa9, 0x71, 0xa2, 0xeb, 0x21, 0xc0, 0xab, 0x0f, 0x91, 0xfe, 0x22, 0x2f, 0xb0, 0xb5, 0x23,
  0x08, 0xa8, 0x5a, 0x2c, 0x52, 0xab, 0x35, 0x26, 0x66, 0xa3, 0x31, 0x29, 0x71, 0x26, 0xdd, 0xab,
  0x44, 0xa2, 0x66, 0xad, 0x5e, 0x22, 0xd5, 0x25, 0x6c, 0x9c, 0x5d, 0xa0, 0xd8, 0x2b, 0xd2, 0x2f,
  0x5e, 0x2e, 0x50, 0xae, 0x09, 0x2f, 0x84, 0x2a, 0x02, 0x2d, 0xd9, 0x18, 0xb1, 0x21, 0xd3, 0xa8,
  0x67, 0x2d, 0xf6, 0x1c, 0x5c, 0x28, 0x78, 0xa4, 0x76, 0x30, 0xb7, 0xac, 0x94, 0x29, 0x9c, 0x19,
  0xf8, 0x28, 0x4d, 0xa5, 0xc3, 0xa9, 0x8f, 0x28, 0x6b, 0x29, 0xe3, 0x1f, 0x69, 0x2b, 0x0d, 0x1e,
  0x77, 0x2d, 0xf1, 0x27, 0xa9, 0x27, 0x94, 0x2a, 0x6e, 0x28, 0x9a, 0x29, 0x66, 0xa8, 0x07, 0xa9,
  0xa2, 0x24, 0x41, 0xa8, 0x8f, 0xa5, 0x40, 0xa9, 0xcc, 0xa6, 0x3b, 0x25, 0x57, 0x31, 0x8c, 0x24,
  0xef, 0xa3, 0x16, 0x2a, 0xbc, 0xa9, 0x6b, 0x19, 0x72, 0x8b, 0xbb, 0x25, 0x6a, 0x31, 0xf2, 0x25,
  0xb4, 0xa5, 0x8b, 0x2c, 0xb1, 0x2d, 0x2c, 0xa9, 0xc7, 0x1a, 0x19, 0x2c, 0xb4, 0xad, 0x1f, 0x2c,
  0x44, 0x2c, 0x85, 0x2c, 0x6b, 0x29, 0x54, 0x20, 0x99, 0x23, 0xcb, 0xac, 0x0c, 0x28, 0xd5, 0xa1,
  0x4a, 0x30, 0x82, 0x29, 0xca, 0x1a, 0xcc, 0x28, 0x47, 0x25, 0x30, 0x2d, 0xb0, 0x2f, 0xe7, 0xa2,
  0xc7, 0x22, 0x0e, 0xa8, 0xc9, 0xa7, 0x09, 0xa0, 0x34, 0x24, 0xc3, 0x27, 0xd7, 0x2f, 0x81, 0x25,
  0xac, 0xac, 0xa5, 0xa8, 0x34, 0x24, 0x59, 0x27, 0x3d, 0x24, 0xde, 0x25, 0x51, 0xab, 0xee, 0x20,
  0xe4, 0x22, 0xa2, 0x2a, 0x51, 0x26, 0x49, 0x29, 0xe7, 0x29, 0xee, 0x1c, 0xf7, 0xa5, 0xdb, 0x2a,
  0x32, 0xaa, 0x91, 0xa6, 0x13, 0x9c, 0x5a, 0x2a, 0xa9, 0xa4, 0x99, 0xa8, 0x31, 0xa1, 0x42, 0x26,
  0xd2, 0xa4, 0x35, 0xa4, 0x71, 0xa7, 0xe9, 0x29, 0x24, 0xa8, 0x36, 0xaa, 0x48, 0x30, 0x7a, 0x2c,
  0x45, 0x9c, 0x50, 0xa8, 0xb4, 0x2b, 0x4c, 0x2b, 0xd0, 0x24, 0xf1, 0x9f, 0xc2, 0x2c, 0xfc, 0x28,
  0xcd, 0x24, 0xc3, 0xaa, 0xd1, 0xa4, 0x47, 0x26, 0xf8, 0x28, 0x10, 0x29, 0x22, 0xa1, 0x06, 0xa8,
  0x7d, 0xa7, 0x92, 0x1f, 0x89, 0xac, 0x8d, 0x2c, 0x8e, 0x28, 0xc0, 0x26, 0x82, 0xaf, 0x7e, 0x2c,
  0x1e, 0x20, 0x61, 0xa1, 0x79, 0xa4, 0xd3, 0x28, 0xd4, 0x1e, 0xb5, 0xa9, 0x12, 0x2f, 0x86, 0xa5,
  0x4e, 0x2b, 0xe0, 0xa8, 0x8f, 0x27, 0x0b, 0x2a, 0x42, 0x24, 0x5d, 0x2d, 0x5e, 0xa6, 0xcc, 0xa4,
  0x26, 0xac, 0x1f, 0x2a, 0x19, 0x29, 0xb9, 0x29, 0x72, 0xa3, 0x48, 0x30, 0xcf, 0x2a, 0x20, 0x25,
  0x07, 0xac, 0x6a, 0xa1, 0xde, 0xa1, 0x10, 0xa8, 0x99, 0x24, 0x75, 0xad, 0x28, 0x2b, 0x35, 0xaa,
  0x57, 0xa0, 0x23, 0xa6, 0x72, 0x21, 0x83, 0xa4, 0xe1, 0x2b, 0x43, 0x24, 0x4a, 0xac, 0xb0, 0xa9,
  0xac, 0x1a, 0x44, 0x22, 0x25, 0x95, 0x82, 0x1f, 0xf9, 0x24, 0x93, 0x22, 0x5a, 0x28, 0xd9, 0x1e,
  0x0b, 0xa8, 0xfc, 0x2b, 0x84, 0x9c, 0xf7, 0x18, 0x06, 0x27, 0xad, 0xac, 0x28, 0xa4, 0xff, 0xab,
  0xd9, 0x26, 0xe7, 0x26, 0x01, 0xa9, 0x98, 0x1e, 0x04, 0x27, 0x1b, 0x2b, 0xfb, 0xad, 0xed, 0xa7,
  0xc0, 0x9c, 0xfe, 0xa6, 0xf6, 0xa7, 0x12, 0x27, 0xf0, 0xa1, 0xa3, 0x20, 0xd3, 0x25, 0xf1, 0xa5,
  0xee, 0x1c, 0xbf, 0xa4, 0x40, 0x29, 0x4c, 0x2a, 0x5e, 0x20, 0xdd, 0xa9, 0xaa, 0xa5, 0xaa, 0xa8,
  0x8b, 0x9e, 0xb0, 0x2a, 0xdf, 0x20, 0xb1, 0xa7, 0x91, 0x23, 0x09, 0x2f, 0xfa, 0xa4, 0x3a, 0x24,
  0x53, 0x29, 0x2f, 0x2c, 0xbe, 0x2c, 0x3b, 0x2d, 0x20, 0xaa, 0xe9, 0xad, 0x45, 0x33, 0x8d, 0xa5,
  0x5c, 0x2a, 0xc7, 0xa8, 0x97, 0x28, 0x09, 0x26, 0xc3, 0x29, 0x2f, 0xa9, 0x46, 0x20, 0x14, 0x27,
  0xa8, 0xa5, 0x3c, 0x2b, 0x60, 0xa4, 0xe8, 0x2a, 0x81, 0xa5, 0x4d, 0x24, 0xa0, 0xaa, 0x56, 0x29,
  0x9b, 0x2a, 0xbe, 0x96, 0x78, 0xa1, 0x7c, 0x26, 0x5e, 0x25, 0xd7, 0x9a, 0x16, 0xa1, 0xff, 0xa8,
  0xe2, 0xa5, 0x48, 0x2a, 0x75, 0xa7, 0x21, 0x1d, 0xdd, 0x2a, 0x15, 0xaf, 0x18, 0xb4, 0xe9, 0xac,
  0xae, 0x17, 0x78, 0xa4, 0x02, 0x22, 0x7e, 0x28, 0x53, 0x23, 0x91, 0x29, 0x27, 0xb0, 0xcc, 0x2a,
  0xcd, 0x29, 0x30, 0x2b, 0x8c, 0xa7, 0x4c, 0x29, 0xbf, 0x29, 0xda, 0xac, 0x36, 0xa9, 0xfe, 0x29,
  0x82, 0x2b, 0xf9, 0x29, 0xdb, 0xa4, 0x28, 0x28, 0xd2, 0x25, 0xd4, 0xa9, 0x44, 0x29, 0xe4, 0x1f,
  0x7f, 0x24, 0x3e, 0x28, 0x86, 0x24, 0xe5, 0x23, 0x1e, 0x21, 0xf5, 0x24, 0xc3, 0xb0, 0xb6, 0x2a,
  0x66, 0xa8, 0xc5, 0xa8, 0xc7, 0xa9, 0x70, 0xa8, 0x93, 0xa9, 0x64, 0xa7, 0xee, 0x31, 0x41, 0xa1,
  0x45, 0x2a, 0xc3, 0x9d, 0x3e, 0xac, 0xb4, 0x26, 0x75, 0xa6, 0x54, 0x26, 0xef, 0x26, 0x8e, 0xa0,
  0x20, 0xab, 0xa9, 0xae, 0xba, 0x29, 0x39, 0xa0, 0x34, 0x26, 0x39, 0xa0, 0x64, 0xa9, 0x9d, 0x24,
  0xf5, 0xa8, 0x9d, 0xab, 0x69, 0x2d, 0x4d, 0xac, 0xd8, 0xa7, 0x15, 0x25, 0xc8, 0x30, 0x05, 0xa8,
  0x4d, 0xab, 0x13, 0x25, 0xad, 0xa8, 0x01, 0xa4, 0x16, 0x28, 0x3c, 0x28, 0xbc, 0xab, 0xc1, 0xa6,
  0x96, 0xa2, 0xc9, 0x29, 0xae, 0xaa, 0x4f, 0x9e, 0xd1, 0xa7, 0x00, 0x26, 0x2f, 0x29, 0x2c, 0x2b,
  0xaa, 0x26, 0x69, 0x2a, 0xf7, 0x2a, 0x28, 0xa8, 0x16, 0xa0, 0xc4, 0xa9, 0xa3, 0x29, 0x56, 0xac,
  0x19, 0xac, 0x08, 0x2a, 0x79, 0x25, 0x9c, 0xac, 0x2f, 0x29, 0x7f, 0x2c, 0x56, 0xaf, 0x3c, 0xa4,
  0x5d, 0x26, 0x42, 0x2b, 0x41, 0x22, 0x3e, 0xa9, 0x46, 0x29, 0xdf, 0x28, 0x59, 0xac, 0x86, 0xa9,
  0x35, 0xa8, 0x80, 0x28, 0x9d, 0xa2, 0x20, 0xa7, 0x47, 0xa7, 0x19, 0x26, 0xf1, 0xa5, 0x22, 0x2a,
  0xc9, 0x25, 0x99, 0x25, 0x62, 0x29, 0xac, 0x98, 0xba, 0x28, 0x22, 0x27, 0xc4, 0x19, 0x9b, 0x24,
  0x2e, 0xa3, 0x1c, 0x87, 0xd1, 0x2a, 0xc5, 0x2a, 0xdf, 0x24, 0xa5, 0xa5, 0xb8, 0x31, 0x1b, 0x29,
  0x42, 0xa9, 0x35, 0xa0, 0x4e, 0xa9, 0x31, 0x1e, 0x5c, 0xa6, 0x97, 0x29, 0x1f, 0xa1, 0x30, 0xa8,
  0x1f, 0xa9, 0xed, 0x99, 0x3e, 0xa7, 0x00, 0x9b, 0xd3, 0x29, 0x4a, 0xaa, 0x0f, 0x2c, 0x7b, 0x9a,
  0xf0, 0x1b, 0xba, 0xa0, 0x95, 0xad, 0x90, 0x1d, 0x62, 0x0c, 0x66, 0x2c, 0x76, 0x9f, 0xf3, 0xa5,
  0x7d, 0xab, 0xec, 0xa2, 0x44, 0x26, 0x2a, 0x2a, 0xc6, 0x28, 0x66, 0xa5, 0xc3, 0x23, 0x5a, 0xa6,
  0xbc, 0xa6, 0x89, 0x27, 0xbf, 0x1f, 0x62, 0x20, 0x8d, 0x27, 0x01, 0x29, 0xf1, 0xb2, 0x11, 0x25,
  0x77, 0xa5, 0xa2, 0x9c, 0x6c, 0x27, 0x61, 0xa6, 0x33, 0xa9, 0x84, 0x28, 0xd1, 0x20, 0x22, 0x18,
  0xa3, 0x27, 0xdd, 0x24, 0xec, 0xaa, 0x15, 0x26, 0x1f, 0x20, 0x7b, 0x2d, 0xf7, 0xa5, 0x31, 0x2b,
  0xa5, 0xa8, 0x95, 0xa2, 0x11, 0x12, 0x76, 0x1b, 0xb8, 0xa9, 0x13, 0x0c, 0xea, 0x2c, 0xeb, 0x27,
  0x8f, 0xa9, 0x7c, 0x29, 0x29, 0xaa, 0x43, 0x28, 0x89, 0x20, 0xc6, 0x28, 0x0e, 0xb0, 0x43, 0xa5,
  0x0d, 0xa6, 0x1d, 0xa9, 0x82, 0xa1, 0x4d, 0x26, 0x21, 0xab, 0x00, 0xa5, 0x8c, 0xa6, 0xf6, 0xa8,
  0xec, 0x29, 0x31, 0x22, 0x7e, 0xa7, 0x4d, 0x29, 0xdf, 0xaa, 0x1c, 0x29, 0x3d, 0x1d, 0x70, 0xa9,
  0x00, 0xaf, 0x44, 0x24, 0xa6, 0xa9, 0x79, 0xa9, 0x79, 0x26, 0x1c, 0xa1, 0x12, 0x25, 0xa4, 0xa5,
  0xc8, 0xab, 0xa4, 0xa6, 0x89, 0x28, 0xcb, 0xa0, 0x2a, 0xa5, 0xad, 0xab, 0x1f, 0xad, 0x63, 0x2a,
  0xc1, 0xa6, 0x28, 0x2b, 0x02, 0x23, 0xe8, 0x22, 0xc6, 0x20, 0xc6, 0xa6, 0x76, 0x26, 0x64, 0x26,
  0x77, 0xaa, 0x05, 0x25, 0x4f, 0x9a, 0xeb, 0xa6, 0x55, 0x9d, 0xf5, 0xa7, 0xbb, 0x2b, 0x84, 0x25,
  0x80, 0xa9, 0x88, 0x9a, 0xd5, 0x2d, 0x29, 0x29, 0x80, 0x2a, 0x28, 0x28, 0x5f, 0x30, 0xf4, 0x2d,
  0xa7, 0x2f, 0x5b, 0x22, 0x45, 0xaa, 0x27, 0x23, 0xcf, 0x24, 0x0c, 0xa0, 0x23, 0xb0, 0x35, 0x29,
  0x2c, 0xa2, 0xd4, 0x29, 0xfd, 0x2b, 0xb4, 0xa9, 0x38, 0x24, 0x11, 0x21, 0x5c, 0x13, 0xab, 0xa5,
  0x1b, 0x9b, 0x32, 0x2b, 0x79, 0x2c, 0x46, 0x2c, 0xfd, 0xa9, 0x7c, 0xad, 0xd7, 0xa4, 0xe1, 0xa7,
  0x3e, 0x28, 0x28, 0x2b, 0xbc, 0x2d, 0xc2, 0x19, 0x96, 0x25, 0x7a, 0x26, 0x3a, 0x2d, 0x14, 0x28,
  0xf4, 0xa1, 0xb2, 0x20, 0x4e, 0x25, 0x22, 0x29, 0xcc, 0xa7, 0x9a, 0x2a, 0x11, 0xab, 0x65, 0xa4,
  0xca, 0x29, 0x4d, 0xaa, 0xa4, 0x25, 0x05, 0x25, 0xce, 0xa5, 0x51, 0xab, 0xa3, 0x9c, 0x13, 0x22,
  0x6e, 0x25, 0xf8, 0x2e, 0x6f, 0x27, 0xe6, 0x20, 0x7e, 0xa8, 0xb4, 0x20, 0x1b, 0x2a, 0xe4, 0xa9,
  0x3f, 0x21, 0x58, 0xa9, 0x8f, 0x2d, 0xae, 0xa5, 0x35, 0x2a, 0x20, 0x2a, 0x24, 0xaf, 0x15, 0xa6,
  0xdf, 0x22, 0x61, 0x29, 0xb6, 0xa4, 0x05, 0xa0, 0x58, 0x2c, 0xfd, 0xa4, 0xc4, 0xb2, 0x66, 0xa9,
  0x68, 0x28, 0x13, 0xa4, 0x33, 0x28, 0x1d, 0x29, 0x0a, 0xa6, 0x9c, 0x2c, 0x48, 0xa5, 0x9e, 0x21,
  0xf8, 0x29, 0x09, 0xab, 0xa1, 0x26, 0xdb, 0x23, 0xbf, 0x2a, 0x11, 0x31, 0x1e, 0xa9, 0xe3, 0xa5,
  0x85, 0x24, 0xab, 0xa9, 0xba, 0x27, 0xb5, 0x24, 0xbd, 0xa9, 0xba, 0x2c, 0xa1, 0x2e, 0x02, 0xa5,
  0x85, 0x26, 0xa2, 0xa5, 0xfe, 0x26, 0x84, 0x2a, 0xf6, 0xab, 0x83, 0xaa, 0x0f, 0x2e, 0xdf, 0x28,
  0x31, 0xa6, 0xf1, 0xa8, 0x5d, 0xa9, 0xc8, 0xa2, 0x18, 0x9a, 0x07, 0x27, 0x5f, 0xa2, 0x94, 0xab,
  0x4e, 0xa2, 0xca, 0x28, 0x09, 0xa9, 0xd1, 0xa9, 0xbd, 0x23, 0x39, 0xa5, 0xbb, 0x2a, 0x5a, 0xae,
  0x10, 0xac, 0xbf, 0x93, 0x6c, 0xa9, 0x5c, 0x28, 0x82, 0x23, 0xf0, 0x25, 0x7d, 0x28, 0x8a, 0xaa,
  0x2c, 0xaa, 0x83, 0xab, 0xea, 0x26, 0x02, 0xab, 0xaf, 0x1a, 0xee, 0xa9, 0x00, 0x93, 0x45, 0xa0,
  0x6c, 0x99, 0x4e, 0xab, 0x98, 0x24, 0x19, 0x29, 0xe0, 0xa7, 0x37, 0xa2, 0x15, 0x2c, 0x3e, 0x25,
  0x67, 0x2c, 0xa8, 0x26, 0x03, 0x29, 0x38, 0x24, 0x74, 0x29, 0xb6, 0x29, 0xc6, 0x9b, 0xb0, 0xa4,
  0x29, 0xa6, 0xfe, 0x27, 0x76, 0x2d, 0x48, 0x2d, 0x60, 0x27, 0xb1, 0x27, 0x77, 0xa7, 0xb1, 0xaa,
  0xb3, 0xad, 0x22, 0xab, 0x4d, 0xa9, 0xe5, 0xa3, 0x36, 0xa9, 0xf5, 0xa4, 0x87, 0xb4, 0x4b, 0x2d,
  0x17, 0xa8, 0x9d, 0x99, 0x9f, 0x21, 0x45, 0xa8, 0x79, 0xa5, 0x81, 0x2c, 0x10, 0xa7, 0x17, 0xa5,
  0xab, 0xaf, 0x9a, 0x29, 0x85, 0xa4, 0x83, 0xa4, 0xdd, 0xa6, 0x3f, 0x2e, 0x7e, 0x28, 0x79, 0x28,
  0xda, 0x28, 0x84, 0x25, 0x6e, 0x26, 0x13, 0x2a, 0xbf, 0xa6, 0xf9, 0xaa, 0x8b, 0x30, 0x49, 0x23,
  0x47, 0x25, 0x4b, 0xac, 0xf1, 0x2b, 0x33, 0xa5, 0x2a, 0x2c, 0xdb, 0x2a, 0xc0, 0xad, 0xe6, 0xa3,
  0xda, 0x28, 0x2d, 0xa3, 0x3f, 0x29, 0x44, 0x2a, 0x9d, 0x17, 0xf9, 0x30, 0xd8, 0x27, 0x7e, 0x9e,
  0x7b, 0xa8, 0x92, 0x99, 0x14, 0x26, 0x60, 0xaf, 0x9d, 0xa8, 0xa1, 0x30, 0x47, 0xaa, 0xb3, 0x2d,
  0x5e, 0xa9, 0x36, 0xa6, 0xb4, 0x21, 0x2e, 0xae, 0xe4, 0xab, 0xc9, 0xa5, 0xac, 0xb0, 0xe1, 0x2e,
  0x56, 0x9f, 0xe1, 0x28, 0x15, 0xa8, 0x1c, 0x2a, 0x30, 0x28, 0xd3, 0x25, 0xd8, 0xb1, 0x81, 0x24,
  0xee, 0x26, 0x8b, 0xa9, 0x6d, 0x29, 0x4e, 0x26, 0x47, 0x21, 0x69, 0xa9, 0x1c, 0xa6, 0x39, 0x22,
  0x4d, 0x28, 0x81, 0x2c, 0xd8, 0x2c, 0x1f, 0x26, 0x63, 0x28, 0x0b, 0xae, 0x12, 0xac, 0xf2, 0xa7,
  0x6e, 0x28, 0xc0, 0x28, 0x55, 0xaa, 0xe6, 0x2d, 0x40, 0xa5, 0x67, 0x26, 0x50, 0x1e, 0x17, 0x28,
  0x3a, 0xad, 0x66, 0x15, 0x49, 0xa6, 0xf6, 0x29, 0xd6, 0xa6, 0x91, 0x28, 0x06, 0x30, 0x68, 0xa8,
  0x0b, 0xa4, 0x24, 0xa5, 0x30, 0x24, 0x92, 0x29, 0x57, 0xa7, 0xf8, 0x2b, 0x10, 0x28, 0x78, 0x2c,
  0x2c, 0x2a, 0xba, 0xa4, 0x3f, 0x25, 0xe9, 0xac, 0x3c, 0x2a, 0x71, 0x30, 0x31, 0x28, 0x6a, 0x11,
  0x48, 0x26, 0x60, 0xa6, 0x8b, 0x2b, 0x0d, 0x31, 0x88, 0x1c, 0x6a, 0x2d, 0x0f, 0x34, 0x65, 0x28,
  0xa5, 0x27, 0xb8, 0xa9, 0x38, 0x17, 0x3c, 0xac, 0xd2, 0x2a, 0x55, 0x27, 0x19, 0x2e, 0x98, 0x28,
  0x6d, 0x1c, 0x82, 0xac, 0x09, 0xae, 0x38, 0x2b, 0x22, 0x24, 0x36, 0x2d, 0x94, 0xa9, 0x6e, 0x2a,
  0x4e, 0x21, 0x95, 0x31, 0xea, 0x9e, 0x3a, 0x1d, 0xf9, 0x2e, 0x93, 0x32, 0x94, 0x22, 0x5d, 0x2d,
  0x83, 0x2d, 0xf7, 0x26, 0xb2, 0x28, 0xdc, 0x28, 0x84, 0x26, 0xc7, 0xae, 0xa0, 0x2c, 0x2d, 0x30,
  0x66, 0xaf, 0x5e, 0x1a, 0x8d, 0xac, 0x5f, 0x91, 0x4a, 0xa9, 0xc4, 0x28, 0xde, 0xb0, 0x37, 0x2a,
  0x0b, 0x29, 0x5e, 0x29, 0x43, 0xa4, 0x45, 0x2a, 0xd9, 0xa6, 0x12, 0xac, 0xd9, 0x27, 0x4f, 0x29,
  0x3d, 0x24, 0x43, 0x2a, 0x8f, 0x24, 0x17, 0xa6, 0xea, 0xa2, 0x97, 0x10, 0x25, 0xa6, 0xc3, 0xaa,
  0xe6, 0xa9, 0xf1, 0x26, 0xd0, 0xad, 0x54, 0xac, 0x17, 0xab, 0x00, 0x24, 0xc2, 0xa9, 0x1a, 0x28,
  0x05, 0x24, 0x22, 0xa8, 0x52, 0x24, 0x0e, 0x2b, 0x26, 0xaf, 0x39, 0x28, 0x73, 0xac, 0x17, 0x2b,
  0xa6, 0x24, 0x67, 0x2a, 0x50, 0xab, 0x2f, 0x25, 0x54, 0x28, 0x73, 0xa4, 0x1d, 0xa6, 0xf7, 0x27,
  0x1f, 0xa3, 0xfc, 0x95, 0x60, 0xa9, 0xfb, 0xa9, 0xbb, 0x28, 0x09, 0xa8, 0x86, 0xa9, 0x4a, 0x24,
  0x2f, 0xa6, 0x75, 0xa5, 0x9f, 0x1f, 0x14, 0x2f, 0xaf, 0x26, 0xae, 0xa9, 0xfd, 0x2f, 0x4d, 0x22,
  0x88, 0x23, 0x14, 0xac, 0x52, 0x93, 0xe8, 0xa2, 0x14, 0x24, 0x1b, 0x28, 0x09, 0x9d, 0xb7, 0x29,
  0x4f, 0xa8, 0x74, 0x26, 0xe1, 0xab, 0xf4, 0x2b, 0x18, 0xab, 0x3e, 0x9c, 0xcb, 0x26, 0xe4, 0x28,
  0x72, 0x2e, 0x66, 0x30, 0xad, 0xa7, 0xd2, 0x1d, 0xe8, 0x25, 0x0d, 0x28, 0xef, 0x1c, 0x64, 0xab,
  0x63, 0xad, 0x66, 0xac, 0x2d, 0x26, 0xdd, 0xac, 0x59, 0xac, 0x43, 0xa7, 0x4e, 0xab, 0xc6, 0xa7,
  0xcb, 0x27, 0x64, 0x17, 0xc6, 0x2b, 0x15, 0x21, 0x0f, 0x28, 0x5f, 0x24, 0x4c, 0x2e, 0xbd, 0x28,
  0x3c, 0x2b, 0x02, 0x2c, 0x41, 0x26, 0x76, 0xa7, 0x44, 0x21, 0x7e, 0xa5, 0xbc, 0xa8, 0xc4, 0xaa,
  0x6d, 0xae, 0x2b, 0x24, 0x43, 0xa4, 0x32, 0xa8, 0xb5, 0x1f, 0x18, 0x20, 0x3b, 0x2c, 0xaa, 0x1a,
  0xb1, 0x2a, 0x88, 0x29, 0xbd, 0x22, 0x7f, 0x2c, 0x32, 0x99, 0x38, 0x30, 0x41, 0xb3, 0xb1, 0xa7,
  0x66, 0xaa, 0x40, 0xab, 0xe5, 0x94, 0x9b, 0x15, 0x2d, 0xa9, 0x50, 0xa4, 0x91, 0xb8, 0x49, 0xa3,
  0xad, 0xa0, 0x5c, 0xa2, 0xc2, 0x91, 0x5a, 0x28, 0x97, 0x28, 0xcc, 0x2d, 0xe5, 0xa8, 0xca, 0x29,
  0x6b, 0xa5, 0x97, 0xa4, 0x00, 0xa0, 0x60, 0xa6, 0xd4, 0x21, 0x7c, 0x2e, 0x9c, 0x2b, 0x3b, 0x2d,
  0x1a, 0x2f, 0x85, 0x25, 0x5e, 0x26, 0x38, 0x29, 0x42, 0xaa, 0x51, 0xaf, 0xc2, 0x32, 0x7b, 0xac,
  0x0f, 0xaf, 0x47, 0x1c, 0x14, 0xa9, 0xc6, 0xa8, 0x0e, 0x1f, 0x3c, 0xa0, 0x90, 0xad, 0xa4, 0x2b,
  0xb8, 0x24, 0x45, 0xa1, 0xb7, 0x29, 0x98, 0xa2, 0x7a, 0x2a, 0x80, 0x2c, 0xd6, 0x2c, 0x1a, 0x98,
  0xec, 0x8d, 0xa3, 0x19, 0x4e, 0x24, 0x43, 0xa7, 0x54, 0xa7, 0x7a, 0xa8, 0x72, 0x27, 0x02, 0x26,
  0x5e, 0x28, 0x1e, 0x9e, 0x8d, 0x28, 0x42, 0x2a, 0x3f, 0xa8, 0x38, 0xae, 0x71, 0xa5, 0x75, 0xa9,
  0xd7, 0x26, 0x05, 0x28, 0xb6, 0xa8, 0x2d, 0xa7, 0x90, 0xaa, 0xd4, 0x29, 0x4c, 0x24, 0x65, 0xa8,
  0xd9, 0x22, 0x2f, 0xa8, 0xa7, 0x21, 0x5e, 0x29, 0x67, 0xac, 0x7b, 0x2d, 0x23, 0x21, 0x39, 0xa7,
  0xbf, 0x29, 0xbc, 0xae, 0x20, 0xaa, 0x17, 0xad, 0x44, 0x28, 0x47, 0x31, 0x43, 0x25, 0x74, 0xa9,
  0x85, 0xa9, 0x87, 0xa5, 0x58, 0x30, 0xd3, 0x9d, 0x09, 0x24, 0x11, 0x24, 0xb9, 0x30, 0x53, 0x26,
  0x65, 0x24, 0xb8, 0xac, 0xd8, 0xa4, 0x51, 0xa9, 0x74, 0xaa, 0xe3, 0x20, 0x5c, 0x36, 0xad, 0x28,
  0x97, 0x27, 0xd8, 0x1f, 0xe2, 0xa6, 0xf3, 0x2b, 0x6d, 0x29, 0x67, 0xa1, 0x58, 0x9d, 0xde, 0x24,
  0xc6, 0xa1, 0x3c, 0x2c, 0x87, 0x26, 0x90, 0xa7, 0xd5, 0xa4, 0x3c, 0xac, 0x93, 0x17, 0xba, 0x2d,
  0xc5, 0xa8, 0x30, 0x1d, 0xd8, 0xae, 0x07, 0xa1, 0xa1, 0xa9, 0xc3, 0xad, 0xcd, 0xb1, 0x59, 0x28,
  0xcd, 0xb0, 0x1d, 0x29, 0x2d, 0x26, 0xc0, 0xa6, 0x57, 0xa9, 0xee, 0xab, 0x72, 0xb9, 0x7a, 0xa5,
  0xda, 0x28, 0x3c, 0xa8, 0x23, 0xa6, 0x16, 0xa2, 0x77, 0xac, 0xce, 0x26, 0xa7, 0x1d, 0xcb, 0xa8,
  0xc9, 0x2e, 0x38, 0x2a, 0xff, 0xa4, 0x3e, 0x2a, 0xd9, 0x25, 0xbc, 0x25, 0xd8, 0x26, 0x0c, 0xa4,
  0x27, 0x2e, 0x51, 0xa0, 0x6b, 0xa5, 0x0b, 0xa8, 0x68, 0x24, 0xc4, 0x1f, 0xd3, 0x33, 0xdc, 0xac,
  0xcb, 0x1f, 0x30, 0x2a, 0x83, 0xa9, 0x8e, 0xa0, 0x3d, 0x26, 0x61, 0x1e, 0x45, 0xb0, 0x4a, 0xa9,
  0x93, 0x28, 0xb2, 0x82, 0x2e, 0xab, 0x38, 0x18, 0x40, 0x23, 0x29, 0x29, 0xed, 0xa1, 0x84, 0x25,
  0x4c, 0x24, 0x8d, 0xa6, 0x4f, 0xa6, 0x98, 0x94, 0x31, 0x27, 0x3c, 0x2c, 0xfc, 0xa6, 0xa7, 0x9c,
  0x19, 0x2c, 0x41, 0x1a, 0x8e, 0x28, 0xb2, 0xa7, 0xed, 0xab, 0x09, 0x27, 0x30, 0x35, 0x60, 0xac,
  0x1b, 0x29, 0x8b, 0xa0, 0xcb, 0xaa, 0x60, 0xa4, 0xac, 0x2b, 0x5a, 0x2b, 0x8a, 0xac, 0x41, 0xa8,
  0x78, 0x28, 0x48, 0x28, 0x39, 0x26, 0xe4, 0xa5, 0x61, 0xa9, 0x73, 0x21, 0x46, 0x20, 0xaa, 0xaa,
  0x92, 0x9f, 0x13, 0x2f, 0x7c, 0x28, 0x08, 0x28, 0x54, 0x99, 0x38, 0x21, 0x9d, 0x21, 0x28, 0xa8,
  0x09, 0xb0, 0x11, 0x28, 0x7f, 0xa8, 0xe7, 0x29, 0x9c, 0xa8, 0x3d, 0xac, 0x59, 0xb1, 0xa4, 0x1d,
  0x2c, 0xac, 0xbb, 0xaa, 0x89, 0xab, 0x47, 0x28, 0x47, 0x2b, 0x63, 0xab, 0x14, 0xb8, 0xdb, 0x24,
  0x7a, 0x25, 0x5c, 0xa8, 0x0f, 0x25, 0x52, 0xa1, 0x76, 0xa8, 0x27, 0x27, 0xa7, 0x25, 0x32, 0x29,
  0x13, 0xa7, 0x32, 0x2d, 0x6d, 0x29, 0x27, 0x25, 0x2e, 0x24, 0xd7, 0x2d, 0x68, 0xaa, 0x8b, 0x2d,
  0x9f, 0x2c, 0xea, 0x2c, 0x2b, 0x2c, 0xd8, 0xa0, 0x5c, 0x9f, 0x19, 0x28, 0x34, 0x30, 0xc4, 0xab,
  0x9c, 0x26, 0x61, 0xad, 0xc4, 0x24, 0x85, 0x20, 0x5c, 0x26, 0x09, 0xaa, 0x13, 0x31, 0xe7, 0xab,
  0x7d, 0x29, 0xa5, 0x26, 0x7d, 0xac, 0x1e, 0xa5, 0x0f, 0xa8, 0xcc, 0xa7, 0xe2, 0xa0, 0xf3, 0x17,
  0x57, 0x2b, 0x4f, 0xa1, 0x34, 0x1c, 0xf7, 0xa0, 0x03, 0x26, 0x52, 0x9d, 0xf6, 0x28, 0xc1, 0x9d,
  0xe9, 0xa9, 0xd5, 0xa9, 0x9e, 0xae, 0xc7, 0x2b, 0x81, 0xa1, 0xa0, 0x28, 0x3b, 0x32, 0xe7, 0x2c,
  0x75, 0xa8, 0xf7, 0xb1, 0x24, 0xa4, 0x95, 0x2f, 0x01, 0x2a, 0xa6, 0x27, 0x5f, 0xae, 0x7d, 0x12,
  0xcc, 0xa7, 0x48, 0xab, 0x27, 0x2c, 0xce, 0xa4, 0xec, 0xa4, 0x00, 0x21, 0x2d, 0x1e, 0xc0, 0x2c,
  0x28, 0x2f, 0x9f, 0x2d, 0x6f, 0x31, 0x04, 0xa5, 0x22, 0xae, 0xe8, 0x2c, 0xe0, 0xa9, 0xe8, 0xa8,
  0xa7, 0x24, 0x99, 0xac, 0xce, 0xa7, 0x2d, 0xa6, 0x53, 0xae, 0x17, 0xac, 0x03, 0x9b, 0xcf, 0xab,
  0xa0, 0x29, 0xae, 0xac, 0x7e, 0xa1, 0xda, 0xac, 0x59, 0x32, 0xe0, 0x24, 0x4a, 0x1b, 0x06, 0x2c,
  0x67, 0x8d, 0x65, 0xaa, 0x2c, 0xab, 0x86, 0xab, 0x53, 0x2c, 0xa8, 0x2d, 0x41, 0xaa, 0xbf, 0x1a,
  0xdc, 0x32, 0xde, 0x2f, 0xc6, 0xb0, 0x56, 0x2d, 0x31, 0x30, 0x2e, 0x2e, 0xb3, 0x2a, 0x3b, 0xad,
  0x1b, 0x31, 0x4a, 0x26, 0x78, 0xa8, 0x07, 0x2c, 0x05, 0x98, 0x60, 0xae, 0xa6, 0x25, 0xb9, 0x29,
  0x66, 0xa4, 0x5b, 0x2e, 0xec, 0xa0, 0xad, 0xab, 0x67, 0x93, 0xa2, 0x27, 0xd8, 0xae, 0x8e, 0xb2,
  0x86, 0x9c, 0xf7, 0xad, 0xd1, 0xaa, 0x88, 0xa6, 0x52, 0xa5, 0xf1, 0x18, 0xf9, 0x9f, 0x7b, 0xa9,
  0x10, 0x1d, 0x3b, 0xae, 0xac, 0x29, 0x5d, 0x2e, 0x5e, 0xa4, 0x49, 0x27, 0xc7, 0x24, 0xde, 0x19,
  0x86, 0x26, 0x96, 0x21, 0x70, 0x31, 0x7d, 0xa4, 0x3a, 0xa2, 0x16, 0xa4, 0x0e, 0x2c, 0x59, 0xa8,
  0xa2, 0x2c, 0xaf, 0xac, 0x0c, 0xab, 0x2c, 0x2e, 0x2a, 0x20, 0x5b, 0x2a, 0x19, 0xb0, 0x0c, 0xa0,
  0xaa, 0x24, 0xcb, 0xa6, 0x18, 0x2d, 0x74, 0x20, 0x86, 0xa8, 0xc8, 0xa5, 0xbe, 0x23, 0xd0, 0xa0,
  0x3f, 0x9d, 0x6b, 0x25, 0x81, 0x2a, 0xe7, 0xaa, 0x5e, 0xad, 0x65, 0xae, 0x1b, 0x99, 0xda, 0x9a,
  0x37, 0xac, 0x54, 0xa3, 0x6f, 0xa9, 0x00, 0x32, 0xfe, 0xa0, 0xf4, 0xac, 0xc7, 0x2c, 0x3e, 0xaa,
  0x31, 0xa7, 0x7f, 0xb1, 0x47, 0xa9, 0x8b, 0x2c, 0xd3, 0xa8, 0xf3, 0x95, 0x18, 0xaf, 0xa8, 0x24,
  0x4b, 0x99, 0xea, 0x28, 0x38, 0x9a, 0x2a, 0x27, 0x74, 0x2d, 0xd4, 0xa3, 0xd7, 0x27, 0xfa, 0x29,
  0xc3, 0xa6, 0x04, 0x2e, 0x0a, 0xa5, 0x9e, 0x29, 0x25, 0x2a, 0x97, 0x25, 0x7b, 0x0f, 0x74, 0x1f,
  0xdb, 0x2d, 0x81, 0xaa, 0x73, 0x27, 0xec, 0x28, 0xe3, 0xa8, 0xdd, 0x24, 0x46, 0x30, 0x52, 0x24,
  0xc9, 0x24, 0x10, 0x30, 0xe5, 0x2b, 0x3e, 0x0d, 0xa1, 0x22, 0x01, 0xab, 0xa2, 0x2c, 0xa8, 0xb0,
  0x62, 0xab, 0xeb, 0xab, 0x96, 0xac, 0x8e, 0x9d, 0xe4, 0xa6, 0x53, 0x2c, 0xdb, 0x9f, 0x51, 0x29,
  0xb6, 0x2b, 0x6d, 0xa9, 0xbf, 0xa5, 0xcb, 0xa9, 0xc5, 0x21, 0x05, 0x29, 0x92, 0xa1, 0x97, 0x22,
  0x0c, 0x31, 0x8a, 0xa9, 0xb9, 0x2e, 0x58, 0xad, 0x85, 0x28, 0xfa, 0xae, 0x6f, 0xae, 0x75, 0x28,
  0x81, 0x2e, 0x5c, 0x2c, 0xcb, 0x24, 0xbc, 0x1e, 0xcb, 0x26, 0x7c, 0xac, 0x4a, 0x21, 0x25, 0x2a,
  0x31, 0x21, 0x17, 0xac, 0x7b, 0x29, 0xd4, 0x9f, 0xa6, 0x2c, 0x81, 0x29, 0x71, 0x29, 0xae, 0xa8,
  0xb5, 0xa9, 0x20, 0x2c, 0x05, 0xa7, 0x05, 0x2c, 0xbc, 0x91, 0x4d, 0x2b, 0x09, 0x1a, 0x42, 0x22,
  0x26, 0x2c, 0xb8, 0xaa, 0x02, 0xb0, 0x3b, 0x1c, 0x0c, 0x9f, 0xca, 0xa7, 0x90, 0x2c, 0xc8, 0x27,
  0xf9, 0x1c, 0xf1, 0xad, 0x23, 0x21, 0xbd, 0xa1, 0x47, 0xae, 0xf0, 0xaa, 0xcb, 0x24, 0x26, 0x2e,
  0x74, 0xa5, 0x2e, 0x2a, 0x74, 0x2d, 0xb2, 0xab, 0xa5, 0xaf, 0x7f, 0x21, 0x99, 0x2a, 0x17, 0xa7,
  0x4e, 0xa9, 0x64, 0x25, 0xc5, 0xac, 0x01, 0xb0, 0x2e, 0xac, 0x79, 0xa7, 0x0f, 0x18, 0x4d, 0x28,
  0xbb, 0xa2, 0x95, 0x2a, 0x43, 0x26, 0x52, 0x31, 0xb8, 0xab, 0x9a, 0xac, 0x9c, 0x33, 0x9c, 0xaa,
  0x44, 0x20, 0x0b, 0x2c, 0x40, 0x96, 0xb8, 0x2c, 0x9d, 0x26, 0x97, 0x19, 0x5e, 0x31, 0x0a, 0x2c,
  0xc1, 0x24, 0x95, 0xa8, 0x45, 0x2a, 0x74, 0x14, 0x01, 0x29, 0xb9, 0xad, 0xb9, 0xa4, 0x29, 0x28,
  0x61, 0xb1, 0x2b, 0xaa, 0x75, 0xac, 0x87, 0xad, 0x53, 0x0e, 0x27, 0x2a, 0xb1, 0xa9, 0x93, 0x28,
  0x7a, 0xab, 0x01, 0xb0, 0x02, 0x29, 0x1c, 0x20, 0x6e, 0x1c, 0xea, 0x2f, 0x3d, 0x28, 0xd1, 0x9a,
  0x86, 0xab, 0x26, 0xae, 0xbe, 0x25, 0x1b, 0xad, 0xf3, 0xaf, 0x84, 0x2b, 0xb3, 0xba, 0x27, 0xab,
  0x2d, 0x95, 0xe0, 0xaa, 0xf5, 0x21, 0x29, 0x9d, 0x60, 0x2d, 0x11, 0x28, 0xe9, 0x24, 0x44, 0x2c,
  0xe4, 0x26, 0xb0, 0x28, 0x22, 0x10, 0x4d, 0xaf, 0xc2, 0x16, 0x21, 0x31, 0x14, 0x29, 0xb2, 0x2c,
  0x4c, 0x2f, 0x7a, 0xae, 0x3c, 0x2c, 0x18, 0x2e, 0x9c, 0xae, 0x0f, 0x9f, 0xa9, 0xaf, 0xd5, 0x29,
  0x37, 0xa7, 0x6d, 0xac, 0xbe, 0x30, 0x15, 0xae, 0x90, 0xad, 0xc6, 0x30, 0xa9, 0x30, 0x6c, 0xa7,
  0x99, 0x26, 0xdb, 0xab, 0x56, 0xae, 0x00, 0x2a, 0x24, 0xb0, 0xfa, 0x2e, 0x5f, 0x29, 0xb9, 0x2c,
  0x9b, 0x2c, 0x47, 0x24, 0x78, 0x9c, 0x37, 0xad, 0xaf, 0x23, 0xbe, 0x31, 0x3b, 0x2b, 0xcf, 0x2e,
  0xfc, 0x2d, 0x12, 0x28, 0xe9, 0xa5, 0xec, 0x24, 0x15, 0xa7, 0x26, 0xaf, 0xd2, 0xae, 0x0b, 0x2d,
  0x69, 0xa8, 0xa0, 0x25, 0x93, 0xac, 0x92, 0x2c, 0x08, 0xa7, 0xfd, 0xa7, 0xb8, 0xb0, 0x13, 0xa9,
  0x68, 0xa7, 0x5a, 0x29, 0x9d, 0x27, 0xc4, 0xa6, 0x40, 0x9e, 0x29, 0x2a, 0xf2, 0xab, 0x93, 0xa8,
  0xd8, 0x2f, 0x9e, 0xa9, 0x2c, 0x9f, 0x20, 0x2e, 0xe5, 0xaa, 0x2c, 0xaf, 0xe3, 0x2a, 0x4a, 0xb0,
  0x50, 0xad, 0x87, 0x29, 0xaf, 0x9d, 0x28, 0x2b, 0xf2, 0xad, 0xa0, 0x2c, 0x2a, 0x22, 0xa0, 0x1c,
  0x12, 0xb0, 0x19, 0xaf, 0x16, 0xab, 0x23, 0x2b, 0x29, 0xab, 0x6e, 0xaa, 0x4e, 0x34, 0xda, 0xaa,
  0x34, 0x14, 0x8d, 0x2c, 0xb0, 0x29, 0x62, 0xab, 0xb7, 0xa6, 0xe6, 0x13, 0x13, 0x28, 0x94, 0x27,
  0x8c, 0xa8, 0xd0, 0x2d, 0xc1, 0x9c, 0xb4, 0xae, 0x52, 0xad, 0xb9, 0xa6, 0xcc, 0xac, 0x24, 0x2d,
  0x95, 0xaf, 0x2c, 0xa9, 0x43, 0x27, 0xc4, 0x2e, 0xd0, 0xa1, 0x39, 0xa9, 0x63, 0xb2, 0x01, 0x0c,
  0xc6, 0x28, 0xd8, 0xaf, 0xa8, 0x27, 0x6c, 0xac, 0x43, 0x26, 0xea, 0x1d, 0x53, 0xad, 0x4f, 0xaa,
  0xd6, 0x28, 0xd9, 0xa8, 0x8a, 0xb0, 0x63, 0x29, 0xfc, 0x8a, 0x64, 0x2c, 0x5a, 0x2e, 0xab, 0x1e,
  0x1f, 0x2a, 0xd1, 0x30, 0x04, 0xa2, 0xf0, 0xad, 0x82, 0x2f, 0x74, 0x2d, 0xac, 0x26, 0xa9, 0x2f,
  0x02, 0x31, 0x80, 0xab, 0x81, 0x2b, 0x0e, 0xa8, 0x42, 0xa7, 0xd0, 0x98, 0xc9, 0x33, 0x6f, 0xa9,
  0xe7, 0x2c, 0xe0, 0x1e, 0x91, 0xab, 0x32, 0xad, 0x03, 0xaf, 0x9f, 0xa9, 0x97, 0x33, 0x30, 0x2f,
  0xf0, 0xa0, 0x4b, 0x9a, 0x61, 0xa2, 0x84, 0xab, 0x66, 0xab, 0x2b, 0x9f, 0xc5, 0xa4, 0x2b, 0x24,
  0x38, 0x2c, 0xaa, 0xab, 0x12, 0x2c, 0x4a, 0xb0, 0xbc, 0x9d, 0x89, 0xad, 0xd8, 0x28, 0x81, 0x1e,
  0xad, 0x2e, 0x30, 0x30, 0x15, 0xa6, 0xfc, 0xac, 0xe5, 0xad, 0x38, 0xa7, 0x71, 0x2b, 0x28, 0xa8,
  0xae, 0xa2, 0x9c, 0xae, 0xd3, 0xa9, 0x1b, 0x1d, 0x78, 0x2e, 0xe9, 0x27, 0x9c, 0x31, 0x0b, 0xa0,
  0xb3, 0x2b, 0xf3, 0x25, 0x3d, 0x2b, 0xe6, 0xa3, 0x41, 0x1d, 0x7c, 0xa9, 0x00, 0x20, 0x83, 0xa3,
  0x1e, 0x24, 0x17, 0x2b, 0x77, 0x26, 0x61, 0xab, 0x85, 0x24, 0x8c, 0x20, 0xbc, 0xa1, 0x71, 0x28,
  0xd7, 0xab, 0xed, 0xaf, 0xe7, 0xa9, 0x5c, 0x30, 0x46, 0x22, 0x77, 0xae, 0x64, 0xa4, 0x03, 0xac,
  0xb8, 0x27, 0x67, 0xb0, 0x27, 0x91, 0x88, 0x11, 0x35, 0xa8, 0xf1, 0x98, 0xee, 0xae, 0xd7, 0xaa,
  0x29, 0x2e, 0x69, 0x2c, 0x52, 0x26, 0x80, 0xa4, 0xc7, 0x25, 0x2d, 0x2b, 0x62, 0x27, 0xfe, 0x26,
  0x30, 0x2c, 0xb4, 0x29, 0x58, 0x27, 0x3a, 0x2c, 0xa2, 0x22, 0xa8, 0x2d, 0x42, 0x24, 0x59, 0xa7,
  0x51, 0xaf, 0xa3, 0xac, 0x24, 0xad, 0xa7, 0x28, 0xab, 0xaa, 0x49, 0xa8, 0xaa, 0xac, 0x1b, 0xa6,
  0x30, 0x20, 0xcd, 0xac, 0x42, 0x2d, 0x02, 0xac, 0x05, 0xa8, 0xa0, 0x98, 0xff, 0x32, 0xcb, 0x25,
  0xf0, 0x21, 0x37, 0x24, 0xde, 0xaa, 0x37, 0x25, 0xa2, 0xad, 0x0a, 0xac, 0x41, 0xa3, 0x67, 0xa8,
  0x57, 0xab, 0xc8, 0xac, 0x31, 0x24, 0x3d, 0xab, 0xbb, 0xa2, 0xaa, 0x21, 0xf4, 0xa5, 0xbb, 0xae,
  0xff, 0x22, 0x25, 0x0d, 0x5e, 0xf8, 0xff, 0xff, 0x04, 0x00, 0x00, 0x00, 0x40, 0x00, 0x00, 0x00,
  0x78, 0xaa, 0x2a, 0x2c, 0x69, 0x31, 0x67, 0xa6, 0xbb, 0xb5, 0x07, 0xaf, 0x58, 0xa1, 0x44, 0x2a,
  0xac, 0x28, 0xf0, 0x2d, 0xa2, 0x2a, 0x49, 0xac, 0xf9, 0x2c, 0x7c, 0x2d, 0x69, 0xb2, 0x99, 0x2d,
  0xbe, 0x2a, 0x81, 0x2d, 0xf6, 0x2f, 0xeb, 0xa9, 0x23, 0xa8, 0x2c, 0x31, 0x0f, 0xb0, 0x72, 0xad,
  0x0a, 0xa8, 0xe0, 0x2e, 0xfe, 0x2c, 0x81, 0xac, 0x6b, 0x31, 0x65, 0x25, 0xa0, 0x26, 0xd1, 0x2c,
  0xaa, 0xf8, 0xff, 0xff, 0x04, 0x00, 0x00, 0x00, 0x40, 0x06, 0x00, 0x00, 0x6a, 0xa7, 0x55, 0xb0,
  0x81, 0x26, 0x4f, 0x30, 0xd0, 0x30, 0x64, 0x2c, 0xf3, 0x30, 0x62, 0x34, 0x8e, 0x33, 0x64, 0xaf,
  0xff, 0xac, 0xdc, 0xb0, 0x6e, 0x31, 0xe8, 0xa9, 0x02, 0xad, 0x5d, 0xa7, 0x66, 0x2a, 0xf2, 0xa5,
  0xe5, 0x99, 0x6e, 0xa3, 0xf5, 0xa2, 0x86, 0xa9, 0x42, 0x29, 0x17, 0x33, 0xde, 0xb1, 0xdd, 0x2b,
  0xd0, 0x2a, 0x12, 0x24, 0x41, 0xab, 0xac, 0xa5, 0xfb, 0xaa, 0x12, 0x30, 0xf2, 0xac, 0x47, 0xab,
  0xa3, 0x28, 0xc8, 0xaa, 0xc7, 0xb0, 0xdc, 0x35, 0x13, 0xa7, 0x88, 0x28, 0xda, 0x20, 0x05, 0x32,
  0x16, 0x30, 0xc4, 0x2f, 0xde, 0xaa, 0xb2, 0xa9, 0xb2, 0xb0, 0x3f, 0x31, 0x0e, 0xaa, 0x05, 0xa0,
  0xb6, 0x31, 0x42, 0xac, 0x56, 0x31, 0xe4, 0xad, 0xb0, 0xab, 0xe9, 0x2f, 0x39, 0x32, 0xff, 0xa9,
  0xb4, 0x2b, 0x04, 0x2b, 0x9b, 0x2f, 0x14, 0xb1, 0xbe, 0xad, 0xa6, 0xb3, 0xa9, 0x9c, 0xb3, 0xac,
  0xd9, 0xa9, 0x63, 0xb0, 0x05, 0x2a, 0x8c, 0x30, 0x89, 0x12, 0x99, 0xae, 0x45, 0xaa, 0x95, 0x31,
  0x48, 0xac, 0xc9, 0x30, 0x00, 0x35, 0xb1, 0x2d, 0x25, 0x2b, 0x31, 0x2a, 0x80, 0x2e, 0x89, 0x2a,
  0x5a, 0xaa, 0xe9, 0xaa, 0x1f, 0x30, 0xf2, 0x31, 0x4c, 0xb0, 0x9f, 0x29, 0xae, 0x34, 0x76, 0xad,
  0xf3, 0xab, 0xc2, 0xb1, 0x94, 0x33, 0x9b, 0x28, 0xbe, 0xb2, 0x5f, 0x2e, 0x72, 0x2c, 0x16, 0x2a,
  0x1e, 0x2f, 0x1a, 0xad, 0x3a, 0xae, 0xcd, 0x2c, 0x95, 0x32, 0x65, 0xad, 0x2d, 0xaa, 0x52, 0xac,
  0x5b, 0x34, 0x01, 0x32, 0xed, 0xb1, 0xc0, 0xa7, 0x58, 0xaf, 0x5b, 0x32, 0x52, 0x32, 0x01, 0xa0,
  0x99, 0xaa, 0x84, 0xaf, 0x00, 0x34, 0x8e, 0x32, 0x47, 0xa8, 0xbd, 0x99, 0x04, 0x2b, 0xa7, 0xad,
  0xf7, 0xad, 0x75, 0xa8, 0x90, 0xac, 0x75, 0x2b, 0x2f, 0x23, 0x35, 0x34, 0x2b, 0x9a, 0x53, 0x33,
  0x8e, 0xa9, 0x01, 0x21, 0x70, 0xaf, 0xf4, 0x2a, 0x48, 0x30, 0xa1, 0xa3, 0x6e, 0xaf, 0xed, 0x95,
  0x6d, 0x29, 0x8c, 0x2a, 0x1f, 0x29, 0x57, 0x33, 0xc7, 0x30, 0xf0, 0x32, 0xeb, 0x2f, 0xde, 0x31,
  0x6b, 0x2a, 0xd9, 0x1e, 0xd2, 0xb0, 0xb6, 0xab, 0x00, 0x2f, 0x47, 0x2d, 0x4c, 0xb1, 0x90, 0x32,
  0xdf, 0x99, 0x95, 0xab, 0xa8, 0x31, 0x3f, 0x33, 0xb1, 0x9d, 0xbc, 0x2c, 0xa1, 0x32, 0xa1, 0xad,
  0x8c, 0x30, 0x84, 0xa8, 0x7b, 0x2f, 0xbb, 0x2b, 0x25, 0xaf, 0x34, 0x2c, 0x83, 0xad, 0x90, 0x30,
  0xfa, 0x2f, 0xa7, 0x28, 0x7a, 0x2d, 0x77, 0xa7, 0x74, 0x2b, 0xd4, 0xac, 0x31, 0x2d, 0xfb, 0xa8,
  0xf3, 0x30, 0x2f, 0xb0, 0x82, 0xa9, 0x27, 0x31, 0x2b, 0xb2, 0x39, 0x28, 0xa8, 0x2d, 0x0e, 0x32,
  0x78, 0x2c, 0x42, 0xb4, 0x79, 0xac, 0x69, 0x30, 0xd5, 0x2e, 0xb2, 0x2e, 0xdb, 0xae, 0xe3, 0xac,
  0x99, 0x27, 0xdb, 0x2a, 0x05, 0xb2, 0xb1, 0xb0, 0xda, 0xac, 0x82, 0xb0, 0x34, 0x2f, 0xc4, 0xb0,
  0x0f, 0xa9, 0xe1, 0x2c, 0x18, 0x2d, 0x48, 0x28, 0x47, 0xac, 0x81, 0x2f, 0x51, 0xaf, 0xe2, 0x30,
  0x73, 0xb1, 0x3f, 0x30, 0x92, 0xa9, 0x5d, 0x2f, 0xe2, 0xac, 0x30, 0x2f, 0xb9, 0xb2, 0xd4, 0x32,
  0xfa, 0xb2, 0xf4, 0xa8, 0xb7, 0x2c, 0xb5, 0x31, 0x09, 0x30, 0x97, 0x2d, 0x81, 0x23, 0xdc, 0x2f,
  0x83, 0x2d, 0xd8, 0x2e, 0x22, 0xb0, 0x90, 0x2d, 0xb3, 0xac, 0x10, 0x2e, 0xa9, 0x28, 0x59, 0x9d,
  0xa4, 0x2f, 0x88, 0xb1, 0x2e, 0xb3, 0xbd, 0x27, 0x9c, 0x34, 0x1a, 0xb1, 0xdc, 0x2a, 0xdd, 0x30,
  0x67, 0xad, 0x22, 0x31, 0x2d, 0xb2, 0x00, 0x2c, 0x3e, 0x2d, 0xfd, 0xb0, 0xc8, 0xa0, 0x19, 0xb1,
  0xde, 0xad, 0x6c, 0xa6, 0x28, 0xb0, 0xf1, 0x2e, 0xc3, 0xb2, 0x3c, 0x2c, 0x85, 0x33, 0xf4, 0x31,
  0xca, 0x2d, 0x76, 0xae, 0xf3, 0x2c, 0x61, 0x2c, 0x07, 0x32, 0x18, 0xb4, 0x5e, 0x30, 0x3b, 0xb0,
  0xc7, 0xb0, 0x09, 0xb0, 0xa5, 0xaa, 0x2e, 0xab, 0x8c, 0xb1, 0x76, 0xb4, 0x11, 0xac, 0x9e, 0xb2,
  0x21, 0xac, 0x5f, 0xb1, 0x6e, 0x21, 0xda, 0x30, 0x5a, 0x32, 0xe0, 0xa6, 0xf8, 0x31, 0x79, 0xa4,
  0x18, 0x2e, 0x82, 0xaf, 0xd7, 0x2c, 0x41, 0x30, 0x42, 0xac, 0x64, 0xb0, 0x71, 0x30, 0xc6, 0x2b,
  0xe9, 0x24, 0x40, 0xb0, 0x2b, 0x34, 0x9f, 0xb0, 0xa5, 0xac, 0x01, 0x2d, 0xec, 0x30, 0x33, 0x32,
  0x69, 0x2f, 0x25, 0x31, 0x78, 0x31, 0x50, 0x30, 0x89, 0xa1, 0x15, 0x2f, 0x39, 0xa3, 0x67, 0x23,
  0x85, 0x35, 0xfb, 0xb6, 0x51, 0xae, 0xac, 0x2c, 0x63, 0x2d, 0xbd, 0xb5, 0x8f, 0xb4, 0xb3, 0xb7,
  0x3e, 0xad, 0xfe, 0x2a, 0xed, 0xaf, 0xf2, 0xb4, 0x2c, 0xb4, 0x3d, 0x35, 0x15, 0xae, 0x8b, 0xa4,
  0xeb, 0xac, 0x7a, 0x35, 0x20, 0xa7, 0x86, 0x2b, 0xed, 0xad, 0x0f, 0xaf, 0xe8, 0xae, 0x42, 0xb0,
  0x78, 0x31, 0x13, 0xad, 0x99, 0x2e, 0x00, 0x31, 0x2f, 0x24, 0x09, 0x31, 0x11, 0xa6, 0x91, 0x9f,
  0x94, 0x2b, 0x78, 0xaa, 0x79, 0xb1, 0xff, 0x2e, 0xa4, 0xb0, 0xdd, 0x2c, 0x53, 0x2b, 0x02, 0xb1,
  0x09, 0xac, 0xf9, 0xaf, 0x34, 0x30, 0xa7, 0xa8, 0x4a, 0x98, 0x32, 0xa7, 0xc1, 0xa6, 0x09, 0x2d,
  0x86, 0x30, 0x2c, 0x2d, 0xd0, 0x31, 0x78, 0x32, 0x85, 0x2b, 0x7d, 0xad, 0x99, 0xaa, 0xe8, 0x30,
  0x14, 0x32, 0x24, 0x9e, 0x21, 0x2f, 0xa6, 0x25, 0x1a, 0x33, 0xe4, 0x2f, 0x03, 0x31, 0x94, 0x18,
  0xc6, 0x2e, 0x75, 0x2d, 0xb6, 0x32, 0x4c, 0x99, 0x44, 0xb0, 0xc9, 0x29, 0x52, 0x32, 0xb3, 0xac,
  0x6a, 0xaf, 0xe8, 0x2c, 0x5d, 0x32, 0x91, 0x30, 0xa8, 0x31, 0x12, 0xac, 0x0f, 0x29, 0xd0, 0x2f,
  0x45, 0x2d, 0x27, 0x2e, 0xb9, 0x30, 0x61, 0xae, 0x66, 0x30, 0x65, 0xb0, 0x4b, 0xb1, 0xf6, 0x2b,
  0x61, 0x2a, 0x4a, 0x2f, 0x59, 0xad, 0x4a, 0x23, 0xc7, 0xad, 0x96, 0xae, 0xe0, 0x2e, 0x52, 0x29,
  0x4a, 0x31, 0x2f, 0x2c, 0x45, 0xa9, 0xaa, 0x26, 0xbf, 0xad, 0x8e, 0x34, 0xe6, 0xaf, 0x29, 0xaf,
  0xff, 0x28, 0x00, 0xb0, 0xc3, 0xb2, 0x6c, 0x2f, 0x48, 0x2f, 0x1d, 0xa7, 0xff, 0xa7, 0x33, 0xae,
  0xce, 0x33, 0x8c, 0x9f, 0xd0, 0x29, 0xbc, 0x2b, 0x47, 0x30, 0xd7, 0x30, 0x39, 0x29, 0x15, 0xa4,
  0x8b, 0x31, 0x91, 0x2c, 0x34, 0x2d, 0xab, 0xad, 0x2f, 0x97, 0xad, 0xa4, 0xbf, 0xa7, 0xf2, 0x30,
  0xb1, 0xb0, 0x5a, 0xb1, 0xc7, 0x2a, 0x2f, 0x30, 0xe2, 0xb0, 0x2a, 0x32, 0x1c, 0xa9, 0xe4, 0x29,
  0xd8, 0x30, 0x8e, 0xaa, 0xd6, 0x31, 0x52, 0x2f, 0xe1, 0xaf, 0xf6, 0x31, 0x6a, 0x2c, 0xd5, 0xa8,
  0x5f, 0xad, 0x91, 0x9b, 0x16, 0x2f, 0x1e, 0x30, 0x30, 0x2d, 0x81, 0xb2, 0x89, 0xb0, 0xed, 0x30,
  0x33, 0xb0, 0xc4, 0x30, 0xf8, 0xad, 0xe4, 0xae, 0xac, 0xa1, 0x93, 0xb2, 0x6c, 0xac, 0xeb, 0xa2,
  0xd3, 0xaf, 0xe7, 0xae, 0xa1, 0x2b, 0x0a, 0xb0, 0x26, 0xa5, 0x16, 0xa0, 0xe5, 0xa7, 0x8b, 0x2e,
  0xae, 0x30, 0xcb, 0xab, 0x32, 0x30, 0x51, 0x31, 0x58, 0xb0, 0x85, 0xa4, 0x85, 0x27, 0xed, 0xad,
  0x17, 0x2c, 0x1a, 0x2a, 0x0e, 0xa4, 0xe8, 0xac, 0xbd, 0x2f, 0x46, 0x2b, 0x07, 0xac, 0x17, 0x30,
  0x8d, 0x2b, 0x34, 0x9c, 0xfb, 0x34, 0xf0, 0x24, 0x5e, 0xae, 0x39, 0xae, 0xed, 0x2d, 0x01, 0x34,
  0xf6, 0x2d, 0x26, 0x2f, 0x05, 0x29, 0xe6, 0xab, 0x6d, 0x31, 0xea, 0xb0, 0xc7, 0x2f, 0xa5, 0xa8,
  0x90, 0x13, 0x68, 0xb0, 0x38, 0x30, 0x76, 0xaa, 0x6b, 0xa8, 0x81, 0x33, 0xa9, 0x32, 0xdd, 0x2f,
  0xbc, 0xa9, 0x37, 0xb0, 0xe6, 0x32, 0x96, 0xa6, 0x9b, 0x30, 0x76, 0x30, 0xc4, 0xae, 0xd2, 0xa7,
  0x85, 0x2d, 0x9c, 0x30, 0x6f, 0xb0, 0x68, 0x2d, 0xd9, 0xa8, 0x0a, 0xb2, 0x34, 0x9e, 0xa3, 0x25,
  0x0c, 0xab, 0x1a, 0xb0, 0xdf, 0x32, 0x26, 0xa6, 0x28, 0xb2, 0x82, 0x2d, 0x0f, 0x2c, 0x1d, 0x2c,
  0x5a, 0x32, 0xc7, 0x2d, 0x02, 0x31, 0x02, 0x30, 0x49, 0x33, 0x82, 0x30, 0xd4, 0xb1, 0x57, 0xac,
  0x6d, 0xad, 0x39, 0x2f, 0xee, 0x2d, 0xc4, 0x30, 0x9c, 0xac, 0xf0, 0x2d, 0x53, 0xa9, 0xe1, 0xb0,
  0xfc, 0x31, 0x4c, 0x32, 0xda, 0x29, 0x05, 0x31, 0x95, 0x30, 0xd6, 0x24, 0xea, 0x9b, 0xd8, 0x2c,
  0xf9, 0x31, 0xf8, 0xad, 0xe1, 0x22, 0x62, 0x31, 0xa6, 0x27, 0x09, 0x30, 0x48, 0x35, 0xbd, 0x24,
  0x3a, 0xaf, 0x2b, 0xaf, 0x11, 0xaf, 0x77, 0xb0, 0xe8, 0x30, 0x90, 0x2e, 0x4a, 0x2f, 0xff, 0x30,
  0x9f, 0xb0, 0x26, 0xad, 0x51, 0xae, 0x5b, 0x2e, 0x50, 0x33, 0xfc, 0x33, 0xf6, 0xa8, 0x6d, 0x2d,
  0xe9, 0xaf, 0x27, 0x30, 0x9e, 0x20, 0xe9, 0x32, 0x8f, 0xab, 0xcf, 0x2d, 0x91, 0x33, 0xb3, 0x2d,
  0x24, 0xa3, 0x3b, 0x2d, 0xcb, 0xa7, 0x97, 0xae, 0xa7, 0x2c, 0xfa, 0xa4, 0x3f, 0x31, 0x97, 0x30,
  0x58, 0xac, 0xfd, 0x2a, 0x1f, 0x28, 0xc1, 0x24, 0x5f, 0x23, 0xe1, 0x30, 0xd5, 0x9a, 0x98, 0xad,
  0x12, 0x32, 0x0f, 0xac, 0xa0, 0x27, 0x02, 0xa9, 0x79, 0xb1, 0xe3, 0x2e, 0x9c, 0x31, 0x72, 0x1f,
  0xed, 0x2d, 0xb3, 0x2c, 0x5d, 0xb1, 0x50, 0x2c, 0x35, 0xaf, 0x8e, 0xaf, 0xf0, 0xa6, 0xf0, 0xac,
  0xda, 0x2f, 0xdb, 0xaf, 0x2d, 0xb2, 0x4b, 0x31, 0x41, 0x2d, 0x26, 0x17, 0xbc, 0x31, 0x43, 0xb2,
  0x47, 0x98, 0xab, 0xa7, 0x0b, 0x20, 0xea, 0xb2, 0x95, 0xab, 0xe2, 0x31, 0x5e, 0xb1, 0xaa, 0xac,
  0xe2, 0xb2, 0x01, 0xa8, 0x9f, 0x31, 0xb0, 0x31, 0x34, 0x2f, 0xb9, 0xaf, 0x61, 0x2f, 0x42, 0xac,
  0x62, 0x30, 0x27, 0x28, 0x9e, 0x2b, 0x17, 0x2b, 0x11, 0xab, 0x69, 0xae, 0x52, 0xb1, 0xdd, 0x2e,
  0x7b, 0x2b, 0x1d, 0x2b, 0xcc, 0x31, 0xb9, 0xae, 0xe1, 0x2f, 0x7c, 0x24, 0xdb, 0xa6, 0x7f, 0xaf,
  0xfa, 0x2d, 0x3a, 0x32, 0x43, 0xad, 0xe6, 0xaa, 0xd5, 0xa6, 0x23, 0xa8, 0xd6, 0xae, 0x19, 0xa3,
  0x80, 0xaf, 0x08, 0x23, 0x55, 0xa7, 0xed, 0x2a, 0x85, 0xa6, 0x8a, 0x2d, 0x90, 0xae, 0x5c, 0x2b,
  0x54, 0xa1, 0x17, 0xad, 0xd4, 0xac, 0x58, 0x27, 0x1d, 0x20, 0x04, 0x2f, 0xd5, 0x2e, 0x90, 0x30,
  0xff, 0x32, 0x1a, 0xaf, 0x3f, 0x36, 0x78, 0x2a, 0x67, 0xb0, 0x61, 0xa9, 0x77, 0x2a, 0xec, 0x34,
  0x62, 0x31, 0x0d, 0x2c, 0x53, 0x31, 0x43, 0x2e, 0xd6, 0x2d, 0xa1, 0xb0, 0x2d, 0xa8, 0x59, 0xb2,
  0xba, 0x2f, 0x0d, 0x31, 0x82, 0x28, 0x3b, 0x30, 0x43, 0xb2, 0x22, 0x32, 0x17, 0xb0, 0xdd, 0x2b,
  0xae, 0x2d, 0xe7, 0x31, 0xfa, 0x30, 0xae, 0x2e, 0xd1, 0x31, 0x9d, 0x2c, 0x2d, 0xb1, 0x2c, 0xb2,
  0x84, 0x24, 0x86, 0x31, 0x51, 0xaf, 0x7f, 0x24, 0xee, 0xaf, 0x5d, 0x2c, 0x89, 0xb2, 0xd6, 0x2e,
  0x66, 0x2c, 0xf1, 0xae, 0x02, 0x32, 0xad, 0x29, 0x75, 0xaf, 0xea, 0xa1, 0x17, 0x30, 0x33, 0xb0,
  0x51, 0x31, 0x26, 0xac, 0x30, 0x2d, 0x66, 0xb0, 0xb5, 0x35, 0xea, 0xaf, 0x3b, 0x2e, 0x11, 0xb0,
  0xfe, 0xb0, 0xce, 0x31, 0xc3, 0x30, 0x75, 0xaa, 0xb0, 0xad, 0x0f, 0x2f, 0x1a, 0x27, 0x41, 0x91,
  0xf8, 0x2d, 0x7f, 0x2e, 0xc5, 0x33, 0x36, 0xad, 0xd2, 0x28, 0xb5, 0xaf, 0x3f, 0xab, 0x40, 0x30,
  0x02, 0xb2, 0x04, 0xad, 0x98, 0x2f, 0x80, 0x9d, 0x64, 0x29, 0x54, 0x37, 0xf6, 0x30, 0x97, 0xa9,
  0x2b, 0x29, 0x54, 0xb0, 0x7b, 0xae, 0x4f, 0x31, 0xb6, 0x23, 0xf6, 0xb0, 0x02, 0x32, 0x3e, 0x2c,
  0x04, 0xaf, 0xb8, 0xad, 0xa3, 0x24, 0x7e, 0x2a, 0x49, 0x2c, 0x5b, 0x33, 0x9b, 0x32, 0xbb, 0x2d,
  0x20, 0xab, 0x92, 0xb2, 0x76, 0x27, 0xee, 0xac, 0x6b, 0xb1, 0x94, 0x33, 0xda, 0x24, 0x16, 0xaf,
  0x02, 0x25, 0x93, 0x2a, 0x24, 0x2b, 0x6c, 0x99, 0xc4, 0x30, 0x30, 0xb0, 0x04, 0x00, 0x06, 0x00,
  0x04, 0x00, 0x00, 0x00, 0x00, 0x00, 0x0e, 0x00, 0x18, 0x00, 0x14, 0x00, 0x10, 0x00, 0x0c, 0x00,
  0x08, 0x00, 0x04, 0x00, 0x0e, 0x00, 0x00, 0x00, 0x14, 0x00, 0x00, 0x00, 0x20, 0x00, 0x00, 0x00,
  0x34, 0x00, 0x00, 0x00, 0x38, 0x00, 0x00, 0x00, 0x3c, 0x00, 0x00, 0x00, 0x0b, 0x00, 0x00, 0x00,
  0x65, 0x73, 0x70, 0x63, 0x6e, 0x5f, 0x6c, 0x69, 0x67, 0x68, 0x74, 0x00, 0x05, 0x00, 0x00, 0x00,
  0x88, 0x01, 0x00, 0x00, 0x38, 0x01, 0x00, 0x00, 0xf0, 0x00, 0x00, 0x00, 0xa0, 0x00, 0x00, 0x00,
  0x5c, 0x00, 0x00, 0x00, 0x01, 0x00, 0x00, 0x00, 0x0a, 0x00, 0x00, 0x00, 0x01, 0x00, 0x00, 0x00,
  0x00, 0x00, 0x00, 0x00, 0x0d, 0x00, 0x00, 0x00, 0xd0, 0x05, 0x00, 0x00, 0x5c, 0x05, 0x00, 0x00,
  0x00, 0x05, 0x00, 0x00, 0xa0, 0x04, 0x00, 0x00, 0x3c, 0x04, 0x00, 0x00, 0xf4, 0x03, 0x00, 0x00,
  0x94, 0x03, 0x00, 0x00, 0x30, 0x03, 0x00, 0x00, 0xe8, 0x02, 0x00, 0x00, 0x88, 0x02, 0x00, 0x00,
  0x3c, 0x02, 0x00, 0x00, 0xe4, 0x01, 0x00, 0x00, 0x78, 0x01, 0x00, 0x00, 0x00, 0x00, 0x0e, 0x00,
  0x18, 0x00, 0x14, 0x00, 0x10, 0x00, 0x0c, 0x00, 0x0b, 0x00, 0x04, 0x00, 0x0e, 0x00, 0x00, 0x00,
  0x14, 0x00, 0x00, 0x00, 0x00, 0x00, 0x00, 0x5e, 0x14, 0x00, 0x00, 0x00, 0x18, 0x00, 0x00, 0x00,
  0x02, 0x00, 0x00, 0x00, 0xbe, 0xff, 0xff, 0xff, 0x02, 0x00, 0x00, 0x00, 0x01, 0x00, 0x00, 0x00,
  0x0a, 0x00, 0x00, 0x00, 0x01, 0x00, 0x00, 0x00, 0x0c, 0x00, 0x00, 0x00, 0x00, 0x00, 0x0e, 0x00,
  0x1a, 0x00, 0x14, 0x00, 0x10, 0x00, 0x0c, 0x00, 0x0b, 0x00, 0x04, 0x00, 0x0e, 0x00, 0x00, 0x00,
  0x1c, 0x00, 0x00, 0x00, 0x00, 0x00, 0x00, 0x17, 0x1c, 0x00, 0x00, 0x00, 0x20, 0x00, 0x00, 0x00,
  0x01, 0x00, 0x00, 0x00, 0x00, 0x00, 0x06, 0x00, 0x08, 0x00, 0x04, 0x00, 0x06, 0x00, 0x00, 0x00,
  0x03, 0x00, 0x00, 0x00, 0x01, 0x00, 0x00, 0x00, 0x0c, 0x00, 0x00, 0x00, 0x02, 0x00, 0x00, 0x00,
  0x09, 0x00, 0x00, 0x00, 0x0b, 0x00, 0x00, 0x00, 0x00, 0x00, 0x0e, 0x00, 0x16, 0x00, 0x00, 0x00,
  0x10, 0x00, 0x0c, 0x00, 0x0b, 0x00, 0x04, 0x00, 0x0e, 0x00, 0x00, 0x00, 0x1c, 0x00, 0x00, 0x00,
  0x00, 0x00, 0x00, 0x01, 0x20, 0x00, 0x00, 0x00, 0x24, 0x00, 0x00, 0x00, 0x00, 0x00, 0x0a, 0x00,
  0x0c, 0x00, 0x00, 0x00, 0x08, 0x00, 0x04, 0x00, 0x0a, 0x00, 0x00, 0x00, 0x01, 0x00, 0x00, 0x00,
  0x01, 0x00, 0x00, 0x00, 0x01, 0x00, 0x00, 0x00, 0x09, 0x00, 0x00, 0x00, 0x03, 0x00, 0x00, 0x00,
  0x06, 0x00, 0x00, 0x00, 0x07, 0x00, 0x00, 0x00, 0x08, 0x00, 0x00, 0x00, 0xc2, 0xff, 0xff, 0xff,
  0x10, 0x00, 0x00, 0x00, 0x00, 0x00, 0x00, 0x01, 0x18, 0x00, 0x00, 0x00, 0x1c, 0x00, 0x00, 0x00,
  0xb4, 0xff, 0xff, 0xff, 0x00, 0x00, 0x00, 0x01, 0x01, 0x00, 0x00, 0x00, 0x01, 0x00, 0x00, 0x00,
  0x01, 0x00, 0x00, 0x00, 0x06, 0x00, 0x00, 0x00, 0x03, 0x00, 0x00, 0x00, 0x03, 0x00, 0x00, 0x00,
  0x04, 0x00, 0x00, 0x00, 0x05, 0x00, 0x00, 0x00, 0x00, 0x00, 0x0e, 0x00, 0x14, 0x00, 0x00, 0x00,
  0x10, 0x00, 0x0c, 0x00, 0x0b, 0x00, 0x04, 0x00, 0x0e, 0x00, 0x00, 0x00, 0x1c, 0x00, 0x00, 0x00,
  0x00, 0x00, 0x00, 0x01, 0x24, 0x00, 0x00, 0x00, 0x28, 0x00, 0x00, 0x00, 0x0c, 0x00, 0x10, 0x00,
  0x00, 0x00, 0x0c, 0x00, 0x08, 0x00, 0x07, 0x00, 0x0c, 0x00, 0x00, 0x00, 0x00, 0x00, 0x00, 0x01,
  0x01, 0x00, 0x00, 0x00, 0x01, 0x00, 0x00, 0x00, 0x01, 0x00, 0x00, 0x00, 0x03, 0x00, 0x00, 0x00,
  0x03, 0x00, 0x00, 0x00, 0x00, 0x00, 0x00, 0x00, 0x01, 0x00, 0x00, 0x00, 0x02, 0x00, 0x00, 0x00,
  0xec, 0xfb, 0xff, 0xff, 0x3c, 0x00, 0x00, 0x00, 0x0c, 0x00, 0x00, 0x00, 0x00, 0x00, 0x00, 0x01,
  0x44, 0x00, 0x00, 0x00, 0x26, 0x00, 0x00, 0x00, 0x6e, 0x6f, 0x64, 0x65, 0x5f, 0x70, 0x69, 0x78,
  0x65, 0x6c, 0x5f, 0x73, 0x68, 0x75, 0x66, 0x66, 0x6c, 0x65, 0x5f, 0x63, 0x72, 0x64, 0x5f, 0x69,
  0x6e, 0x70, 0x75, 0x74, 0x5f, 0x72, 0x65, 0x6f, 0x72, 0x64, 0x65, 0x72, 0x65, 0x64, 0x00, 0x00,
  0x04, 0x00, 0x00, 0x00, 0x01, 0x00, 0x00, 0x00, 0x18, 0x00, 0x00, 0x00, 0x20, 0x00, 0x00, 0x00,
  0x04, 0x00, 0x00, 0x00, 0x04, 0x00, 0x00, 0x00, 0x01, 0x00, 0x00, 0x00, 0x18, 0x00, 0x00, 0x00,
  0x20, 0x00, 0x00, 0x00, 0x04, 0x00, 0x00, 0x00, 0xc4, 0xfc, 0xff, 0xff, 0x40, 0x00, 0x00, 0x00,
  0x10, 0x00, 0x00, 0x00, 0x07, 0x00, 0x00, 0x00, 0x00, 0x00, 0x00, 0x02, 0x38, 0x00, 0x00, 0x00,
  0x25, 0x00, 0x00, 0x00, 0x6e, 0x6f, 0x64, 0x65, 0x5f, 0x70, 0x69, 0x78, 0x65, 0x6c, 0x5f, 0x73,
  0x68, 0x75, 0x66, 0x66, 0x6c, 0x65, 0x5f, 0x63, 0x72, 0x64, 0x5f, 0x74, 0x6f, 0x5f, 0x64, 0x63,
  0x72, 0x5f, 0x69, 0x6e, 0x64, 0x69, 0x63, 0x65, 0x73, 0x00, 0x00, 0x00, 0x01, 0x00, 0x00, 0x00,
  0x04, 0x00, 0x00, 0x00, 0x01, 0x00, 0x00, 0x00, 0x04, 0x00, 0x00, 0x00, 0xa8, 0xfc, 0xff, 0xff,
  0x1c, 0x00, 0x00, 0x00, 0x0c, 0x00, 0x00, 0x00, 0x00, 0x00, 0x00, 0x01, 0x24, 0x00, 0x00, 0x00,
  0x06, 0x00, 0x00, 0x00, 0x6f, 0x75, 0x74, 0x70, 0x75, 0x74, 0x00, 0x00, 0x04, 0x00, 0x00, 0x00,
  0x01, 0x00, 0x00, 0x00, 0x30, 0x00, 0x00, 0x00, 0x40, 0x00, 0x00, 0x00, 0x01, 0x00, 0x00, 0x00,
  0x04, 0x00, 0x00, 0x00, 0x01, 0x00, 0x00, 0x00, 0x30, 0x00, 0x00, 0x00, 0x40, 0x00, 0x00, 0x00,
  0x01, 0x00, 0x00, 0x00, 0xf0, 0xfc, 0xff, 0xff, 0x30, 0x00, 0x00, 0x00, 0x0c, 0x00, 0x00, 0x00,
  0x00, 0x00, 0x00, 0x01, 0x38, 0x00, 0x00, 0x00, 0x19, 0x00, 0x00, 0x00, 0x6e, 0x6f, 0x64, 0x65,
  0x5f, 0x63, 0x6f, 0x6e, 0x76, 0x32, 0x64, 0x5f, 0x32, 0x5f, 0x6f, 0x75, 0x74, 0x70, 0x75, 0x74,
  0x5f, 0x6e, 0x68, 0x77, 0x63, 0x00, 0x00, 0x00, 0x04, 0x00, 0x00, 0x00, 0x01, 0x00, 0x00, 0x00,
  0x18, 0x00, 0x00, 0x00, 0x20, 0x00, 0x00, 0x00, 0x04, 0x00, 0x00, 0x00, 0x04, 0x00, 0x00, 0x00,
  0x01, 0x00, 0x00, 0x00, 0x18, 0x00, 0x00, 0x00, 0x20, 0x00, 0x00, 0x00, 0x04, 0x00, 0x00, 0x00,
  0xbc, 0xfd, 0xff, 0xff, 0x30, 0x00, 0x00, 0x00, 0x10, 0x00, 0x00, 0x00, 0x06, 0x00, 0x00, 0x00,
  0x00, 0x00, 0x00, 0x01, 0x28, 0x00, 0x00, 0x00, 0x17, 0x00, 0x00, 0x00, 0x6e, 0x6f, 0x64, 0x65,
  0x5f, 0x63, 0x6f, 0x6e, 0x76, 0x32, 0x64, 0x5f, 0x32, 0x5f, 0x63, 0x6f, 0x6e, 0x76, 0x5f, 0x62,
  0x69, 0x61, 0x73, 0x00, 0x01, 0x00, 0x00, 0x00, 0x04, 0x00, 0x00, 0x00, 0x01, 0x00, 0x00, 0x00,
  0x04, 0x00, 0x00, 0x00, 0x00, 0xfe, 0xff, 0xff, 0x34, 0x00, 0x00, 0x00, 0x10, 0x00, 0x00, 0x00,
  0x05, 0x00, 0x00, 0x00, 0x00, 0x00, 0x00, 0x01, 0x38, 0x00, 0x00, 0x00, 0x19, 0x00, 0x00, 0x00,
  0x6e, 0x6f, 0x64, 0x65, 0x5f, 0x63, 0x6f, 0x6e, 0x76, 0x32, 0x64, 0x5f, 0x32, 0x5f, 0x63, 0x6f,
  0x6e, 0x76, 0x5f, 0x66, 0x69, 0x6c, 0x74, 0x65, 0x72, 0x00, 0x00, 0x00, 0x04, 0x00, 0x00, 0x00,
  0x04, 0x00, 0x00, 0x00, 0x03, 0x00, 0x00, 0x00, 0x03, 0x00, 0x00, 0x00, 0x10, 0x00, 0x00, 0x00,
  0x04, 0x00, 0x00, 0x00, 0x04, 0x00, 0x00, 0x00, 0x03, 0x00, 0x00, 0x00, 0x03, 0x00, 0x00, 0x00,
  0x10, 0x00, 0x00, 0x00, 0xf0, 0xfd, 0xff, 0xff, 0x30, 0x00, 0x00, 0x00, 0x0c, 0x00, 0x00, 0x00,
  0x00, 0x00, 0x00, 0x01, 0x38, 0x00, 0x00, 0x00, 0x18, 0x00, 0x00, 0x00, 0x6e, 0x6f, 0x64, 0x65,
  0x5f, 0x63, 0x6f, 0x6e, 0x76, 0x32, 0x64, 0x5f, 0x32, 0x5f, 0x69, 0x6e, 0x70, 0x75, 0x74, 0x5f,
  0x6e, 0x68, 0x77, 0x63, 0x00, 0x00, 0x00, 0x00, 0x04, 0x00, 0x00, 0x00, 0x01, 0x00, 0x00, 0x00,
  0x18, 0x00, 0x00, 0x00, 0x20, 0x00, 0x00, 0x00, 0x10, 0x00, 0x00, 0x00, 0x04, 0x00, 0x00, 0x00,
  0x01, 0x00, 0x00, 0x00, 0x18, 0x00, 0x00, 0x00, 0x20, 0x00, 0x00, 0x00, 0x10, 0x00, 0x00, 0x00,
  0xbc, 0xfe, 0xff, 0xff, 0x30, 0x00, 0x00, 0x00, 0x10, 0x00, 0x00, 0x00, 0x04, 0x00, 0x00, 0x00,
  0x00, 0x00, 0x00, 0x01, 0x28, 0x00, 0x00, 0x00, 0x17, 0x00, 0x00, 0x00, 0x6e, 0x6f, 0x64, 0x65,
  0x5f, 0x63, 0x6f, 0x6e, 0x76, 0x32, 0x64, 0x5f, 0x31, 0x5f, 0x63, 0x6f, 0x6e, 0x76, 0x5f, 0x62,
  0x69, 0x61, 0x73, 0x00, 0x01, 0x00, 0x00, 0x00, 0x10, 0x00, 0x00, 0x00, 0x01, 0x00, 0x00, 0x00,
  0x10, 0x00, 0x00, 0x00, 0x00, 0xff, 0xff, 0xff, 0x34, 0x00, 0x00, 0x00, 0x10, 0x00, 0x00, 0x00,
  0x03, 0x00, 0x00, 0x00, 0x00, 0x00, 0x00, 0x01, 0x38, 0x00, 0x00, 0x00, 0x19, 0x00, 0x00, 0x00,
  0x6e, 0x6f, 0x64, 0x65, 0x5f, 0x63, 0x6f, 0x6e, 0x76, 0x32, 0x64, 0x5f, 0x31, 0x5f, 0x63, 0x6f,
  0x6e, 0x76, 0x5f, 0x66, 0x69, 0x6c, 0x74, 0x65, 0x72, 0x00, 0x00, 0x00, 0x04, 0x00, 0x00, 0x00,
  0x10, 0x00, 0x00, 0x00, 0x03, 0x00, 0x00, 0x00, 0x03, 0x00, 0x00, 0x00, 0x20, 0x00, 0x00, 0x00,
  0x04, 0x00, 0x00, 0x00, 0x10, 0x00, 0x00, 0x00, 0x03, 0x00, 0x00, 0x00, 0x03, 0x00, 0x00, 0x00,
  0x20, 0x00, 0x00, 0x00, 0xf0, 0xfe, 0xff, 0xff, 0x30, 0x00, 0x00, 0x00, 0x0c, 0x00, 0x00, 0x00,
  0x00, 0x00, 0x00, 0x01, 0x38, 0x00, 0x00, 0x00, 0x18, 0x00, 0x00, 0x00, 0x6e, 0x6f, 0x64, 0x65,
  0x5f, 0x63, 0x6f, 0x6e, 0x76, 0x32, 0x64, 0x5f, 0x31, 0x5f, 0x69, 0x6e, 0x70, 0x75, 0x74, 0x5f,
  0x6e, 0x68, 0x77, 0x63, 0x00, 0x00, 0x00, 0x00, 0x04, 0x00, 0x00, 0x00, 0x01, 0x00, 0x00, 0x00,
  0x18, 0x00, 0x00, 0x00, 0x20, 0x00, 0x00, 0x00, 0x20, 0x00, 0x00, 0x00, 0x04, 0x00, 0x00, 0x00,
  0x01, 0x00, 0x00, 0x00, 0x18, 0x00, 0x00, 0x00, 0x20, 0x00, 0x00, 0x00, 0x20, 0x00, 0x00, 0x00,
  0xbc, 0xff, 0xff, 0xff, 0x30, 0x00, 0x00, 0x00, 0x10, 0x00, 0x00, 0x00, 0x02, 0x00, 0x00, 0x00,
  0x00, 0x00, 0x00, 0x01, 0x28, 0x00, 0x00, 0x00, 0x15, 0x00, 0x00, 0x00, 0x6e, 0x6f, 0x64, 0x65,
  0x5f, 0x63, 0x6f, 0x6e, 0x76, 0x32, 0x64, 0x5f, 0x63, 0x6f, 0x6e, 0x76, 0x5f, 0x62, 0x69, 0x61,
  0x73, 0x00, 0x00, 0x00, 0x01, 0x00, 0x00, 0x00, 0x20, 0x00, 0x00, 0x00, 0x01, 0x00, 0x00, 0x00,
  0x20, 0x00, 0x00, 0x00, 0x14, 0x00, 0x18, 0x00, 0x14, 0x00, 0x13, 0x00, 0x0c, 0x00, 0x08, 0x00,
  0x00, 0x00, 0x00, 0x00, 0x00, 0x00, 0x04, 0x00, 0x14, 0x00, 0x00, 0x00, 0x30, 0x00, 0x00, 0x00,
  0x10, 0x00, 0x00, 0x00, 0x01, 0x00, 0x00, 0x00, 0x00, 0x00, 0x00, 0x01, 0x34, 0x00, 0x00, 0x00,
  0x17, 0x00, 0x00, 0x00, 0x6e, 0x6f, 0x64, 0x65, 0x5f, 0x63, 0x6f, 0x6e, 0x76, 0x32, 0x64, 0x5f,
  0x63, 0x6f, 0x6e, 0x76, 0x5f, 0x66, 0x69, 0x6c, 0x74, 0x65, 0x72, 0x00, 0x04, 0x00, 0x00, 0x00,
  0x20, 0x00, 0x00, 0x00, 0x05, 0x00, 0x00, 0x00, 0x05, 0x00, 0x00, 0x00, 0x01, 0x00, 0x00, 0x00,
  0x04, 0x00, 0x00, 0x00, 0x20, 0x00, 0x00, 0x00, 0x05, 0x00, 0x00, 0x00, 0x05, 0x00, 0x00, 0x00,
  0x01, 0x00, 0x00, 0x00, 0x14, 0x00, 0x14, 0x00, 0x10, 0x00, 0x0f, 0x00, 0x00, 0x00, 0x08, 0x00,
  0x00, 0x00, 0x00, 0x00, 0x00, 0x00, 0x04, 0x00, 0x14, 0x00, 0x00, 0x00, 0x1c, 0x00, 0x00, 0x00,
  0x0c, 0x00, 0x00, 0x00, 0x00, 0x00, 0x00, 0x01, 0x24, 0x00, 0x00, 0x00, 0x05, 0x00, 0x00, 0x00,
  0x69, 0x6e, 0x70, 0x75, 0x74, 0x00, 0x00, 0x00, 0x04, 0x00, 0x00, 0x00, 0x01, 0x00, 0x00, 0x00,
  0x18, 0x00, 0x00, 0x00, 0x20, 0x00, 0x00, 0x00, 0x01, 0x00, 0x00, 0x00, 0x04, 0x00, 0x00, 0x00,
  0x01, 0x00, 0x00, 0x00, 0x18, 0x00, 0x00, 0x00, 0x20, 0x00, 0x00, 0x00, 0x01, 0x00, 0x00, 0x00,
  0xe8, 0xff, 0xff, 0xff, 0x05, 0x00, 0x00, 0x00, 0x00, 0x00, 0x00, 0x05, 0xf4, 0xff, 0xff, 0xff,
  0x24, 0x00, 0x00, 0x00, 0x00, 0x00, 0x00, 0x24, 0x0c, 0x00, 0x0c, 0x00, 0x0b, 0x00, 0x00, 0x00,
  0x00, 0x00, 0x04, 0x00, 0x0c, 0x00, 0x00, 0x00, 0x03, 0x00, 0x00, 0x00, 0x00, 0x00, 0x00, 0x03,
};
const size_t espcn_light_int8_tflite_len = 14240;
