/* Auto-generated from fsrcnn_int8.tflite — do not edit */
#pragma once
#include <stddef.h>

const unsigned char fsrcnn_int8_tflite[] = {
  0x1c, 0x00, 0x00, 0x00, 0x54, 0x46, 0x4c, 0x33, 0x14, 0x00, 0x20, 0x00, 0x1c, 0x00, 0x18, 0x00,
  0x14, 0x00, 0x10, 0x00, 0x0c, 0x00, 0x00, 0x00, 0x04, 0x00, 0x08, 0x00, 0x14, 0x00, 0x00, 0x00,
  0x1c, 0x00, 0x00, 0x00, 0x20, 0x00, 0x00, 0x00, 0x24, 0x00, 0x00, 0x00, 0x98, 0x00, 0x00, 0x00,
  0xb4, 0x00, 0x00, 0x00, 0xb8, 0x00, 0x00, 0x00, 0x03, 0x00, 0x00, 0x00, 0x01, 0x00, 0x00, 0x00,
  0xc4, 0x00, 0x00, 0x00, 0x01, 0x00, 0x00, 0x00, 0xe8, 0x00, 0x00, 0x00, 0x1d, 0x00, 0x00, 0x00,
  0x04, 0x67, 0x00, 0x00, 0x00, 0x5c, 0x00, 0x00, 0x78, 0x5b, 0x00, 0x00, 0xf8, 0x5a, 0x00, 0x00,
  0xa8, 0x55, 0x00, 0x00, 0x80, 0x55, 0x00, 0x00, 0x58, 0x55, 0x00, 0x00, 0x28, 0x4b, 0x00, 0x00,
  0x00, 0x4b, 0x00, 0x00, 0xd8, 0x4a, 0x00, 0x00, 0xa8, 0x40, 0x00, 0x00, 0x80, 0x40, 0x00, 0x00,
  0x58, 0x40, 0x00, 0x00, 0x28, 0x36, 0x00, 0x00, 0x00, 0x36, 0x00, 0x00, 0xd8, 0x35, 0x00, 0x00,
  0xa8, 0x2b, 0x00, 0x00, 0x80, 0x2b, 0x00, 0x00, 0x58, 0x2b, 0x00, 0x00, 0x08, 0x26, 0x00, 0x00,
  0x88, 0x25, 0x00, 0x00, 0x08, 0x25, 0x00, 0x00, 0xe8, 0x24, 0x00, 0x00, 0x68, 0x01, 0x00, 0x00,
  0x48, 0x01, 0x00, 0x00, 0x28, 0x01, 0x00, 0x00, 0x08, 0x01, 0x00, 0x00, 0xf4, 0x00, 0x00, 0x00,
  0xd8, 0x00, 0x00, 0x00, 0x19, 0x00, 0x00, 0x00, 0x6f, 0x6e, 0x6e, 0x78, 0x32, 0x74, 0x66, 0x20,
  0x66, 0x6c, 0x61, 0x74, 0x62, 0x75, 0x66, 0x66, 0x65, 0x72, 0x5f, 0x64, 0x69, 0x72, 0x65, 0x63,
  0x74, 0x00, 0x00, 0x00, 0x01, 0x00, 0x00, 0x00, 0x80, 0x66, 0x00, 0x00, 0x05, 0x00, 0x00, 0x00,
  0x48, 0x7b, 0x00, 0x00, 0x2c, 0x7b, 0x00, 0x00, 0x1c, 0x7b, 0x00, 0x00, 0x0c, 0x7b, 0x00, 0x00,
  0x04, 0x7b, 0x00, 0x00, 0xa0, 0xff, 0xff, 0xff, 0x1c, 0x00, 0x00, 0x00, 0x04, 0x00, 0x00, 0x00,
  0x19, 0x00, 0x00, 0x00, 0x72, 0x65, 0x64, 0x75, 0x63, 0x65, 0x64, 0x5f, 0x70, 0x72, 0x65, 0x63,
  0x69, 0x73, 0x69, 0x6f, 0x6e, 0x5f, 0x73, 0x75, 0x70, 0x70, 0x6f, 0x72, 0x74, 0x00, 0x00, 0x00,
  0x86, 0x95, 0xff, 0xff, 0x0c, 0x00, 0x00, 0x00, 0x1c, 0x00, 0x00, 0x00, 0x20, 0x00, 0x00, 0x00,
  0x0f, 0x00, 0x00, 0x00, 0x73, 0x65, 0x72, 0x76, 0x69, 0x6e, 0x67, 0x5f, 0x64, 0x65, 0x66, 0x61,
  0x75, 0x6c, 0x74, 0x00, 0x01, 0x00, 0x00, 0x00, 0x14, 0x00, 0x00, 0x00, 0x01, 0x00, 0x00, 0x00,
  0x24, 0x00, 0x00, 0x00, 0x08, 0x00, 0x0c, 0x00, 0x08, 0x00, 0x04, 0x00, 0x08, 0x00, 0x00, 0x00,
  0x23, 0x00, 0x00, 0x00, 0x04, 0x00, 0x00, 0x00, 0x06, 0x00, 0x00, 0x00, 0x6f, 0x75, 0x74, 0x70,
  0x75, 0x74, 0x00, 0x00, 0x36, 0xa5, 0xff, 0xff, 0x04, 0x00, 0x00, 0x00, 0x05, 0x00, 0x00, 0x00,
  0x69, 0x6e, 0x70, 0x75, 0x74, 0x00, 0x00, 0x00, 0x4a, 0xa5, 0xff, 0xff, 0x04, 0x00, 0x00, 0x00,
  0x0b, 0x00, 0x00, 0x00, 0x66, 0x70, 0x31, 0x36, 0x61, 0x63, 0x63, 0x66, 0x70, 0x33, 0x32, 0x00,
  0x62, 0xa5, 0xff, 0xff, 0x04, 0x00, 0x00, 0x00, 0x02, 0x00, 0x00, 0x00, 0x42, 0xaa, 0x00, 0x00,
  0x72, 0xa5, 0xff, 0xff, 0x04, 0x00, 0x00, 0x00, 0x10, 0x00, 0x00, 0x00, 0x01, 0x00, 0x00, 0x00,
  0x01, 0x00, 0x00, 0x00, 0x01, 0x00, 0x00, 0x00, 0x01, 0x00, 0x00, 0x00, 0x8e, 0xa5, 0xff, 0xff,
  0x04, 0x00, 0x00, 0x00, 0x10, 0x00, 0x00, 0x00, 0x01, 0x00, 0x00, 0x00, 0x34, 0x00, 0x00, 0x00,
  0x44, 0x00, 0x00, 0x00, 0x01, 0x00, 0x00, 0x00, 0xaa, 0xa5, 0xff, 0xff, 0x04, 0x00, 0x00, 0x00,
  0x10, 0x00, 0x00, 0x00, 0x00, 0x00, 0x00, 0x00, 0x04, 0x00, 0x00, 0x00, 0x04, 0x00, 0x00, 0x00,
  0x00, 0x00, 0x00, 0x00, 0xc6, 0xa5, 0xff, 0xff, 0x04, 0x00, 0x00, 0x00, 0x70, 0x23, 0x00, 0x00,
  0x1b, 0xa9, 0x69, 0x2c, 0xb7, 0xae, 0xed, 0xa5, 0x7c, 0x2d, 0xf2, 0x24, 0x6d, 0x9a, 0xad, 0xa9,
  0xf4, 0xac, 0xe4, 0x8f, 0x05, 0x1f, 0xca, 0x2d, 0x55, 0x29, 0x17, 0x2a, 0x0f, 0x2d, 0x65, 0xac,
  0x09, 0x1d, 0x74, 0x2c, 0x09, 0x30, 0x70, 0x2d, 0xc0, 0x1e, 0x98, 0xa8, 0xbc, 0xa9, 0xe6, 0xab,
  0x30, 0x95, 0x4e, 0x9d, 0x26, 0x29, 0x72, 0x24, 0x71, 0xac, 0xeb, 0xaa, 0xdf, 0x29, 0x90, 0x2b,
  0x5c, 0xae, 0x4a, 0xaf, 0xee, 0xac, 0x97, 0xa6, 0xae, 0x2a, 0xd5, 0xae, 0xd6, 0xa4, 0x34, 0x28,
  0x68, 0x2c, 0x00, 0x98, 0x50, 0x2a, 0x77, 0xaa, 0x46, 0xa8, 0xed, 0xa2, 0x32, 0xa6, 0xd5, 0xac,
  0x39, 0xad, 0x6d, 0xa9, 0x9e, 0x29, 0xb3, 0x2a, 0xfe, 0xa7, 0xcb, 0x24, 0xea, 0x2c, 0xa7, 0x2d,
  0xb5, 0x2c, 0x6f, 0xaa, 0x05, 0x2f, 0xd8, 0xa4, 0x02, 0xac, 0xab, 0xa1, 0xf3, 0x29, 0x2e, 0xa2,
  0x97, 0x2f, 0x0e, 0x2c, 0x3e, 0x26, 0x5d, 0xad, 0x5d, 0xa8, 0xd5, 0xa8, 0x8e, 0xa9, 0x68, 0x24,
  0x35, 0xae, 0x4d, 0xa9, 0x59, 0x26, 0x7e, 0xac, 0x3b, 0x94, 0x5a, 0x2c, 0xb7, 0xab, 0x16, 0xac,
  0xb0, 0xa4, 0x93, 0xa3, 0xdc, 0xac, 0x46, 0x9a, 0xf2, 0x2a, 0x9c, 0xad, 0x4d, 0x2e, 0xd1, 0xa6,
  0xaa, 0xaa, 0x18, 0x2e, 0x3c, 0xad, 0x31, 0x26, 0x3d, 0x2c, 0xb7, 0x2f, 0xe3, 0x22, 0xd6, 0x24,
  0x79, 0xac, 0x04, 0xae, 0x2a, 0xa4, 0xa7, 0xae, 0x74, 0x29, 0xb3, 0x28, 0x5e, 0xae, 0x85, 0x25,
  0x75, 0xab, 0x92, 0x9f, 0xef, 0x20, 0x6a, 0xab, 0x5e, 0x23, 0x5c, 0xab, 0x69, 0xab, 0x25, 0x30,
  0x47, 0xad, 0x2c, 0xa4, 0x62, 0xa1, 0x33, 0xae, 0x5d, 0xa8, 0x7a, 0xae, 0xec, 0xa9, 0x18, 0xab,
  0x0f, 0x2a, 0xaf, 0x2a, 0x6c, 0xa9, 0x94, 0xa9, 0xc1, 0xad, 0xc0, 0xa9, 0x96, 0x2e, 0x84, 0xac,
  0x47, 0x2f, 0x9a, 0xac, 0xff, 0x28, 0xae, 0x98, 0x7d, 0x2a, 0xd0, 0x29, 0x3d, 0xac, 0x44, 0x28,
  0x57, 0xa9, 0x58, 0x2e, 0x07, 0x2e, 0x55, 0x2c, 0x5a, 0xae, 0xb4, 0xa7, 0x69, 0x20, 0xbe, 0xaa,
  0xe4, 0xa9, 0x74, 0x2c, 0xc0, 0x8f, 0xd3, 0x2b, 0xb0, 0xab, 0xa2, 0x25, 0x3b, 0xac, 0x9a, 0xab,
  0xc4, 0x2d, 0xb7, 0xa0, 0x91, 0xae, 0xd6, 0x9e, 0x6c, 0x2e, 0xc7, 0xac, 0xa8, 0x1b, 0x3b, 0xaa,
  0x8d, 0xa6, 0x9b, 0xaa, 0x34, 0x24, 0x9d, 0xa8, 0xe0, 0xae, 0xea, 0xac, 0xca, 0x9e, 0xb3, 0xaa,
  0x9b, 0x23, 0x4d, 0x2c, 0x55, 0xa7, 0xaf, 0x2d, 0xc7, 0x27, 0xc2, 0xad, 0x39, 0x2e, 0x33, 0x28,
  0xac, 0x2d, 0x63, 0x25, 0xa8, 0x2c, 0x0c, 0x2b, 0x7a, 0xae, 0xc9, 0x2a, 0xdd, 0xab, 0x04, 0xa3,
  0x93, 0xae, 0x97, 0x28, 0x44, 0x29, 0x95, 0xad, 0x94, 0xa5, 0x53, 0x28, 0x86, 0x22, 0xde, 0xaa,
  0x48, 0x2b, 0x4e, 0x2f, 0x43, 0x2b, 0x1e, 0x2b, 0x93, 0x2e, 0x52, 0x28, 0x07, 0x1a, 0xe0, 0xab,
  0x9b, 0x2c, 0x81, 0xae, 0x35, 0xa9, 0x21, 0x2d, 0x96, 0x21, 0x0f, 0xaf, 0xe5, 0xa7, 0x08, 0x10,
  0x1c, 0xae, 0xc9, 0x2d, 0x0f, 0x2c, 0xfa, 0xa4, 0x5a, 0x2a, 0x14, 0xac, 0xa9, 0x2b, 0x2a, 0xa6,
  0xa8, 0x26, 0xe5, 0x2a, 0x08, 0xad, 0x35, 0x2c, 0xc7, 0x19, 0xbe, 0x28, 0xb5, 0x2c, 0x36, 0x2e,
  0x40, 0xa4, 0x06, 0x2d, 0x0a, 0x2e, 0xbf, 0x28, 0xe9, 0xa4, 0xda, 0xac, 0x2d, 0xab, 0x72, 0x2b,
  0x82, 0xac, 0x50, 0xa7, 0x73, 0xa1, 0x38, 0x2e, 0x2a, 0x2a, 0x6d, 0xad, 0xce, 0x1e, 0x9d, 0xac,
  0x6c, 0xac, 0xfe, 0xad, 0x23, 0x2b, 0x84, 0x2b, 0x13, 0x2d, 0x8d, 0x9f, 0xa7, 0x2f, 0x65, 0x2d,
  0x13, 0xa8, 0x3f, 0xaf, 0x60, 0xa2, 0x92, 0xac, 0x28, 0x27, 0xa1, 0xab, 0xda, 0x2e, 0xb6, 0x2d,
  0x0d, 0xa8, 0x44, 0xa6, 0x9e, 0xaf, 0x48, 0x2d, 0x9b, 0xa9, 0x1c, 0xad, 0x4b, 0xae, 0x64, 0xa7,
  0xff, 0x2a, 0xd7, 0xaf, 0x6c, 0x25, 0x0d, 0x29, 0xdf, 0x2d, 0x47, 0xaf, 0x53, 0x2a, 0xee, 0x26,
  0x71, 0xa4, 0xa6, 0xa8, 0x5f, 0xa8, 0x53, 0xaf, 0xbd, 0x2c, 0x06, 0x29, 0x39, 0x19, 0x94, 0x9d,
  0xc5, 0xae, 0x45, 0xa9, 0x58, 0x2b, 0x3b, 0x9c, 0xc8, 0xac, 0x76, 0x1c, 0x3d, 0x2c, 0x99, 0x2a,
  0x1a, 0x1b, 0xd6, 0xaa, 0x0b, 0xa1, 0x9d, 0xaf, 0xc1, 0xa3, 0xce, 0x2e, 0x5b, 0x2c, 0x90, 0x18,
  0xb8, 0x25, 0x9d, 0x2b, 0x43, 0xaa, 0x45, 0xac, 0x74, 0x27, 0xbb, 0x0e, 0x47, 0xa7, 0x54, 0x29,
  0x0c, 0x28, 0x71, 0xac, 0x95, 0xad, 0x0f, 0xaf, 0x78, 0xa6, 0x7f, 0x2d, 0x67, 0x29, 0x1d, 0xa9,
  0xc7, 0x2c, 0xc7, 0x28, 0x35, 0x27, 0x79, 0xaf, 0x6b, 0x24, 0x21, 0x2c, 0xde, 0x2a, 0x41, 0xa6,
  0xee, 0x2c, 0x9f, 0x2d, 0x2e, 0x30, 0x33, 0x25, 0xd1, 0xa9, 0x30, 0x28, 0xf3, 0xa7, 0x5a, 0xab,
  0x40, 0xa7, 0x84, 0xa0, 0x81, 0xac, 0xb6, 0x90, 0x1a, 0xac, 0x04, 0x2a, 0x46, 0xa8, 0xdb, 0x2c,
  0x61, 0x2d, 0x5e, 0x2e, 0x30, 0x2c, 0xe5, 0xab, 0xf7, 0xad, 0x49, 0x28, 0x08, 0x2d, 0x9d, 0x2e,
  0x41, 0xa5, 0x4b, 0x0c, 0x05, 0x22, 0xc2, 0x10, 0x26, 0xa2, 0xa1, 0x2e, 0x07, 0x99, 0xd1, 0xad,
  0xc9, 0x2d, 0x15, 0xad, 0xb2, 0x2c, 0x28, 0xad, 0x3f, 0x2a, 0xff, 0xa9, 0x94, 0xa4, 0xff, 0xa8,
  0xed, 0x2b, 0x0c, 0x29, 0x31, 0x9c, 0xc4, 0x2a, 0xa3, 0x29, 0xbe, 0x29, 0x15, 0xaf, 0xee, 0x2c,
  0x90, 0x29, 0x67, 0xa4, 0x4b, 0x2c, 0x50, 0x28, 0x81, 0x2f, 0x88, 0x29, 0xe3, 0xa3, 0x6c, 0x1e,
  0x56, 0xae, 0xbd, 0x1f, 0x8e, 0xa3, 0x5b, 0x26, 0x8e, 0xaa, 0xde, 0x2a, 0xd6, 0x28, 0x0b, 0xaa,
  0xdb, 0x22, 0x27, 0x28, 0x45, 0xad, 0xab, 0xad, 0x70, 0x24, 0x31, 0xa8, 0x7e, 0x2d, 0xf5, 0x24,
  0x45, 0x2b, 0x87, 0xa8, 0x72, 0x1a, 0x93, 0x2c, 0xc3, 0x2c, 0x8e, 0xae, 0x43, 0x2c, 0xc6, 0x2c,
  0xf2, 0xaa, 0x94, 0x25, 0x94, 0x21, 0xe3, 0x2a, 0x87, 0x2c, 0xac, 0xad, 0xd8, 0xa3, 0xd1, 0xa5,
  0x80, 0x2c, 0xfe, 0xac, 0x07, 0x2b, 0xb0, 0xae, 0x1b, 0x99, 0xf6, 0x2e, 0x49, 0xa9, 0x97, 0x22,
  0x83, 0x2d, 0xea, 0xad, 0xad, 0xa8, 0xbb, 0xa5, 0x05, 0xa1, 0xf3, 0x28, 0x83, 0xa7, 0x4e, 0x2c,
  0x28, 0x01, 0x45, 0x2a, 0x3a, 0x2f, 0x2a, 0xae, 0x0a, 0x2a, 0xef, 0x21, 0xba, 0x26, 0x93, 0xac,
  0xbe, 0xae, 0x0b, 0x20, 0xec, 0xa5, 0xef, 0x2c, 0xf9, 0x2e, 0x3d, 0xae, 0x30, 0x97, 0x41, 0x2d,
  0xf6, 0xae, 0x43, 0xad, 0xf6, 0xad, 0x8f, 0xac, 0xe8, 0x2d, 0xa1, 0xa9, 0x41, 0xa9, 0xd2, 0x18,
  0x72, 0x24, 0xe8, 0x2a, 0x89, 0xaa, 0xc6, 0x29, 0x17, 0x29, 0x13, 0xb0, 0x21, 0xa6, 0x69, 0x2d,
  0xaf, 0xab, 0x05, 0x28, 0xb7, 0xae, 0xc4, 0xa4, 0x06, 0x2b, 0x16, 0xac, 0x5e, 0x30, 0xc6, 0x20,
  0x84, 0x2f, 0x12, 0x10, 0x69, 0xa2, 0x69, 0xaa, 0x0d, 0xab, 0xbf, 0x2a, 0xc5, 0xaa, 0x08, 0xac,
  0xee, 0xae, 0x15, 0xaf, 0x83, 0x1b, 0xee, 0xa5, 0x3f, 0x25, 0x1d, 0xab, 0x72, 0xa8, 0xa4, 0xad,
  0x9c, 0xa9, 0xf2, 0x29, 0x1c, 0x22, 0x16, 0xaf, 0x1c, 0xae, 0xbf, 0x23, 0xd3, 0xab, 0x02, 0xae,
  0xab, 0x19, 0x65, 0xae, 0x1f, 0x27, 0xb8, 0xac, 0x56, 0x2b, 0x9d, 0x2c, 0xdb, 0x2e, 0xdb, 0xac,
  0x8c, 0xa9, 0x71, 0xad, 0xb5, 0xad, 0xd2, 0x2b, 0x2b, 0xa0, 0x78, 0xa4, 0xf0, 0xac, 0x6b, 0x2f,
  0x9b, 0x2d, 0x4c, 0x2c, 0xf2, 0xad, 0x1c, 0x2d, 0x52, 0x2e, 0x18, 0xae, 0x7b, 0xa9, 0x4f, 0xa7,
  0xc3, 0xa1, 0xd6, 0x2f, 0xdd, 0xa4, 0x68, 0x98, 0x83, 0x2e, 0xb8, 0x2c, 0x14, 0x29, 0x07, 0xaf,
  0x53, 0xac, 0x48, 0xaa, 0x3a, 0x24, 0x05, 0xac, 0x8d, 0xa0, 0x36, 0xab, 0x7f, 0xad, 0x29, 0xae,
  0x0a, 0xaa, 0xa8, 0x2d, 0x15, 0xab, 0x45, 0xac, 0xad, 0x2c, 0x47, 0x2d, 0x45, 0x2f, 0xe7, 0x9b,
  0x96, 0x2d, 0x45, 0xaa, 0xe7, 0x27, 0xcb, 0xa4, 0x27, 0xae, 0xc0, 0xa9, 0x8a, 0xa9, 0xe3, 0xac,
  0x3a, 0xa9, 0x4f, 0x27, 0xc2, 0x2f, 0x1f, 0xad, 0xa7, 0x26, 0xf9, 0x2a, 0x43, 0x2f, 0x6e, 0xac,
  0x78, 0x2d, 0x99, 0x1c, 0x7e, 0xa3, 0x1a, 0xa6, 0xd6, 0xab, 0x1d, 0xaa, 0xd4, 0xac, 0xf5, 0xad,
  0x11, 0xab, 0xb5, 0x2d, 0xb2, 0x2d, 0x36, 0xac, 0x67, 0xa8, 0x6f, 0xac, 0xcf, 0xad, 0xfb, 0xa6,
  0x8c, 0x22, 0x0e, 0xad, 0x37, 0x21, 0x2f, 0xae, 0x9f, 0x0f, 0x9b, 0x19, 0x91, 0xad, 0x9e, 0x2d,
  0x06, 0x2c, 0x46, 0x26, 0xab, 0x2e, 0x97, 0xad, 0x6e, 0x2b, 0x02, 0x2e, 0x0a, 0xac, 0x85, 0x2d,
  0x3c, 0xad, 0x4a, 0xa8, 0xd2, 0xa8, 0x6f, 0xa8, 0x12, 0x2a, 0x2f, 0x28, 0x62, 0x21, 0xc7, 0xae,
  0x9b, 0x24, 0x9a, 0xa3, 0xdc, 0x24, 0x96, 0x2e, 0x5e, 0xb0, 0xaa, 0x26, 0x0d, 0x9c, 0x69, 0x2f,
  0x16, 0x23, 0x78, 0x97, 0x97, 0x9d, 0x68, 0x2c, 0x64, 0x2f, 0x34, 0xa5, 0xab, 0xad, 0x4d, 0x2b,
  0x88, 0x2c, 0x6f, 0xa9, 0xde, 0xac, 0xf3, 0xab, 0x35, 0xa8, 0x61, 0x9f, 0x0b, 0x2d, 0x01, 0x2d,
  0xac, 0xac, 0x99, 0x28, 0x68, 0x99, 0xf7, 0x20, 0xb2, 0x29, 0xb1, 0x12, 0xe2, 0x24, 0x52, 0xae,
  0xef, 0x29, 0x1c, 0x23, 0x7e, 0x2c, 0x93, 0x26, 0xc8, 0x2c, 0x75, 0xa7, 0x65, 0xaa, 0x52, 0xab,
  0x1d, 0x2e, 0x87, 0x2b, 0xd8, 0xa4, 0x40, 0x2a, 0x36, 0x26, 0xd8, 0xa5, 0x95, 0xad, 0x57, 0x2e,
  0xa0, 0x27, 0x14, 0x2e, 0x4e, 0x2d, 0xe4, 0x88, 0xd9, 0xab, 0xe7, 0xa7, 0x92, 0x29, 0x33, 0xad,
  0x22, 0xad, 0x40, 0xaf, 0x7d, 0x25, 0xc6, 0xad, 0x1e, 0x9e, 0xab, 0x2b, 0x54, 0x23, 0x74, 0xa9,
  0x39, 0xad, 0x10, 0x20, 0xf6, 0x8c, 0x4f, 0xae, 0x8e, 0x2b, 0x6a, 0xad, 0x20, 0xa3, 0xea, 0xab,
  0xd2, 0x2c, 0x5f, 0xa9, 0x90, 0xa5, 0xf0, 0x26, 0xc7, 0x2d, 0x70, 0x2d, 0x1d, 0x20, 0xa9, 0xab,
  0x94, 0x94, 0x77, 0x2e, 0x3b, 0xaf, 0x42, 0x2e, 0x51, 0xa6, 0x52, 0x22, 0x35, 0xac, 0x67, 0x2d,
  0x5e, 0xad, 0x5b, 0x2f, 0x81, 0x28, 0x50, 0xa4, 0xd9, 0x2c, 0x20, 0xac, 0x71, 0xa7, 0xd3, 0xa3,
  0x45, 0x2c, 0xee, 0x29, 0x02, 0x2e, 0x0b, 0xad, 0xd4, 0xac, 0xb3, 0x2c, 0xd0, 0x2e, 0x6f, 0x2b,
  0x5c, 0x26, 0x1e, 0x24, 0xf6, 0xac, 0x7a, 0xaa, 0xab, 0x2e, 0xda, 0xa4, 0x8e, 0xae, 0x48, 0xa7,
  0x52, 0xaa, 0x4a, 0x2e, 0xc3, 0x26, 0x03, 0xa1, 0x69, 0x17, 0x1c, 0x25, 0x58, 0xac, 0xcd, 0x28,
  0x1c, 0x2c, 0xa7, 0xae, 0xad, 0xad, 0x7b, 0x2c, 0x97, 0xad, 0xc1, 0x1f, 0x56, 0x2e, 0x5d, 0x2a,
  0xe9, 0x20, 0x96, 0xae, 0x5b, 0x21, 0xc8, 0x2d, 0xcd, 0x2d, 0x0f, 0xa4, 0x18, 0xa6, 0x11, 0xa4,
  0x23, 0xa0, 0x5b, 0x22, 0x9f, 0x2e, 0xf4, 0xad, 0xea, 0xac, 0xad, 0x2b, 0x01, 0x28, 0xf4, 0xab,
  0xb9, 0xa4, 0x13, 0xb0, 0x39, 0xa8, 0x9a, 0x24, 0xa2, 0xa4, 0x6a, 0xae, 0x17, 0x2c, 0x4b, 0x2a,
  0xb5, 0xa2, 0x56, 0xae, 0xfe, 0xab, 0x5f, 0xae, 0x9d, 0x20, 0x5c, 0xad, 0xe8, 0xa6, 0x98, 0x2d,
  0x89, 0x29, 0x69, 0xa5, 0x28, 0x2a, 0xe2, 0xaa, 0x6e, 0x2e, 0x03, 0x2b, 0x1f, 0x2d, 0x76, 0xa9,
  0x1d, 0xac, 0xa0, 0x2d, 0x97, 0x26, 0xe8, 0xa8, 0x07, 0x28, 0x96, 0x2e, 0x43, 0x9a, 0x56, 0xac,
  0x3e, 0xad, 0x93, 0x9c, 0xc2, 0xad, 0x2c, 0xab, 0x78, 0x2e, 0x4d, 0xa8, 0xe6, 0x2a, 0xf2, 0x2a,
  0x0b, 0x2b, 0xc5, 0xac, 0xd6, 0xae, 0xaf, 0x29, 0x85, 0x1b, 0x8f, 0xa2, 0xc6, 0x2c, 0x67, 0x86,
  0xe9, 0xa4, 0x2b, 0x2c, 0xec, 0x25, 0xf2, 0x2b, 0xf0, 0xad, 0x67, 0xad, 0xf3, 0xa1, 0x3a, 0xae,
  0x9a, 0x21, 0xab, 0x29, 0xff, 0x2b, 0xb8, 0x2b, 0x54, 0xa9, 0xa8, 0x2c, 0xfe, 0x26, 0x23, 0x21,
  0xb0, 0x2c, 0xb5, 0x29, 0x7c, 0xac, 0xf9, 0xa4, 0xdb, 0x29, 0x33, 0xac, 0x85, 0x13, 0x80, 0x28,
  0xe0, 0x2e, 0xc0, 0x28, 0x4f, 0x19, 0x3d, 0xa9, 0x26, 0xa7, 0xe4, 0x2a, 0xf4, 0x2d, 0xca, 0xae,
  0xe8, 0x26, 0xea, 0x9c, 0x5a, 0xaa, 0xf1, 0xad, 0x1a, 0x2e, 0x64, 0x2b, 0xf1, 0xac, 0x24, 0xae,
  0x91, 0x2c, 0x0b, 0x83, 0x38, 0xa9, 0x74, 0xad, 0x9d, 0x2a, 0xaf, 0x19, 0xf4, 0xaa, 0x55, 0x2e,
  0xf4, 0xa8, 0xbb, 0x2c, 0xae, 0x28, 0x30, 0xaa, 0x5a, 0x2d, 0x90, 0x24, 0x58, 0xa1, 0x20, 0x2d,
  0xcc, 0x8b, 0x02, 0x2c, 0x25, 0xa8, 0x7d, 0x2c, 0x1e, 0x2d, 0x8d, 0xaa, 0xc8, 0x2c, 0x9f, 0x2e,
  0xc4, 0xad, 0x0e, 0xab, 0x69, 0xac, 0x71, 0x27, 0xd2, 0xad, 0xb1, 0xae, 0x02, 0xac, 0xcf, 0xa9,
  0xf7, 0xa8, 0x85, 0xae, 0xf7, 0xac, 0xf2, 0x2a, 0xf3, 0xae, 0x41, 0xad, 0x94, 0xab, 0x30, 0x22,
  0x19, 0x23, 0x42, 0xac, 0xca, 0xaa, 0x31, 0x9f, 0x8b, 0x1f, 0xcd, 0x28, 0xe2, 0x1e, 0x70, 0xad,
  0xa3, 0xad, 0x1a, 0xa8, 0x36, 0xab, 0xce, 0xa9, 0x98, 0xad, 0xb7, 0x25, 0xf5, 0xac, 0x7d, 0x26,
  0x94, 0xab, 0x6f, 0x2b, 0xda, 0xa5, 0x44, 0xac, 0xbc, 0x2a, 0x20, 0x28, 0x9f, 0x2d, 0x3d, 0x28,
  0xa8, 0x2e, 0xfc, 0x22, 0xd5, 0x27, 0x0e, 0x1c, 0x84, 0xac, 0x58, 0xa3, 0xdc, 0xac, 0xdd, 0xae,
  0xea, 0x2c, 0x81, 0x2d, 0x5c, 0x20, 0xed, 0x2c, 0x6d, 0x2b, 0x5f, 0xaf, 0x87, 0xaa, 0x52, 0xac,
  0xb3, 0xa0, 0x19, 0xad, 0x70, 0x29, 0xc0, 0xab, 0x8f, 0x27, 0x6a, 0x2c, 0x3c, 0x20, 0x17, 0xac,
  0xe3, 0x2c, 0x9a, 0xa8, 0xcb, 0x29, 0x23, 0xa6, 0x5e, 0x1d, 0x52, 0xa4, 0x23, 0xa2, 0xec, 0x9b,
  0x20, 0xae, 0x14, 0x2c, 0xd6, 0xad, 0x43, 0x2c, 0x60, 0x2a, 0x87, 0xa4, 0x06, 0xac, 0xbc, 0x18,
  0x65, 0xaa, 0x80, 0xa9, 0x62, 0xac, 0x67, 0xa4, 0x70, 0xa2, 0xe9, 0x24, 0xfb, 0xa2, 0xb9, 0x25,
  0x95, 0x29, 0x6c, 0xab, 0x5d, 0xab, 0x47, 0x24, 0x99, 0x2d, 0x06, 0xa8, 0x7d, 0x2e, 0x9e, 0x2b,
  0x8e, 0xaa, 0x1d, 0x25, 0xe9, 0x23, 0x4a, 0xaf, 0x22, 0xa9, 0xf2, 0xa4, 0x9b, 0x2a, 0x9d, 0x2a,
  0x33, 0x27, 0x98, 0xae, 0x16, 0xa8, 0x09, 0xae, 0x21, 0xa8, 0xc2, 0xac, 0x04, 0xad, 0xa7, 0x26,
  0xc1, 0x2d, 0x9b, 0x23, 0xa0, 0xae, 0x58, 0x2a, 0x6c, 0xa6, 0x29, 0x2a, 0x09, 0x2e, 0x20, 0xac,
  0xe6, 0x24, 0x3f, 0x97, 0xdc, 0x27, 0xa5, 0xac, 0x4c, 0x22, 0x14, 0x2c, 0x5f, 0xa9, 0xe7, 0xac,
  0xa3, 0x28, 0xf5, 0x2c, 0x76, 0x15, 0x10, 0xad, 0x5a, 0x2f, 0xae, 0xab, 0x97, 0x29, 0xcb, 0x2d,
  0x18, 0xad, 0x14, 0x23, 0xa5, 0x2d, 0x4a, 0x1a, 0xea, 0xa3, 0x3d, 0x2e, 0xd9, 0xae, 0xea, 0xa9,
  0x3c, 0x2d, 0x63, 0xaa, 0xbe, 0x2b, 0x7c, 0xa9, 0xb4, 0xaa, 0x3e, 0x29, 0x7a, 0xa5, 0x6c, 0x24,
  0x82, 0xad, 0x86, 0xaa, 0x00, 0x2b, 0xba, 0xac, 0x8b, 0x22, 0x33, 0x2c, 0x60, 0x1d, 0x43, 0xab,
  0x66, 0xab, 0x29, 0x25, 0x83, 0x23, 0x10, 0x2d, 0xf3, 0x2a, 0x0a, 0xac, 0x44, 0x2f, 0x7c, 0x2c,
  0x3b, 0xa4, 0x50, 0xa6, 0xa0, 0x2e, 0xc7, 0x99, 0x71, 0xa8, 0xfb, 0x29, 0x2c, 0x23, 0xd8, 0x1f,
  0x11, 0x26, 0x96, 0x21, 0x32, 0x31, 0xf0, 0xaa, 0xec, 0x2c, 0x66, 0xac, 0xf7, 0xa8, 0x16, 0xa7,
  0x3a, 0x2f, 0x33, 0xab, 0x47, 0x2c, 0xad, 0xa8, 0x84, 0x2b, 0xde, 0xad, 0xc1, 0x29, 0x02, 0xab,
  0x2b, 0x2c, 0xe3, 0x8c, 0x99, 0x2b, 0x9c, 0x99, 0x3f, 0x2c, 0x44, 0x1e, 0x87, 0xa2, 0x5d, 0xa3,
  0x82, 0xa9, 0xe3, 0x2a, 0xc5, 0x2a, 0x5b, 0xad, 0x88, 0x2e, 0xa5, 0xa8, 0xca, 0x9e, 0xba, 0x17,
  0x73, 0x29, 0x20, 0xa8, 0xf6, 0x29, 0x55, 0x17, 0x34, 0xac, 0x2f, 0x2c, 0x6c, 0x2c, 0x60, 0x2c,
  0xc4, 0xad, 0x2d, 0xae, 0x82, 0xac, 0x66, 0x86, 0x6a, 0xa9, 0xc4, 0xab, 0x2e, 0xa5, 0xa8, 0xa9,
  0x94, 0xac, 0xb7, 0xb0, 0x2c, 0x2c, 0xa0, 0xac, 0x15, 0x2d, 0x6d, 0xa4, 0xf8, 0xab, 0x73, 0xaa,
  0xfc, 0xa7, 0xd5, 0x2d, 0x51, 0x2d, 0x0b, 0xae, 0x2b, 0xa5, 0x80, 0xaa, 0x60, 0x2a, 0x79, 0xac,
  0x79, 0xae, 0x5c, 0xad, 0xda, 0xac, 0x13, 0x2c, 0x78, 0x2e, 0x31, 0x29, 0x1e, 0x2d, 0xce, 0xac,
  0x1c, 0xad, 0xd4, 0xad, 0xbe, 0xac, 0x30, 0x9b, 0x1d, 0x2c, 0xa6, 0xa6, 0x4f, 0xaa, 0xa3, 0x28,
  0x97, 0xa0, 0xae, 0x28, 0x89, 0xae, 0xe1, 0xae, 0x39, 0x20, 0x1b, 0xa9, 0x66, 0xab, 0x88, 0xa0,
  0x42, 0x15, 0x1a, 0x2d, 0xa3, 0x1a, 0x5b, 0xac, 0xef, 0x2d, 0x1c, 0x2c, 0x46, 0x29, 0xe6, 0x2d,
  0x8b, 0x2d, 0x4a, 0x2d, 0x62, 0xa4, 0x90, 0x1c, 0xdc, 0x2c, 0x5a, 0x2f, 0xbe, 0x9d, 0x8f, 0x2a,
  0x9d, 0xa8, 0xbf, 0x24, 0x64, 0x2c, 0x15, 0xa8, 0xa4, 0x2e, 0x07, 0x24, 0x3f, 0xae, 0x1c, 0x21,
  0x57, 0x2b, 0x18, 0x27, 0xd4, 0xa5, 0xaf, 0xad, 0x76, 0xa5, 0xf2, 0xa9, 0xf7, 0x2c, 0xef, 0xaa,
  0x45, 0x2d, 0x65, 0xa9, 0x08, 0xac, 0x43, 0xaf, 0x0b, 0x2f, 0x9b, 0xa8, 0xda, 0xa7, 0x58, 0x27,
  0xe1, 0xa8, 0xee, 0xab, 0x64, 0xa6, 0x13, 0xae, 0x8e, 0xa5, 0xe8, 0x2d, 0xd1, 0xa6, 0xd0, 0x2e,
  0x10, 0x26, 0xf5, 0x9b, 0xca, 0x2e, 0x71, 0xad, 0xd4, 0x19, 0x47, 0x2d, 0xfb, 0xaa, 0x16, 0x2d,
  0x32, 0xa7, 0x10, 0x2f, 0xfb, 0x27, 0x4e, 0x2a, 0x00, 0x2a, 0x2f, 0x2e, 0x9e, 0x2d, 0x76, 0x19,
  0x71, 0x28, 0x75, 0xa4, 0x66, 0xac, 0x9a, 0xae, 0x33, 0xa8, 0xc4, 0xa5, 0xca, 0xaa, 0x74, 0xae,
  0xbc, 0xa9, 0x6c, 0x2c, 0xb9, 0x28, 0xf7, 0xae, 0xb4, 0xae, 0x6d, 0x29, 0x75, 0xa0, 0xa2, 0x2d,
  0xd2, 0xab, 0xa0, 0x2b, 0x22, 0xa5, 0x5c, 0xaa, 0x06, 0xad, 0x0e, 0xa8, 0x38, 0xa0, 0xf7, 0xaa,
  0x1b, 0x2c, 0x81, 0x2a, 0xe7, 0xaa, 0xfd, 0xa8, 0xbd, 0x2b, 0x4e, 0x2d, 0xd5, 0xa9, 0x5b, 0xad,
  0x4b, 0x23, 0x19, 0x29, 0xf0, 0x2c, 0x34, 0x21, 0x48, 0x2e, 0x3d, 0xa8, 0xfa, 0x27, 0xae, 0x2e,
  0x5d, 0x2c, 0x7d, 0x2d, 0x77, 0x9c, 0x07, 0x2e, 0xf3, 0x2c, 0xf8, 0x2d, 0xca, 0xad, 0x49, 0x2f,
  0x3c, 0xad, 0x1f, 0xae, 0x74, 0x24, 0xa4, 0x2c, 0x5f, 0x28, 0xf8, 0x24, 0x01, 0x29, 0x2b, 0x23,
  0xbb, 0xab, 0x68, 0xaf, 0xae, 0x24, 0x04, 0xac, 0xbb, 0x2e, 0xae, 0x2d, 0x0d, 0xac, 0x0f, 0x9f,
  0xab, 0x21, 0xc1, 0x27, 0x93, 0xa6, 0x87, 0x29, 0xd9, 0x2b, 0x8c, 0xaa, 0xad, 0x2e, 0x23, 0xac,
  0xc1, 0x1a, 0x27, 0xad, 0xeb, 0x2d, 0xfa, 0x1e, 0xe9, 0x2e, 0xe2, 0xa6, 0xbd, 0x2d, 0xc8, 0x15,
  0x1e, 0x2e, 0x88, 0x2e, 0x91, 0xa8, 0x4d, 0x25, 0xd4, 0x98, 0xdf, 0x2d, 0x97, 0xac, 0x27, 0x2e,
  0xe0, 0xac, 0x01, 0xab, 0x7a, 0xa2, 0x18, 0x2a, 0x64, 0x31, 0x86, 0x27, 0x16, 0x2c, 0x57, 0xa8,
  0x26, 0x2c, 0xef, 0xa9, 0x4f, 0x9e, 0xc0, 0xae, 0xa8, 0x12, 0xc9, 0x2e, 0x08, 0xae, 0x9d, 0xa9,
  0xdb, 0xaa, 0x67, 0x2d, 0x25, 0x2e, 0x9d, 0xad, 0xd5, 0xae, 0x6e, 0x2f, 0x07, 0xaa, 0x32, 0xab,
  0x5b, 0x21, 0xd4, 0x17, 0xf9, 0x2e, 0x53, 0xa0, 0x53, 0x2a, 0x2d, 0xad, 0xb2, 0x29, 0x27, 0xad,
  0x67, 0x21, 0x21, 0x9c, 0xa6, 0x2a, 0x1b, 0xaa, 0x88, 0x2a, 0xb6, 0x2d, 0xab, 0x1c, 0xf4, 0x9e,
  0x29, 0x28, 0xe3, 0x2e, 0x03, 0x21, 0xc7, 0x2c, 0x8f, 0x2c, 0xe1, 0xa7, 0x10, 0x24, 0xab, 0x94,
  0xdf, 0xa8, 0x98, 0x24, 0x54, 0x94, 0x54, 0x2d, 0xed, 0x2a, 0x02, 0x28, 0x9d, 0xae, 0x7f, 0xae,
  0x94, 0xa0, 0x5c, 0xab, 0x8c, 0x2c, 0x75, 0xa2, 0x70, 0x31, 0xc7, 0xae, 0x6d, 0xad, 0xb2, 0x29,
  0x0e, 0x2d, 0xdf, 0xa7, 0x36, 0x24, 0x9e, 0xad, 0x28, 0x2c, 0x34, 0x2a, 0x51, 0xaa, 0x7b, 0x25,
  0xcc, 0x2a, 0x11, 0xad, 0x27, 0x2c, 0xae, 0xa5, 0xbd, 0xac, 0x9e, 0x2c, 0x69, 0x2a, 0xf5, 0x9f,
  0x9b, 0xac, 0x33, 0xab, 0xb3, 0xa1, 0x49, 0x28, 0x45, 0xaa, 0x33, 0xae, 0x61, 0xa7, 0x2f, 0xa4,
  0xf6, 0xa9, 0xca, 0xab, 0x3b, 0x29, 0x4f, 0xaf, 0x7c, 0xac, 0x06, 0x2d, 0x24, 0x2d, 0x31, 0x29,
  0xf7, 0xa9, 0x62, 0xad, 0xef, 0xae, 0x55, 0x26, 0x36, 0x23, 0x9d, 0x25, 0x4e, 0x2a, 0x51, 0xad,
  0xa0, 0xa8, 0x87, 0xad, 0x42, 0x24, 0xe3, 0xad, 0x6e, 0x2e, 0x1b, 0x2e, 0x7c, 0xac, 0xa4, 0x2e,
  0xa5, 0xab, 0xec, 0xa1, 0x19, 0xac, 0x5e, 0xac, 0xe4, 0xaa, 0xdd, 0x28, 0x58, 0xaf, 0x5d, 0x2a,
  0xdb, 0xac, 0x61, 0x2c, 0x34, 0x2a, 0x59, 0xac, 0x60, 0x2c, 0xf9, 0xa3, 0xe6, 0x28, 0x82, 0xae,
  0x40, 0xad, 0x37, 0x2e, 0x9a, 0xac, 0x9a, 0x9c, 0x72, 0xa8, 0x98, 0x9d, 0xe7, 0xad, 0x6e, 0x2d,
  0x6c, 0x2d, 0x22, 0xac, 0x0c, 0xac, 0xda, 0x01, 0x6f, 0x2a, 0x10, 0xa3, 0xa4, 0x26, 0x1f, 0x2d,
  0x31, 0xad, 0xc7, 0x26, 0x28, 0x2e, 0xe6, 0xa1, 0x10, 0x2b, 0x7f, 0x2e, 0x92, 0x2b, 0x40, 0x2f,
  0x3f, 0xae, 0xc6, 0x2d, 0xc6, 0xb0, 0x80, 0xa8, 0x1a, 0x98, 0x32, 0xa6, 0x8c, 0x21, 0x48, 0x2e,
  0x77, 0xa8, 0x9b, 0xa6, 0xad, 0xa6, 0x71, 0x29, 0xb3, 0xad, 0x65, 0xa8, 0xae, 0xaf, 0x9b, 0x2c,
  0x99, 0x27, 0xd3, 0x2a, 0x6b, 0x2a, 0xac, 0xaf, 0x09, 0xa5, 0x29, 0x1d, 0xcf, 0x2c, 0x50, 0xa0,
  0x4b, 0x2e, 0xf9, 0x2c, 0x0f, 0x2a, 0x44, 0x2e, 0x39, 0xa8, 0x96, 0xaa, 0xa4, 0x2a, 0xbe, 0x2d,
  0xa7, 0xab, 0xe1, 0xa4, 0xc5, 0x2e, 0xeb, 0xa7, 0x2b, 0xac, 0x09, 0x2e, 0x9e, 0x2c, 0xaa, 0x22,
  0x7b, 0xac, 0x32, 0xad, 0xde, 0xa8, 0x97, 0xab, 0xdf, 0x2d, 0xeb, 0xac, 0x97, 0x26, 0x1d, 0x2d,
  0x86, 0xad, 0x36, 0xa5, 0x06, 0xa8, 0xa1, 0xaa, 0xd0, 0x27, 0xa3, 0xa2, 0x37, 0xa8, 0x2d, 0xab,
  0x7d, 0x2e, 0x09, 0xae, 0xa4, 0x2c, 0x07, 0xa4, 0x4c, 0x2f, 0xe4, 0x1f, 0x1e, 0xa7, 0x0e, 0x2c,
  0x03, 0x2c, 0x35, 0xaa, 0x50, 0xb0, 0xef, 0xaa, 0x59, 0xa9, 0x86, 0x2b, 0x71, 0x20, 0x36, 0x25,
  0x42, 0x1f, 0x69, 0xac, 0x80, 0xa1, 0xa8, 0x2c, 0xd6, 0x9e, 0x4f, 0x2d, 0x36, 0xae, 0x2d, 0xa5,
  0x0b, 0x2b, 0xdb, 0x25, 0x50, 0x2c, 0xc8, 0xaa, 0xd4, 0x2c, 0xd8, 0x2b, 0xd0, 0xac, 0xbc, 0xa6,
  0x42, 0x2e, 0x27, 0xac, 0xb8, 0x2c, 0xfb, 0x2c, 0x9e, 0x2a, 0xc8, 0xab, 0xb4, 0x2a, 0xe3, 0x20,
  0x6c, 0x29, 0x96, 0xac, 0x3c, 0x2d, 0x1f, 0xac, 0xf3, 0xa6, 0x62, 0xad, 0xb7, 0xab, 0x38, 0xa9,
  0x74, 0x2c, 0x14, 0xaa, 0xb9, 0xae, 0x0d, 0xa7, 0x3f, 0xaf, 0xd0, 0x2a, 0x29, 0xa1, 0x21, 0xac,
  0x25, 0x29, 0x0f, 0x2b, 0x43, 0x2f, 0x41, 0x26, 0xaf, 0xad, 0x5b, 0xac, 0x65, 0x2c, 0x91, 0xa6,
  0xfe, 0x2c, 0xeb, 0x2c, 0x4f, 0xa7, 0x0e, 0x24, 0x8f, 0x2c, 0x9a, 0xa5, 0x1e, 0x26, 0x9a, 0x28,
  0x83, 0xa5, 0x10, 0xac, 0xe9, 0x14, 0xbd, 0xac, 0x8f, 0xac, 0x22, 0xa4, 0xbe, 0x9d, 0x52, 0xa0,
  0x3f, 0x29, 0xeb, 0xac, 0x53, 0x1d, 0xa2, 0xad, 0x16, 0x2d, 0x55, 0x24, 0x9f, 0xac, 0xbf, 0x23,
  0x0a, 0xa8, 0x81, 0xa9, 0xb0, 0xae, 0xa2, 0x29, 0xe9, 0x25, 0x24, 0xa8, 0xee, 0xad, 0x4c, 0xa9,
  0xd7, 0x2d, 0x50, 0xae, 0x65, 0xaa, 0xe2, 0x21, 0xe8, 0x26, 0x37, 0x2c, 0xd5, 0xae, 0x04, 0x2d,
  0x3c, 0x27, 0x14, 0x24, 0x61, 0xa9, 0x0a, 0x2d, 0xbf, 0x2e, 0xe0, 0x2c, 0x79, 0x2b, 0xa1, 0x25,
  0x93, 0x23, 0x28, 0xae, 0x38, 0x26, 0x02, 0xad, 0xfd, 0x1d, 0x5f, 0xa5, 0xb7, 0xaa, 0xa6, 0x2c,
  0xc8, 0x26, 0x71, 0x2d, 0x3b, 0x2c, 0x3b, 0xa5, 0x16, 0x1c, 0xe5, 0x0c, 0x4d, 0xa9, 0x03, 0xac,
  0x0a, 0xad, 0x4c, 0xab, 0xb7, 0xa7, 0x99, 0xab, 0x89, 0xaf, 0xf3, 0xab, 0x54, 0xad, 0x2a, 0xa3,
  0x96, 0x22, 0x72, 0xad, 0x0a, 0x2e, 0x0f, 0xb0, 0x0b, 0x1c, 0xa2, 0x27, 0xfc, 0xa6, 0x35, 0x2d,
  0xb0, 0x22, 0x2c, 0x27, 0x0c, 0x27, 0x63, 0xae, 0xef, 0x26, 0x8b, 0x1b, 0x8f, 0x2a, 0xe6, 0x2c,
  0xd0, 0xaa, 0x65, 0xae, 0x49, 0x2f, 0x72, 0x2d, 0x5c, 0xac, 0x23, 0x2c, 0x65, 0x28, 0xb4, 0x21,
  0xe3, 0x29, 0xb8, 0x24, 0x21, 0xac, 0x75, 0xa4, 0xc4, 0x2e, 0x37, 0x2c, 0xe3, 0xac, 0x3e, 0xaa,
  0xc1, 0x28, 0x25, 0x1c, 0x47, 0xb0, 0x1a, 0x2e, 0xdf, 0x27, 0x79, 0x2c, 0x48, 0x28, 0xb1, 0x28,
  0xd1, 0x2d, 0x34, 0x2e, 0x19, 0x26, 0xff, 0xaa, 0x1d, 0x2a, 0x69, 0x2d, 0x49, 0x25, 0xa2, 0x2c,
  0xb7, 0x19, 0x84, 0xa9, 0x32, 0x1c, 0x33, 0x9b, 0xc9, 0xb0, 0x07, 0x2b, 0x46, 0xae, 0xf7, 0xab,
  0x78, 0xa3, 0x0c, 0x28, 0xb4, 0x29, 0x0f, 0x28, 0xde, 0xa5, 0xb5, 0x2c, 0xe5, 0xad, 0xa8, 0xae,
  0x70, 0x21, 0xf6, 0xac, 0xb0, 0x9e, 0x59, 0x27, 0xa3, 0x29, 0x1b, 0x2d, 0x10, 0xae, 0xe4, 0x29,
  0xd2, 0xa9, 0x14, 0x28, 0xb1, 0xa5, 0xd7, 0xac, 0x5b, 0x2d, 0xb8, 0xa8, 0x64, 0xa8, 0x31, 0xa1,
  0x5f, 0x24, 0x35, 0xac, 0x3f, 0x92, 0x5d, 0xa8, 0xd6, 0xae, 0x72, 0x24, 0x0c, 0xa6, 0x80, 0x2e,
  0xca, 0x2e, 0x7b, 0x2e, 0x2d, 0xaf, 0x46, 0xab, 0xdb, 0xae, 0x4f, 0x2a, 0xab, 0x28, 0xe9, 0xa8,
  0x19, 0x2d, 0xa0, 0x2c, 0x30, 0xab, 0x78, 0xa5, 0x68, 0x2c, 0x82, 0xae, 0x70, 0xa7, 0x1a, 0x27,
  0x9c, 0xab, 0x79, 0x2c, 0xfb, 0x22, 0xdb, 0xac, 0x7b, 0xaf, 0x70, 0x25, 0xbf, 0x29, 0xdd, 0xa0,
  0xdd, 0x89, 0x65, 0x2c, 0x88, 0x27, 0x66, 0x2c, 0x93, 0xad, 0xcc, 0x9c, 0xa1, 0x2e, 0x75, 0x24,
  0xfa, 0x2d, 0x98, 0x28, 0xa3, 0x2e, 0xeb, 0x2d, 0x51, 0xac, 0x35, 0xac, 0xf3, 0x2e, 0x93, 0xac,
  0x37, 0xac, 0x5b, 0xaa, 0x28, 0xa8, 0xc2, 0xa7, 0x60, 0x2f, 0x62, 0xaa, 0xeb, 0x2e, 0x8d, 0x29,
  0x0c, 0xad, 0x75, 0x2c, 0x9c, 0x23, 0xe4, 0x2a, 0xea, 0x29, 0x75, 0xae, 0xa6, 0x29, 0xf6, 0xae,
  0xf7, 0xac, 0x3c, 0xae, 0x5b, 0x2a, 0xe4, 0x29, 0xcb, 0x29, 0x8a, 0x2d, 0x4f, 0x2d, 0x51, 0xad,
  0xb7, 0xa1, 0x6a, 0x9d, 0x4d, 0x28, 0x4c, 0x1b, 0x65, 0x2c, 0x47, 0xa4, 0xf5, 0x2d, 0x06, 0xa8,
  0x5d, 0x2a, 0x49, 0xab, 0x13, 0x2f, 0x06, 0x2c, 0x87, 0x2e, 0x6b, 0xa8, 0x91, 0xa0, 0xe7, 0x2a,
  0x81, 0xa4, 0x48, 0xaa, 0xfa, 0x25, 0x35, 0xab, 0xe3, 0xae, 0xd2, 0x27, 0x48, 0xad, 0xc9, 0x24,
  0x3c, 0x17, 0xf3, 0xac, 0xc0, 0xae, 0xfb, 0xad, 0x77, 0xac, 0xdf, 0x29, 0xfd, 0xa0, 0x53, 0x25,
  0x72, 0xa8, 0x7b, 0xa8, 0xc7, 0x28, 0xcd, 0x27, 0xa1, 0x2a, 0x13, 0x2d, 0x1e, 0xae, 0x20, 0x2c,
  0xde, 0x2b, 0xd4, 0xad, 0x53, 0xab, 0x3c, 0xa9, 0x7b, 0x29, 0xe4, 0x2e, 0xd7, 0x1e, 0xc0, 0x30,
  0xa0, 0xa9, 0xd6, 0x27, 0xf4, 0x2a, 0x41, 0xac, 0x7d, 0xab, 0x51, 0x2d, 0x77, 0xa8, 0xd5, 0x2c,
  0xff, 0x28, 0xe3, 0x2c, 0xb6, 0x2a, 0x50, 0x2d, 0xf7, 0x26, 0xd4, 0x20, 0x98, 0xad, 0x53, 0xae,
  0x9e, 0xa7, 0x83, 0xaa, 0xd3, 0x2b, 0x51, 0x27, 0x20, 0x29, 0x66, 0xa5, 0x4e, 0x2a, 0xb2, 0xac,
  0x93, 0xa5, 0x0c, 0x2b, 0x63, 0xa9, 0x4c, 0x2c, 0x84, 0x23, 0xc4, 0x2a, 0x32, 0x26, 0x2e, 0x20,
  0x28, 0xab, 0xe7, 0xa4, 0x77, 0xab, 0x93, 0x9c, 0x23, 0x2d, 0x93, 0x2c, 0x1d, 0x2a, 0x5a, 0x27,
  0x85, 0xa4, 0x4a, 0x2e, 0x05, 0xae, 0xd0, 0xa7, 0xec, 0x2d, 0x68, 0x2e, 0x66, 0x28, 0xcb, 0xa8,
  0x82, 0xad, 0xb8, 0xac, 0x47, 0xad, 0xb5, 0xad, 0x14, 0x27, 0x47, 0x2c, 0x38, 0xae, 0x16, 0x27,
  0xf8, 0x2b, 0x91, 0x2c, 0xe1, 0xb0, 0x24, 0x28, 0x8d, 0x29, 0xfc, 0x2e, 0x59, 0xa7, 0x1e, 0xae,
  0x15, 0xad, 0x82, 0xa9, 0xdf, 0x29, 0xa0, 0xad, 0x5d, 0xae, 0x99, 0x2a, 0xc3, 0x2c, 0x12, 0x2b,
  0x6a, 0x2c, 0xcf, 0x2d, 0x30, 0x2e, 0xfe, 0x2a, 0xaa, 0x2b, 0xb1, 0xae, 0x9a, 0x26, 0xca, 0x2d,
  0x8c, 0xae, 0x98, 0x29, 0x31, 0xa0, 0x04, 0x2d, 0xd8, 0xac, 0x70, 0x29, 0xfa, 0x2b, 0x27, 0xad,
  0x91, 0x2d, 0x72, 0x24, 0xda, 0xab, 0x41, 0xac, 0xec, 0x1d, 0x96, 0xac, 0x22, 0xa0, 0xab, 0x2c,
  0x5a, 0x2c, 0x18, 0x25, 0x19, 0x20, 0x47, 0x2d, 0x7e, 0x29, 0x52, 0xa7, 0x40, 0xad, 0xc6, 0xac,
  0x71, 0xad, 0xa0, 0x2a, 0x53, 0xa9, 0xfb, 0x24, 0x12, 0xaf, 0x13, 0xac, 0xc7, 0x1d, 0xdc, 0xa7,
  0x15, 0x2d, 0x52, 0xae, 0xe8, 0xae, 0x8e, 0x20, 0x6f, 0x2d, 0x6c, 0xae, 0x9e, 0xa9, 0x61, 0x29,
  0x9f, 0x1d, 0x7c, 0xa0, 0x83, 0xae, 0xef, 0xaa, 0x47, 0x2e, 0x1c, 0xad, 0x17, 0xa8, 0x63, 0x2a,
  0x9a, 0xa9, 0x7d, 0x2e, 0x0d, 0x2e, 0x92, 0x1e, 0x87, 0x25, 0xb5, 0xa9, 0x6b, 0xa9, 0x6e, 0xad,
  0x47, 0xa8, 0xa1, 0x27, 0x1d, 0x20, 0x62, 0xad, 0x59, 0xad, 0x31, 0x9d, 0x2f, 0xae, 0x5f, 0xab,
  0x83, 0x2f, 0x4f, 0xa4, 0x45, 0x2d, 0x23, 0x2d, 0x0d, 0xa5, 0x97, 0xab, 0x38, 0x28, 0x06, 0x25,
  0xe3, 0xa8, 0x6a, 0x2c, 0x3d, 0x22, 0xe7, 0xa9, 0xf1, 0x2a, 0x2a, 0x25, 0x38, 0xad, 0x73, 0x23,
  0x46, 0xa8, 0xa3, 0x9f, 0x3c, 0xa5, 0x74, 0x2d, 0x51, 0xae, 0x7b, 0x1c, 0xfc, 0xa8, 0xc5, 0x2d,
  0xb7, 0x1a, 0xec, 0xab, 0xf4, 0xaa, 0x86, 0x28, 0x42, 0xab, 0x11, 0x2c, 0x63, 0x2a, 0xed, 0xa6,
  0x22, 0xa3, 0x5b, 0xad, 0x4e, 0xad, 0x56, 0x27, 0x63, 0xa8, 0xb1, 0xa9, 0x0e, 0x17, 0x60, 0x29,
  0x21, 0x2e, 0x7b, 0x1d, 0xba, 0xad, 0xd7, 0xaf, 0xe2, 0xa7, 0x0a, 0x2c, 0xa0, 0xab, 0x54, 0x2a,
  0x30, 0x2d, 0xff, 0x24, 0xc7, 0x95, 0x36, 0xa7, 0x2f, 0x2e, 0x61, 0x2d, 0x7e, 0xa1, 0x1f, 0xaa,
  0x57, 0x2e, 0xb0, 0x2c, 0x53, 0xaa, 0x3b, 0xa3, 0xd8, 0x2d, 0x45, 0xae, 0xb6, 0x29, 0x9c, 0x27,
  0xd1, 0xac, 0x90, 0xaa, 0xf8, 0xa4, 0xb9, 0x1e, 0x91, 0xa8, 0xdc, 0x2d, 0x0c, 0x2a, 0xb4, 0x2e,
  0xfb, 0xab, 0x3b, 0x2c, 0x63, 0x2a, 0x78, 0x2e, 0x1d, 0x25, 0x8b, 0x2d, 0x94, 0x2d, 0xd5, 0xab,
  0xbf, 0x2d, 0xaf, 0xad, 0x18, 0x2f, 0xf2, 0x2d, 0x08, 0x2e, 0x1a, 0x2d, 0x22, 0x26, 0x74, 0xad,
  0x00, 0xa2, 0x78, 0x2d, 0x8f, 0x2d, 0x0e, 0x24, 0xde, 0x25, 0x52, 0x2f, 0xfb, 0x9d, 0x09, 0x28,
  0x92, 0x95, 0x1f, 0x23, 0xd2, 0xa9, 0xb7, 0xad, 0x68, 0xa8, 0xa8, 0xa8, 0xe9, 0x0b, 0x68, 0x2e,
  0x11, 0x28, 0xa8, 0xa7, 0x49, 0xb1, 0x34, 0xae, 0x8b, 0x2a, 0x11, 0xa1, 0x60, 0xaa, 0x02, 0x28,
  0xe0, 0x9d, 0xb0, 0x2c, 0x66, 0x2b, 0x3e, 0x2e, 0x5f, 0x29, 0x69, 0x2d, 0x63, 0x2c, 0x80, 0xa9,
  0x95, 0x29, 0x75, 0xa4, 0x50, 0xa8, 0x1f, 0xa9, 0xd6, 0x9c, 0x88, 0x95, 0x88, 0x2e, 0x08, 0xac,
  0x73, 0x9d, 0xe6, 0x2c, 0x3a, 0xa1, 0x04, 0xab, 0x52, 0x28, 0x6a, 0xa8, 0xbe, 0x25, 0x17, 0x2b,
  0xd0, 0xa7, 0x4e, 0x28, 0xb1, 0x2d, 0x2c, 0x2e, 0x01, 0x2a, 0x7e, 0xac, 0x4c, 0xab, 0xff, 0x2a,
  0xa3, 0xa8, 0x12, 0x28, 0xee, 0x2d, 0x35, 0xaf, 0x7f, 0xa5, 0xd2, 0xad, 0xe6, 0x2a, 0x2c, 0xad,
  0x46, 0x29, 0x24, 0x2c, 0x09, 0x2e, 0x1c, 0xad, 0x30, 0x2e, 0x87, 0x2c, 0x37, 0x2d, 0x92, 0x2b,
  0x65, 0xac, 0x50, 0x95, 0x29, 0x29, 0x59, 0xae, 0x9c, 0xad, 0x38, 0xa5, 0xa3, 0x2b, 0xb4, 0xaa,
  0x17, 0xac, 0x58, 0x20, 0xbd, 0x2c, 0x0e, 0x2a, 0x41, 0xa6, 0x1b, 0xab, 0xdd, 0x2d, 0x8d, 0x2c,
  0x70, 0x26, 0xbb, 0x2d, 0xd4, 0x2f, 0xf7, 0x2c, 0xeb, 0x99, 0xf5, 0xac, 0xd0, 0x2a, 0xd0, 0x16,
  0xba, 0xac, 0xb3, 0xb0, 0x5a, 0xac, 0x93, 0x2c, 0xc1, 0xa4, 0xe4, 0x22, 0xfa, 0xa8, 0x4c, 0x2a,
  0x99, 0xac, 0x48, 0xa9, 0xcc, 0xb0, 0x33, 0xaf, 0x6b, 0x99, 0x93, 0x26, 0xa6, 0x2d, 0x87, 0x2c,
  0x63, 0xaf, 0x53, 0x2a, 0x9d, 0x1f, 0xe5, 0xab, 0x82, 0x28, 0x24, 0xac, 0x46, 0x23, 0xff, 0x20,
  0xa6, 0x2d, 0xe3, 0x2c, 0x27, 0x28, 0x7d, 0x24, 0x92, 0xa9, 0x6e, 0x2d, 0x6e, 0x2b, 0x44, 0xa8,
  0x59, 0x2d, 0x35, 0x27, 0x57, 0x22, 0xb8, 0xac, 0xaa, 0x19, 0xfe, 0xa2, 0x58, 0x25, 0x15, 0xac,
  0x38, 0x2e, 0x93, 0x2b, 0x34, 0x2b, 0x9d, 0x2c, 0xd4, 0x26, 0xdf, 0x28, 0xd2, 0xae, 0x5d, 0xaa,
  0x6b, 0x90, 0xb9, 0x25, 0xfb, 0xa6, 0xf7, 0xa1, 0x42, 0x83, 0xf6, 0x21, 0xe8, 0x2a, 0x43, 0xaa,
  0x12, 0x23, 0x59, 0xb1, 0xc0, 0x2e, 0xa6, 0xa7, 0x3b, 0xac, 0x2d, 0xad, 0xbb, 0xad, 0x4c, 0xa5,
  0xb1, 0x29, 0x45, 0x28, 0x09, 0xb1, 0x59, 0xac, 0xeb, 0x25, 0x83, 0x27, 0x5a, 0x2b, 0x55, 0xab,
  0xe9, 0x29, 0xc6, 0xad, 0xa9, 0x29, 0xe2, 0xae, 0xea, 0x24, 0x22, 0x2c, 0x5f, 0x2e, 0xfc, 0xa8,
  0x47, 0x2e, 0x4f, 0xa9, 0xa8, 0x2e, 0xdb, 0x30, 0x34, 0xaf, 0xac, 0x27, 0xd7, 0xa4, 0xe0, 0xa8,
  0x05, 0x2c, 0xb1, 0xb0, 0x3d, 0x32, 0x4c, 0xaf, 0x17, 0x2b, 0x99, 0xab, 0x2c, 0x9f, 0xb0, 0xa6,
  0x45, 0xa9, 0x9a, 0xa9, 0xa2, 0xaa, 0xf0, 0xab, 0xee, 0x2c, 0x5e, 0x2e, 0xbf, 0x2b, 0x43, 0x2a,
  0x8a, 0xb0, 0x08, 0xae, 0x01, 0x2e, 0x9c, 0xaf, 0x7b, 0x2b, 0x23, 0xb0, 0xf0, 0x24, 0xe3, 0xaf,
  0xca, 0x2c, 0x80, 0x1e, 0xc4, 0x97, 0x9f, 0x25, 0xec, 0x2d, 0xec, 0xa6, 0xc3, 0x2b, 0x38, 0x2e,
  0xe3, 0x21, 0xb2, 0xa1, 0x14, 0x34, 0xa6, 0xaf, 0x54, 0xa9, 0x9a, 0x24, 0x89, 0xac, 0x7c, 0xa8,
  0xf2, 0xaf, 0xbc, 0xa8, 0x80, 0x2e, 0x22, 0xac, 0x98, 0x29, 0xb0, 0xaa, 0x08, 0x2d, 0xd9, 0xad,
  0xba, 0x2e, 0x53, 0x2b, 0x69, 0xa9, 0xf6, 0xa9, 0x4e, 0x29, 0x4e, 0x30, 0x4e, 0xa9, 0x96, 0xa3,
  0xea, 0x90, 0x4d, 0xae, 0xc1, 0x2a, 0x1f, 0xac, 0x02, 0xa5, 0x21, 0xa8, 0x25, 0x2f, 0x13, 0x9d,
  0x50, 0x30, 0xe5, 0xae, 0x17, 0x24, 0xd3, 0x1c, 0x4b, 0x20, 0xe1, 0xa9, 0xda, 0xad, 0x05, 0xab,
  0x32, 0x31, 0x39, 0x24, 0xcf, 0x1f, 0x0a, 0x27, 0x50, 0xa8, 0x48, 0xa0, 0x32, 0xaa, 0x14, 0xb0,
  0x37, 0xaa, 0x81, 0x31, 0x73, 0x28, 0xc9, 0x2c, 0x11, 0xae, 0x02, 0xa8, 0x0c, 0x2f, 0xa9, 0x29,
  0xd3, 0x1c, 0xb1, 0x22, 0xf4, 0x2c, 0x74, 0x1d, 0x7a, 0x28, 0x20, 0x2d, 0x8c, 0x24, 0xb4, 0xa9,
  0x50, 0x22, 0x34, 0xaa, 0x2f, 0x2f, 0x62, 0x34, 0x4b, 0xb0, 0xaa, 0xa3, 0x6f, 0x25, 0x09, 0xad,
  0xd2, 0x2f, 0x7c, 0xab, 0x6f, 0xa4, 0x97, 0x30, 0x34, 0xb1, 0x1d, 0x2a, 0x57, 0x2a, 0xe3, 0xa0,
  0xa1, 0x2c, 0x12, 0x31, 0x16, 0xae, 0x0a, 0xab, 0x73, 0x20, 0x1e, 0x2b, 0x26, 0xa0, 0x1a, 0xad,
  0xc2, 0x2e, 0x7a, 0xaf, 0x4a, 0x2c, 0x52, 0x89, 0x15, 0xac, 0x65, 0x29, 0x7c, 0xa8, 0x9d, 0x2d,
  0x7b, 0x30, 0x39, 0x20, 0x26, 0xa8, 0xba, 0xad, 0xea, 0x2f, 0x3f, 0xa9, 0x9a, 0x1a, 0xda, 0xa8,
  0x1a, 0x2b, 0x64, 0x2c, 0x32, 0xad, 0x44, 0x2d, 0x95, 0xa9, 0x88, 0xad, 0x30, 0x24, 0xac, 0xa8,
  0xdb, 0x2b, 0x64, 0x23, 0x0d, 0x29, 0xb4, 0xab, 0x3b, 0xab, 0x86, 0x2d, 0x26, 0xad, 0x7e, 0xa9,
  0xaf, 0xa0, 0x29, 0xa1, 0xe6, 0x2f, 0xf9, 0x2c, 0xe5, 0x28, 0x16, 0xad, 0x6b, 0x1f, 0x87, 0xaa,
  0x4b, 0x2d, 0x0e, 0xac, 0x49, 0x23, 0xd7, 0x2c, 0x84, 0xb4, 0xed, 0x24, 0x0c, 0x2e, 0xad, 0x2e,
  0x6f, 0xac, 0x7d, 0xa2, 0x38, 0xb1, 0xac, 0x2c, 0xe5, 0x21, 0xe8, 0x30, 0xb5, 0x2c, 0x93, 0x95,
  0x27, 0x29, 0x4d, 0xad, 0x4a, 0xa0, 0x58, 0x96, 0x36, 0xaa, 0xfe, 0x23, 0x0b, 0xa8, 0x55, 0x23,
  0xe6, 0xa8, 0x1a, 0x2b, 0x82, 0x25, 0xec, 0xab, 0x7b, 0x2f, 0xa2, 0xaa, 0xcc, 0x26, 0x62, 0xad,
  0x18, 0x30, 0xf8, 0x30, 0x44, 0xaa, 0xb6, 0x25, 0xb0, 0x2a, 0x9c, 0xa8, 0xa9, 0xad, 0x3d, 0xa6,
  0xc0, 0xac, 0x57, 0x21, 0xe1, 0xa6, 0x4e, 0x2d, 0x7f, 0xa9, 0x11, 0x2b, 0xbf, 0xac, 0x60, 0xa8,
  0x30, 0xac, 0x00, 0xad, 0xc6, 0xa2, 0x5b, 0x27, 0x13, 0x2b, 0x76, 0xa9, 0x1c, 0xad, 0xad, 0x24,
  0xe6, 0xa7, 0x70, 0xac, 0x58, 0xab, 0x95, 0xa5, 0x2a, 0xac, 0xa0, 0x28, 0x8d, 0x29, 0xaa, 0xac,
  0xcd, 0x2b, 0xa2, 0xac, 0x92, 0x28, 0xfd, 0xa8, 0xff, 0x2b, 0xd5, 0xaa, 0xa1, 0x1e, 0xbd, 0x28,
  0xe0, 0xa6, 0xc3, 0xaf, 0x1d, 0xa5, 0x6f, 0xac, 0xd2, 0x24, 0x1c, 0x2d, 0x74, 0xab, 0x79, 0xaa,
  0x38, 0x94, 0x0a, 0x30, 0xf7, 0xa9, 0xf0, 0xaa, 0x9b, 0x2c, 0x8a, 0xad, 0x40, 0x2f, 0xf9, 0x29,
  0x22, 0x1f, 0xfd, 0xa1, 0x07, 0x29, 0x5f, 0x92, 0xd1, 0xaa, 0xfb, 0xa5, 0x1c, 0x28, 0x06, 0x2c,
  0x50, 0x2c, 0xe9, 0xa9, 0x54, 0xa8, 0x4b, 0x2b, 0xe9, 0xa4, 0xb8, 0x2e, 0xd5, 0x28, 0x2f, 0x2b,
  0x00, 0x2f, 0xdf, 0x1e, 0x90, 0x2b, 0x41, 0xaf, 0xe6, 0xac, 0x4d, 0xab, 0xce, 0x17, 0xd0, 0x2c,
  0xa6, 0xa5, 0x1b, 0x2f, 0xed, 0x2e, 0x5e, 0x28, 0x80, 0xaa, 0xd0, 0x2d, 0xce, 0x9e, 0x98, 0xae,
  0x26, 0xab, 0x99, 0xa9, 0x18, 0xad, 0x0f, 0x2d, 0x09, 0x2f, 0x23, 0xb0, 0x91, 0x2d, 0xb7, 0x2d,
  0xb6, 0x28, 0xab, 0x1e, 0xdc, 0x2a, 0xbb, 0x2d, 0x5d, 0xac, 0xb7, 0xa9, 0x2c, 0x23, 0x5d, 0x2e,
  0xab, 0xa4, 0x38, 0xa8, 0x1c, 0xa2, 0x23, 0x24, 0x61, 0xa8, 0xe1, 0xa5, 0xcb, 0x2c, 0xe6, 0xae,
  0xbc, 0xa8, 0xae, 0x26, 0x3e, 0xae, 0x33, 0xae, 0x0d, 0x16, 0x4a, 0xaf, 0x1b, 0x2b, 0x6b, 0xa9,
  0x33, 0xa7, 0xd9, 0xab, 0xe5, 0x1d, 0x3a, 0xac, 0x8e, 0xaa, 0x15, 0x2a, 0x9f, 0x23, 0xd9, 0x28,
  0x3e, 0x2e, 0xc4, 0x2b, 0x1d, 0xad, 0x87, 0x21, 0x9f, 0x25, 0x7b, 0xaa, 0x79, 0xac, 0xf1, 0xac,
  0x74, 0x2a, 0xbc, 0xa6, 0x15, 0x2c, 0xbb, 0x2c, 0x9e, 0xb0, 0x6e, 0xa3, 0x7e, 0x24, 0xe7, 0xae,
  0xa6, 0xaa, 0x07, 0x9d, 0xe9, 0xa6, 0xc5, 0xad, 0x20, 0x16, 0xb4, 0x2a, 0x73, 0xac, 0xb2, 0x29,
  0xe0, 0xa8, 0x33, 0xad, 0x6f, 0xa8, 0x48, 0xa6, 0x4e, 0xac, 0xad, 0x2f, 0x10, 0x2c, 0xf0, 0x2c,
  0x32, 0x2a, 0x8e, 0xac, 0x3e, 0xae, 0x69, 0x29, 0xcd, 0x1d, 0x4e, 0x29, 0x77, 0x2e, 0xd4, 0xac,
  0x89, 0x19, 0xd5, 0xad, 0x24, 0x29, 0x89, 0x2c, 0x2f, 0x25, 0xfb, 0x2e, 0x10, 0x24, 0xe0, 0xa4,
  0x72, 0x2b, 0x69, 0x2b, 0x1c, 0x2f, 0x99, 0xa9, 0x0d, 0x9c, 0xe7, 0xae, 0x76, 0xa4, 0x8d, 0x28,
  0xc7, 0xac, 0xd0, 0x24, 0xfa, 0x9e, 0x10, 0xac, 0xc9, 0xaa, 0x68, 0xad, 0x0f, 0x2e, 0x80, 0x1c,
  0xf6, 0x25, 0x6b, 0x11, 0x23, 0x2e, 0x90, 0xaa, 0x73, 0xab, 0xff, 0x9f, 0xd4, 0xac, 0x0e, 0xae,
  0x3a, 0x97, 0x3d, 0xa6, 0x8d, 0x2b, 0x67, 0x2e, 0x11, 0xa9, 0x6a, 0x23, 0x8c, 0x29, 0xdf, 0x2a,
  0xe7, 0x14, 0xa9, 0xa7, 0x6d, 0x2d, 0xd2, 0xa7, 0xab, 0x2b, 0xfd, 0x20, 0x77, 0x2e, 0x8c, 0xa1,
  0xcd, 0xa9, 0x31, 0x25, 0xb4, 0xac, 0xe9, 0x2c, 0x1b, 0xab, 0xab, 0x28, 0xf1, 0x29, 0xe6, 0x28,
  0x57, 0xac, 0xb5, 0xaf, 0x2a, 0x2d, 0x50, 0x20, 0xd3, 0xad, 0xcd, 0xa8, 0xe0, 0xa1, 0x48, 0x2d,
  0x24, 0x2d, 0xc0, 0x2d, 0x4a, 0xaf, 0xc6, 0xaa, 0x30, 0x24, 0xcc, 0x2c, 0xc3, 0xa8, 0xaf, 0x1c,
  0x2b, 0xae, 0xd6, 0x27, 0xf3, 0x2f, 0x79, 0xaa, 0xbc, 0xae, 0x3a, 0xa9, 0x0e, 0xa6, 0xcb, 0x2b,
  0xe9, 0x2d, 0x58, 0x2c, 0xbc, 0xab, 0xa4, 0x2b, 0xed, 0xa8, 0xe8, 0x25, 0x2d, 0xae, 0x91, 0xab,
  0xb3, 0x1f, 0x34, 0x31, 0xb7, 0xa8, 0xaf, 0x2a, 0xa0, 0x28, 0x56, 0x2e, 0x5a, 0xa5, 0x5e, 0x2e,
  0xb5, 0xa8, 0xbb, 0x2d, 0xff, 0xad, 0x24, 0x2a, 0x3f, 0xae, 0x58, 0x22, 0x20, 0x28, 0xe7, 0x2d,
  0xf0, 0x30, 0x56, 0x17, 0x1c, 0x2e, 0xef, 0x25, 0xc7, 0x2c, 0xf7, 0xa9, 0xd3, 0x20, 0x77, 0x26,
  0xf7, 0x1c, 0x87, 0xb0, 0xdd, 0x2d, 0x4b, 0x2c, 0xd6, 0x29, 0xc5, 0xad, 0x1d, 0xad, 0x06, 0x98,
  0x12, 0x1e, 0x08, 0xae, 0x54, 0xaf, 0xa2, 0xad, 0xfc, 0x26, 0x58, 0xac, 0x00, 0x1f, 0x9d, 0x2b,
  0x16, 0xab, 0x2b, 0x2c, 0x4c, 0xb0, 0xcc, 0xa9, 0xaa, 0xac, 0x67, 0xa9, 0xe0, 0xaa, 0xc3, 0x24,
  0xf3, 0xab, 0xc3, 0x27, 0x25, 0x26, 0x70, 0x23, 0x42, 0x28, 0x70, 0xae, 0x9b, 0x2e, 0x61, 0x2c,
  0x37, 0x2b, 0x4a, 0xae, 0x91, 0x24, 0xbf, 0xac, 0x5b, 0xa8, 0x3d, 0x9b, 0x6a, 0x20, 0x2d, 0xad,
  0x9b, 0xae, 0xb4, 0xae, 0x9c, 0xaa, 0x04, 0xac, 0x8f, 0xa5, 0x9a, 0x23, 0xfa, 0x28, 0x84, 0xac,
  0x02, 0xb1, 0xa0, 0x1e, 0xaf, 0x29, 0xd5, 0x2c, 0x82, 0x28, 0xe5, 0xac, 0x88, 0x2d, 0x1a, 0x29,
  0x9a, 0x2f, 0x3b, 0x28, 0x89, 0xa6, 0xef, 0x21, 0x42, 0xac, 0xf7, 0xad, 0x2d, 0xaa, 0x1e, 0x2b,
  0xc9, 0xa8, 0xa5, 0xac, 0x64, 0x31, 0xf0, 0xa0, 0x35, 0xaa, 0xb0, 0x2c, 0x54, 0x2e, 0xc5, 0xa6,
  0xda, 0xac, 0xdb, 0xae, 0x0f, 0x20, 0x6e, 0x26, 0xb3, 0xa7, 0x46, 0x24, 0xba, 0xad, 0xc3, 0x2d,
  0x5a, 0xaa, 0x52, 0x2f, 0x3c, 0xa8, 0x27, 0x2c, 0xeb, 0x2d, 0x00, 0x2c, 0xf1, 0x18, 0xcb, 0xa9,
  0xfa, 0x2a, 0x3e, 0xb1, 0x33, 0x31, 0x9b, 0xaf, 0x59, 0xae, 0xc6, 0x27, 0x85, 0xac, 0xe8, 0x2a,
  0x26, 0x2c, 0xc2, 0xa4, 0x67, 0x15, 0x7a, 0x25, 0x9f, 0x22, 0x5e, 0x2d, 0x76, 0x2f, 0xd0, 0xa8,
  0x4c, 0x32, 0xcc, 0xaa, 0x2c, 0x2c, 0xa0, 0x1d, 0xee, 0x2c, 0x67, 0xad, 0xd5, 0x1f, 0x00, 0xad,
  0x47, 0xa9, 0xe4, 0x2a, 0x21, 0xaa, 0x9c, 0x96, 0x48, 0x29, 0xb7, 0xaf, 0xce, 0x2b, 0x1f, 0x28,
  0xf2, 0x30, 0xce, 0x26, 0x6b, 0x30, 0xfe, 0xa6, 0x25, 0xae, 0x95, 0x29, 0x17, 0xa8, 0xaa, 0x25,
  0x1d, 0xb0, 0x4b, 0x1d, 0x43, 0xa6, 0x51, 0x35, 0x67, 0x2e, 0xce, 0x2a, 0x2c, 0x2f, 0x2d, 0xad,
  0xce, 0x30, 0x36, 0x2e, 0xf8, 0xad, 0x2f, 0xab, 0x4d, 0xb0, 0x39, 0x2e, 0x24, 0xac, 0x5d, 0x29,
  0x49, 0xa6, 0xc4, 0x31, 0x3d, 0xb2, 0xef, 0xad, 0x04, 0xad, 0x02, 0x2a, 0x22, 0xa3, 0x4a, 0xaf,
  0x41, 0xaa, 0xa0, 0xb0, 0x0d, 0x2c, 0x35, 0xab, 0x49, 0x2c, 0xb1, 0x2d, 0x65, 0x2d, 0xab, 0x2f,
  0x25, 0xa9, 0xd9, 0xac, 0x2d, 0xac, 0x7c, 0xac, 0x70, 0xa7, 0xab, 0x23, 0xd4, 0xad, 0x4f, 0x2d,
  0x37, 0xae, 0x02, 0x30, 0xa7, 0x23, 0xf0, 0xae, 0x95, 0xa5, 0x29, 0xa3, 0x8d, 0x2e, 0x80, 0xa5,
  0xb1, 0xa4, 0x84, 0xae, 0xe4, 0xaa, 0x37, 0xae, 0x24, 0xaf, 0x32, 0xa1, 0x45, 0x2c, 0xa9, 0x29,
  0x59, 0xad, 0xac, 0x2d, 0xc3, 0x27, 0x97, 0x33, 0x90, 0xab, 0x30, 0x20, 0x76, 0x29, 0xc4, 0x2d,
  0x18, 0xa5, 0xb2, 0xa6, 0xfa, 0xad, 0x12, 0x21, 0xbd, 0xb0, 0x92, 0x2c, 0x86, 0x2c, 0xa9, 0x25,
  0xda, 0x2a, 0x06, 0x1c, 0x25, 0x2f, 0x4d, 0x15, 0x4f, 0xaa, 0x40, 0x2b, 0xbc, 0x2c, 0xfb, 0x2c,
  0x3a, 0x28, 0x66, 0xaa, 0x03, 0x2e, 0xfc, 0x2c, 0xc6, 0x9e, 0xa5, 0xa8, 0x70, 0x2e, 0xbf, 0x2c,
  0x1b, 0x2d, 0xee, 0xad, 0x9a, 0x1c, 0x58, 0x29, 0x7f, 0x29, 0x39, 0xaa, 0x82, 0x2f, 0xe4, 0x20,
  0x07, 0x2d, 0x34, 0x24, 0x85, 0x26, 0xa8, 0xa7, 0x25, 0x22, 0x9d, 0x9e, 0x67, 0xaf, 0xf7, 0x2d,
  0x6d, 0x2c, 0xb9, 0x2d, 0x38, 0x23, 0x65, 0xa7, 0x34, 0xad, 0xb1, 0x25, 0x5b, 0xac, 0x34, 0x29,
  0x2b, 0xa7, 0x42, 0x2d, 0xf4, 0x2b, 0xd5, 0xae, 0x0b, 0xa6, 0x0e, 0x2d, 0x5c, 0x21, 0x41, 0xab,
  0xf1, 0x28, 0xfd, 0xa9, 0xbb, 0xac, 0x4f, 0xae, 0x5b, 0x28, 0x37, 0x26, 0x1c, 0x2b, 0x14, 0x26,
  0x2e, 0xad, 0xaa, 0xb2, 0xba, 0x2e, 0x1b, 0x2e, 0x58, 0x89, 0x26, 0x2c, 0x38, 0xa5, 0xb0, 0x2c,
  0x96, 0xa0, 0x91, 0x2c, 0x28, 0xa8, 0xe1, 0x2a, 0x22, 0x2e, 0x29, 0x2e, 0x16, 0x2d, 0x13, 0xad,
  0xdb, 0x24, 0x6e, 0xa9, 0x9c, 0xa2, 0x3c, 0xaf, 0x7f, 0xaf, 0x5b, 0x26, 0x19, 0x29, 0x6f, 0xa4,
  0x4f, 0xaa, 0x5b, 0x2c, 0xd5, 0x2b, 0xe3, 0xa2, 0x89, 0xac, 0x2d, 0x28, 0x1f, 0xac, 0x05, 0x25,
  0xc3, 0x20, 0xea, 0x1a, 0xcb, 0xa6, 0x3b, 0x2b, 0x4c, 0x2d, 0xc3, 0xac, 0x01, 0xaa, 0x4d, 0x2e,
  0x38, 0x2c, 0xfb, 0x23, 0xa3, 0x24, 0x66, 0xb0, 0x2d, 0x2a, 0x15, 0x2b, 0x6c, 0xad, 0xd5, 0xa7,
  0xbc, 0x1a, 0x06, 0xa9, 0x87, 0xa6, 0x50, 0x29, 0x50, 0xb0, 0x20, 0xae, 0xa6, 0x95, 0xd8, 0x15,
  0x8e, 0xa4, 0x98, 0x98, 0x01, 0x2f, 0xcc, 0x2c, 0x00, 0x27, 0x37, 0xa4, 0xff, 0xa8, 0xfe, 0xa3,
  0x17, 0x29, 0xd1, 0xac, 0x5d, 0x89, 0xac, 0xab, 0x0a, 0x9a, 0x11, 0xa5, 0x2f, 0x2c, 0xf5, 0xab,
  0xaf, 0xa2, 0x3a, 0x2d, 0x75, 0xa4, 0xd6, 0xad, 0xf3, 0x20, 0x12, 0xad, 0xab, 0xab, 0x9e, 0xad,
  0x80, 0x2c, 0x5f, 0xae, 0xcb, 0x2d, 0xb5, 0xa6, 0x82, 0x9f, 0xdc, 0x29, 0xe2, 0xae, 0xa0, 0x29,
  0x6b, 0xa8, 0x47, 0x2d, 0xa3, 0xad, 0x73, 0xad, 0xb7, 0x2c, 0xc9, 0xac, 0xb5, 0xae, 0x34, 0x22,
  0x02, 0x23, 0xa7, 0x2c, 0x01, 0x2d, 0x6f, 0x2b, 0xc1, 0xac, 0x98, 0xab, 0xbf, 0xab, 0x78, 0x2c,
  0xc8, 0x2c, 0x14, 0xab, 0xa4, 0x9f, 0x36, 0x2a, 0x6e, 0xae, 0x54, 0x2d, 0x03, 0x2e, 0x1d, 0xa5,
  0xa8, 0xae, 0x77, 0xa7, 0x36, 0xad, 0xfa, 0x98, 0x09, 0x2e, 0x4b, 0x2e, 0x16, 0x2e, 0x69, 0x2d,
  0x60, 0xa7, 0xfe, 0x20, 0x4b, 0x2a, 0x9c, 0xac, 0xf0, 0x2b, 0xd6, 0x27, 0xc8, 0x2e, 0x46, 0xad,
  0x90, 0x2c, 0x21, 0xaa, 0x41, 0x2c, 0x8e, 0xac, 0x8a, 0x25, 0xac, 0x2d, 0xbf, 0x2e, 0x51, 0x29,
  0xf3, 0x2d, 0x9b, 0xab, 0xf0, 0x2e, 0x8c, 0x2d, 0xd5, 0xaa, 0x16, 0x2f, 0x7c, 0xa4, 0x54, 0x2a,
  0x32, 0xaa, 0x42, 0x2c, 0x06, 0x26, 0xeb, 0x21, 0x3d, 0x2c, 0xd3, 0xad, 0x94, 0x28, 0x96, 0x2b,
  0x72, 0xad, 0xde, 0x2b, 0x1c, 0xaf, 0x10, 0xa9, 0x83, 0x21, 0x88, 0xa7, 0xa3, 0xad, 0xa2, 0x27,
  0x88, 0x2e, 0x3f, 0xab, 0x60, 0x25, 0x1a, 0x2e, 0xe4, 0xb0, 0xd7, 0x9d, 0x2c, 0xa1, 0x27, 0x2d,
  0x3f, 0xac, 0xdf, 0x2d, 0x78, 0x2b, 0x4a, 0xa0, 0x17, 0x2b, 0x5c, 0xab, 0x6d, 0x25, 0x5e, 0xab,
  0xd9, 0x2a, 0x69, 0x2e, 0xe3, 0x2a, 0xd5, 0x2e, 0x23, 0x2a, 0xe2, 0x24, 0xfb, 0x2c, 0xfb, 0xac,
  0x5c, 0xa7, 0x12, 0x27, 0xef, 0xac, 0x6c, 0x2c, 0xa7, 0xad, 0xb0, 0xa3, 0xea, 0x2c, 0x92, 0x2e,
  0xa3, 0xa5, 0x13, 0x1e, 0x26, 0x27, 0x54, 0xab, 0x0c, 0x21, 0xb9, 0x2d, 0x3f, 0x15, 0x0d, 0xa8,
  0xf8, 0xa7, 0x79, 0xaa, 0x6d, 0x1b, 0x80, 0xa5, 0xad, 0xaf, 0x0a, 0x1f, 0x25, 0xac, 0xa4, 0x25,
  0x75, 0xab, 0xaa, 0xaa, 0x40, 0xae, 0x82, 0x2b, 0x64, 0x9f, 0x63, 0xa5, 0xd8, 0xac, 0x26, 0xac,
  0x43, 0xa5, 0x1d, 0x2c, 0xe8, 0x2a, 0xf8, 0xab, 0x86, 0x33, 0xc4, 0x29, 0x75, 0xa9, 0x08, 0xad,
  0xdc, 0xae, 0x14, 0x33, 0x95, 0x30, 0x29, 0x2f, 0x38, 0xae, 0xcd, 0xa2, 0x12, 0xad, 0xaf, 0xaa,
  0x38, 0x2b, 0x6d, 0x2e, 0x29, 0x25, 0x2c, 0x9e, 0x4f, 0xab, 0x25, 0x2f, 0x1f, 0x2d, 0xd9, 0xa8,
  0x76, 0x31, 0x9e, 0xa2, 0x92, 0x2c, 0x64, 0xad, 0xb8, 0xae, 0xac, 0x9a, 0x54, 0x2d, 0x22, 0x2c,
  0x21, 0x22, 0x39, 0x29, 0x9b, 0xad, 0x54, 0x9f, 0x89, 0x27, 0xb7, 0x9e, 0xa2, 0xa5, 0x63, 0xaf,
  0x01, 0x2c, 0x6c, 0xac, 0x90, 0x30, 0xb0, 0xac, 0xbb, 0xad, 0x2e, 0x2e, 0x3e, 0x2b, 0x30, 0x2e,
  0x88, 0x2f, 0xd0, 0xa8, 0x0b, 0xae, 0xd8, 0xad, 0x9e, 0xac, 0x27, 0xa8, 0x70, 0xad, 0xdc, 0xa0,
  0x46, 0xa8, 0x4e, 0xa8, 0x82, 0x29, 0x15, 0xa5, 0x23, 0x2f, 0x5d, 0xac, 0x54, 0x2c, 0xc8, 0xa6,
  0x77, 0x28, 0xc9, 0xa9, 0x1d, 0xaf, 0x20, 0xa4, 0xb9, 0xac, 0xab, 0xae, 0x16, 0x2c, 0x22, 0x22,
  0xe6, 0x29, 0x0f, 0x2a, 0x9f, 0x14, 0xbf, 0x29, 0xd0, 0xa8, 0x25, 0xa3, 0xb3, 0xaa, 0x81, 0x95,
  0x31, 0xb0, 0xd7, 0xa9, 0x46, 0x2f, 0x6b, 0x2d, 0x72, 0x28, 0xa3, 0xac, 0x04, 0x2c, 0xdc, 0xa8,
  0x0d, 0x2b, 0x03, 0xb3, 0x6c, 0xa8, 0x17, 0xa5, 0xd7, 0xa5, 0xdb, 0xa7, 0x16, 0xa1, 0xbe, 0x23,
  0x1f, 0x2c, 0xe8, 0x21, 0x85, 0x33, 0x5b, 0xab, 0x9e, 0x2d, 0x5f, 0x1f, 0xa4, 0xad, 0x6c, 0xad,
  0xa9, 0xad, 0x0a, 0x28, 0x52, 0x25, 0xa1, 0xac, 0xb6, 0x18, 0x78, 0xa2, 0x7c, 0x29, 0xa8, 0xad,
  0xd0, 0x2f, 0x72, 0xac, 0x6e, 0xac, 0xc0, 0x1f, 0xd0, 0x2c, 0xed, 0xa7, 0xc0, 0xad, 0x9f, 0xae,
  0xe7, 0x27, 0x26, 0xaf, 0xf8, 0xaa, 0x5b, 0x25, 0x2e, 0x29, 0x6d, 0xa5, 0x8e, 0x1e, 0xe7, 0x2a,
  0x6c, 0xaa, 0x82, 0xaf, 0xa1, 0xac, 0x54, 0x29, 0x24, 0xad, 0x7a, 0x2e, 0x68, 0xa8, 0x72, 0x2b,
  0x09, 0xa8, 0x7b, 0xaf, 0x11, 0x25, 0x09, 0x2c, 0xfc, 0x2c, 0x2e, 0x26, 0x7d, 0xa6, 0x68, 0xa5,
  0x78, 0xac, 0x61, 0x1f, 0xa6, 0xad, 0x99, 0x2c, 0xb8, 0x25, 0x47, 0xac, 0x8f, 0x2d, 0xfd, 0x2f,
  0x10, 0x2f, 0x7c, 0x95, 0xdb, 0x2c, 0x26, 0x2d, 0x5e, 0x20, 0x02, 0x96, 0xe0, 0x2e, 0xda, 0x2c,
  0x17, 0x9e, 0x19, 0x99, 0x70, 0xad, 0x96, 0x31, 0x46, 0xaf, 0xa6, 0xaa, 0x34, 0xae, 0xd7, 0xac,
  0xbf, 0x26, 0xb0, 0x27, 0x42, 0x2c, 0x4d, 0x1f, 0xd3, 0x2e, 0xa3, 0x2a, 0x77, 0xad, 0xf8, 0x20,
  0xf2, 0x20, 0xac, 0xaa, 0x58, 0x26, 0xed, 0xa3, 0x52, 0x2e, 0xc1, 0xa0, 0xdb, 0xab, 0x2c, 0x28,
  0x49, 0x29, 0x22, 0xaf, 0x13, 0x2c, 0x5c, 0xa8, 0x95, 0x2d, 0x5b, 0xac, 0x2e, 0x2e, 0xcc, 0xa6,
  0x89, 0x2b, 0xb5, 0xa4, 0x8d, 0x2d, 0xa8, 0xae, 0x88, 0xa5, 0x8f, 0x2a, 0x47, 0xa3, 0x3f, 0x27,
  0x62, 0xad, 0x8e, 0x31, 0x4b, 0x2e, 0xfd, 0x29, 0xaa, 0xa4, 0xef, 0x2e, 0xf2, 0x1c, 0xb0, 0x29,
  0xa9, 0x2f, 0x68, 0x2a, 0x79, 0x2e, 0xcb, 0x2c, 0x9d, 0xa6, 0x18, 0x2e, 0x54, 0x28, 0x9a, 0x12,
  0x68, 0x2d, 0xfc, 0xad, 0x95, 0x2d, 0x22, 0x2c, 0xfc, 0x1c, 0x38, 0x24, 0x4e, 0x30, 0x8d, 0x1b,
  0x5d, 0xaf, 0xc5, 0xac, 0xd7, 0xa0, 0x35, 0x11, 0x3f, 0xae, 0x64, 0xa1, 0xbd, 0x2c, 0x3e, 0xab,
  0x6c, 0xa6, 0xc9, 0xb0, 0x83, 0x2f, 0x51, 0xad, 0x58, 0x9f, 0x58, 0xa4, 0xc0, 0xae, 0xf9, 0x2d,
  0xc2, 0xa8, 0x5c, 0x28, 0x4d, 0x19, 0x29, 0x9c, 0xed, 0x2a, 0xc8, 0x9e, 0x6f, 0x2f, 0x68, 0xab,
  0xed, 0x29, 0xe2, 0xae, 0x9c, 0x2f, 0xa4, 0x27, 0x6b, 0x28, 0x54, 0x2e, 0xdd, 0xad, 0x5f, 0x22,
  0x97, 0xa9, 0x02, 0x2c, 0x40, 0x1c, 0x28, 0x25, 0xa1, 0xaa, 0x7f, 0x29, 0x2a, 0x2c, 0x26, 0x2f,
  0x74, 0xad, 0xe5, 0x2e, 0x41, 0xac, 0xfe, 0xac, 0xf2, 0x2f, 0x3e, 0xa7, 0xaa, 0xab, 0xda, 0x2c,
  0x98, 0xad, 0x9f, 0xa8, 0x9a, 0x2f, 0x7d, 0xaf, 0x6d, 0x2a, 0x46, 0x94, 0x62, 0xaf, 0xcc, 0xac,
  0xbc, 0x28, 0xc8, 0xac, 0x0f, 0x2d, 0x37, 0xad, 0x28, 0xaa, 0x53, 0x29, 0xf7, 0x2c, 0x94, 0x04,
  0xc5, 0xa7, 0x59, 0x1b, 0x66, 0x2b, 0x52, 0x25, 0x96, 0xae, 0xa0, 0xad, 0xec, 0x28, 0x6d, 0xaa,
  0x3a, 0x2c, 0x28, 0xac, 0x70, 0xac, 0x74, 0xa7, 0x9e, 0x2b, 0x65, 0x2a, 0x46, 0xae, 0xa9, 0xad,
  0x30, 0x2b, 0x7f, 0x28, 0x21, 0x2b, 0xf0, 0x27, 0xe6, 0x2c, 0x76, 0x27, 0x5c, 0x29, 0x8a, 0xa8,
  0x27, 0x22, 0xd6, 0xa8, 0x8f, 0x2b, 0x76, 0xa5, 0x15, 0x28, 0x1c, 0xab, 0x1f, 0x29, 0xc8, 0x2a,
  0x81, 0x2c, 0xe8, 0xac, 0x38, 0xaa, 0xed, 0xa6, 0x85, 0x2c, 0xca, 0x2d, 0xa3, 0x2d, 0x3a, 0xae,
  0x25, 0x22, 0x0a, 0x25, 0x8e, 0xa2, 0x0b, 0xa8, 0x17, 0x2c, 0x69, 0x22, 0x5a, 0x99, 0xf1, 0xa4,
  0x7f, 0xaa, 0xfe, 0x2c, 0xef, 0x2d, 0xbb, 0x29, 0xd0, 0x30, 0x2d, 0xad, 0x26, 0xa0, 0xf4, 0xa7,
  0x26, 0x2a, 0x54, 0xac, 0x6d, 0xa5, 0x4d, 0x9a, 0xdf, 0x2c, 0x91, 0x2d, 0xae, 0xa0, 0x65, 0xa2,
  0xd1, 0xac, 0xc3, 0x2b, 0x13, 0x30, 0xb1, 0x2e, 0x50, 0x2b, 0xc4, 0x2d, 0x7a, 0x2d, 0xd8, 0x2d,
  0x6f, 0xae, 0x7b, 0xae, 0xea, 0xac, 0xcc, 0x2c, 0x5f, 0x1e, 0xba, 0x2a, 0xa4, 0xa6, 0x8d, 0x2d,
  0xc6, 0xac, 0x54, 0x29, 0xd1, 0xa4, 0x3b, 0x2d, 0x44, 0xae, 0xf5, 0x2d, 0xfe, 0x2c, 0x29, 0x28,
  0xfe, 0xab, 0xc2, 0x2c, 0xc0, 0xb0, 0xf6, 0x04, 0xd3, 0x2a, 0x97, 0x2d, 0x44, 0x2e, 0xec, 0x27,
  0x84, 0x23, 0x8a, 0xad, 0x53, 0x2d, 0xf9, 0xa4, 0x47, 0xa8, 0x56, 0x2d, 0x25, 0xae, 0xa8, 0xac,
  0xb0, 0x2c, 0xe1, 0x2e, 0x97, 0x2d, 0xbc, 0xa9, 0x20, 0xad, 0xb7, 0xaa, 0xd9, 0xa0, 0xf9, 0x2e,
  0xa3, 0x25, 0x0e, 0xa5, 0x13, 0xad, 0x9f, 0x27, 0x0d, 0x2d, 0x2d, 0x1a, 0xc2, 0x1a, 0xb0, 0xab,
  0x76, 0xa0, 0x7c, 0xad, 0x1d, 0xac, 0x73, 0xa3, 0xec, 0x2d, 0xae, 0x20, 0x56, 0x29, 0x22, 0x25,
  0x4a, 0x2d, 0xaf, 0xa7, 0xbe, 0xac, 0x79, 0x23, 0x72, 0x1e, 0xb5, 0x21, 0x40, 0xa6, 0x2f, 0x9a,
  0x29, 0xac, 0x68, 0xa2, 0xb0, 0x2a, 0xa6, 0xac, 0xa4, 0x2c, 0x2c, 0xac, 0x2c, 0xa8, 0xbd, 0x2a,
  0x2b, 0xac, 0x6c, 0x2a, 0x4f, 0x2d, 0x96, 0xa8, 0x86, 0xad, 0xf0, 0x24, 0x25, 0x2d, 0xb5, 0xac,
  0xe0, 0xa0, 0x61, 0xa8, 0x77, 0xa4, 0x13, 0x2c, 0x4d, 0x2d, 0xc0, 0x2c, 0x04, 0xac, 0x25, 0x29,
  0x6a, 0x2e, 0x29, 0xa4, 0xc4, 0x21, 0x8a, 0xa3, 0x64, 0xab, 0xd2, 0xab, 0x90, 0x24, 0x42, 0x2b,
  0x85, 0x2a, 0x78, 0xae, 0xea, 0x28, 0x34, 0xac, 0x03, 0xb0, 0x11, 0xab, 0x91, 0x2d, 0x74, 0xaf,
  0xef, 0xad, 0xa8, 0x2d, 0xb3, 0x2c, 0x9c, 0x22, 0x91, 0xae, 0x0a, 0x2b, 0xa9, 0xaa, 0x4d, 0xab,
  0x26, 0x23, 0xaf, 0x2e, 0x33, 0xad, 0xd3, 0x22, 0x0d, 0xaa, 0x7e, 0x2e, 0xf1, 0xac, 0xdd, 0x29,
  0x60, 0xac, 0xa9, 0x27, 0x8e, 0x2e, 0x85, 0xac, 0x35, 0xa5, 0x0b, 0xa4, 0x07, 0x9a, 0xff, 0xad,
  0xeb, 0x27, 0x35, 0xad, 0x68, 0x32, 0x17, 0x2d, 0x86, 0xa5, 0x06, 0x2c, 0xae, 0x2d, 0x45, 0x28,
  0x41, 0x28, 0x89, 0xac, 0x13, 0x2d, 0x82, 0xb1, 0x37, 0x26, 0x20, 0xae, 0x5f, 0x2d, 0x65, 0xae,
  0xd9, 0x29, 0xe0, 0x22, 0x71, 0x2c, 0x41, 0x2e, 0xad, 0x2f, 0x2b, 0x2e, 0xbd, 0x20, 0x76, 0xad,
  0x4d, 0xad, 0x18, 0x2f, 0x7d, 0x2f, 0x6e, 0x2e, 0xa3, 0x29, 0xcd, 0x29, 0x51, 0x2a, 0x25, 0x21,
  0x72, 0x26, 0xc2, 0x2e, 0x6b, 0xaf, 0x22, 0x90, 0xed, 0x22, 0x73, 0x28, 0x5a, 0x2c, 0xae, 0x2a,
  0x31, 0x31, 0x84, 0xad, 0x4b, 0x20, 0xe1, 0x24, 0x19, 0xab, 0xd6, 0xae, 0xc3, 0xa5, 0x6c, 0xae,
  0x0a, 0x2c, 0x6d, 0x2d, 0xa1, 0xaf, 0x5f, 0xab, 0x56, 0xa5, 0xd9, 0xa4, 0x48, 0xa5, 0x19, 0xad,
  0x62, 0x20, 0x54, 0xad, 0x84, 0x2f, 0x8c, 0x2d, 0xa1, 0xac, 0x9a, 0x2a, 0xbe, 0x2a, 0x5f, 0x2f,
  0xca, 0x2c, 0x46, 0x27, 0x7b, 0xab, 0x8c, 0xa9, 0x05, 0xab, 0x02, 0x2a, 0x41, 0x29, 0x8b, 0xae,
  0x2e, 0x27, 0x93, 0xac, 0x81, 0xac, 0x48, 0x24, 0xf7, 0x31, 0x0b, 0xad, 0x50, 0xad, 0xf5, 0xad,
  0x4a, 0xa5, 0xbb, 0x9b, 0x1a, 0x2c, 0xf6, 0x2c, 0x68, 0xa9, 0x08, 0xaa, 0x78, 0x28, 0xa1, 0xae,
  0xd7, 0xac, 0xda, 0x2f, 0xc2, 0xae, 0xb0, 0x99, 0xd4, 0x2d, 0x66, 0xa9, 0x18, 0xa8, 0xd2, 0x2b,
  0x69, 0xa3, 0x95, 0xae, 0xe1, 0x25, 0x11, 0x26, 0xa2, 0xab, 0x17, 0x28, 0x82, 0x98, 0x47, 0x2d,
  0xb4, 0xa0, 0x9f, 0xa4, 0x9c, 0xa3, 0xf0, 0x2f, 0xc7, 0x20, 0x35, 0x26, 0x6d, 0x28, 0x09, 0xac,
  0x00, 0xac, 0xbb, 0x23, 0x36, 0xad, 0xb0, 0x2d, 0xb7, 0x1f, 0x38, 0xb0, 0x65, 0x2a, 0x35, 0xab,
  0x10, 0xaf, 0xba, 0xad, 0x4e, 0xa8, 0x0e, 0x9f, 0x06, 0xab, 0x23, 0x25, 0xd6, 0xa4, 0xd7, 0xa8,
  0xc6, 0xa9, 0x02, 0xa8, 0x5a, 0x24, 0x7c, 0x2f, 0xce, 0x2d, 0x0f, 0x26, 0x2b, 0xad, 0xd2, 0xad,
  0xdc, 0xa8, 0x3a, 0xb2, 0x58, 0xa6, 0x99, 0xa4, 0x44, 0xa8, 0xac, 0x2b, 0xf3, 0xad, 0x21, 0xa9,
  0x9d, 0xa9, 0x7a, 0xb0, 0x46, 0x2d, 0xc6, 0x2d, 0x58, 0xad, 0x75, 0x25, 0x01, 0xac, 0xef, 0x25,
  0x7d, 0x2c, 0xc3, 0x2a, 0x52, 0x28, 0x49, 0xa6, 0x29, 0x2d, 0xf9, 0xae, 0x2d, 0x2e, 0x5f, 0x2a,
  0x3a, 0x2a, 0xa9, 0xad, 0xac, 0x28, 0xb6, 0x2f, 0xcb, 0xa1, 0x6c, 0xa7, 0x25, 0xad, 0x15, 0xa2,
  0xa9, 0xae, 0x93, 0x20, 0x59, 0x26, 0xc3, 0x25, 0xb5, 0xad, 0xbd, 0x21, 0x48, 0xab, 0x9e, 0xa8,
  0x45, 0xac, 0xdf, 0xad, 0x05, 0x2e, 0xa2, 0x2c, 0xc6, 0x24, 0x78, 0x2f, 0x41, 0xac, 0x9d, 0x26,
  0x84, 0xad, 0x53, 0x22, 0x83, 0x2c, 0xbe, 0x29, 0x93, 0x2c, 0x4d, 0x1b, 0xfa, 0xad, 0xfe, 0xa7,
  0x6e, 0x2b, 0xb2, 0x27, 0x63, 0x28, 0x21, 0xac, 0xf7, 0xa6, 0x57, 0xaa, 0x7a, 0x2f, 0x46, 0x2e,
  0xf8, 0x28, 0xd0, 0x26, 0x88, 0x2b, 0x7f, 0xae, 0x42, 0xad, 0x5a, 0x1c, 0x6b, 0xa6, 0xba, 0x2a,
  0x52, 0x2c, 0x98, 0xad, 0x6f, 0xae, 0x9f, 0x2a, 0x80, 0xac, 0x72, 0xa8, 0xac, 0x2d, 0xae, 0x2c,
  0xb3, 0x2c, 0x11, 0xa9, 0x00, 0x2c, 0x34, 0x2e, 0xfd, 0x9f, 0x54, 0xa8, 0xb2, 0x8f, 0x0f, 0xb0,
  0x70, 0x2f, 0x35, 0x2f, 0x32, 0x2c, 0xbf, 0xa6, 0xc8, 0x2e, 0xf2, 0x2a, 0xb7, 0xae, 0x7b, 0xa5,
  0xf5, 0x28, 0x4b, 0xac, 0x08, 0x2a, 0x62, 0x2a, 0x72, 0xa4, 0x70, 0xae, 0xad, 0x2c, 0x0d, 0xaf,
  0xe4, 0x2d, 0x69, 0xa8, 0x1a, 0x2c, 0x13, 0x2e, 0x88, 0x2f, 0x51, 0xad, 0x05, 0x9b, 0xf0, 0x2a,
  0x1e, 0x1a, 0x3c, 0xad, 0x75, 0xaa, 0xc6, 0xae, 0x49, 0x24, 0xc6, 0xa7, 0xcd, 0x2d, 0x2e, 0x2d,
  0x75, 0x25, 0x4d, 0xa1, 0x31, 0x2d, 0xe8, 0x25, 0x0f, 0x2e, 0xaf, 0xa4, 0xb8, 0xab, 0x2d, 0x2a,
  0x6b, 0x27, 0xda, 0xad, 0xf9, 0x2c, 0xf4, 0x29, 0x33, 0x2d, 0x55, 0x2e, 0x4c, 0x28, 0x33, 0x2e,
  0x65, 0x20, 0xaa, 0xac, 0x76, 0x2c, 0x5f, 0xaa, 0xf8, 0x2c, 0x0a, 0x2e, 0xb7, 0x2a, 0xe3, 0xa8,
  0x3f, 0x27, 0x80, 0x23, 0xe8, 0xab, 0xd4, 0xae, 0xed, 0x29, 0x77, 0xae, 0x66, 0xad, 0xeb, 0x27,
  0xd9, 0xac, 0x4e, 0xae, 0x14, 0x29, 0xd3, 0xae, 0x7d, 0xaa, 0x8d, 0xa8, 0x53, 0xa6, 0x2a, 0x95,
  0x53, 0xaf, 0xc5, 0x2c, 0x94, 0xaa, 0x80, 0xaa, 0x49, 0xaa, 0xa3, 0xad, 0xd1, 0x10, 0xdb, 0xac,
  0x0f, 0xa8, 0x2f, 0x2e, 0xbd, 0xb0, 0x2f, 0x2c, 0x5c, 0x2e, 0xd9, 0x2d, 0xda, 0xad, 0xd4, 0x28,
  0x38, 0x29, 0xc7, 0x1f, 0x2b, 0x2e, 0xb1, 0x24, 0x30, 0x2a, 0x2c, 0x2d, 0x08, 0x1a, 0xb6, 0xaa,
  0xc9, 0x23, 0x9c, 0x2a, 0x34, 0x2b, 0xa8, 0xac, 0x0f, 0x2d, 0x5d, 0xaa, 0x8b, 0x28, 0x5f, 0xad,
  0x3b, 0xac, 0xcc, 0x31, 0x71, 0xaf, 0xaf, 0xaa, 0xc4, 0x2c, 0xda, 0xac, 0x63, 0x2c, 0xb7, 0xae,
  0xe4, 0xad, 0xaf, 0xad, 0xfa, 0x27, 0x8c, 0x9e, 0xc3, 0x2e, 0x1d, 0x28, 0x57, 0xac, 0xd9, 0x18,
  0x46, 0xad, 0x54, 0x25, 0x40, 0x2b, 0xc6, 0x2c, 0xa0, 0xae, 0xe3, 0x2b, 0x96, 0xad, 0x0c, 0xad,
  0xdb, 0xa0, 0x1d, 0x24, 0x1f, 0xae, 0x6f, 0x2c, 0x42, 0xa7, 0x18, 0xae, 0x4a, 0xa1, 0x30, 0xac,
  0x73, 0x9d, 0x49, 0xa9, 0x37, 0xa7, 0xbb, 0x9b, 0x4f, 0xa7, 0x5c, 0x28, 0x89, 0xa7, 0x1a, 0x2d,
  0x5b, 0x27, 0x7c, 0xa5, 0x8c, 0x29, 0x83, 0xae, 0x57, 0x2b, 0x80, 0x2b, 0x23, 0xac, 0x65, 0x2f,
  0xa2, 0x2c, 0x92, 0x27, 0x42, 0xa9, 0xa7, 0xae, 0x2c, 0x2d, 0x56, 0x2b, 0x77, 0xae, 0xf3, 0x24,
  0xb6, 0xab, 0xe4, 0xac, 0xb4, 0xa1, 0xf5, 0xad, 0x6b, 0xa9, 0xf4, 0x2c, 0x67, 0xa8, 0x25, 0x2a,
  0x48, 0xac, 0xc9, 0x26, 0xac, 0xa8, 0x86, 0xa3, 0xe5, 0x2c, 0x2f, 0xa6, 0x5c, 0xae, 0xf3, 0x28,
  0x11, 0x2e, 0xf2, 0xab, 0x5e, 0xab, 0xc4, 0x2e, 0x76, 0x2b, 0xea, 0xad, 0x78, 0xad, 0x0e, 0xa4,
  0x73, 0xac, 0xee, 0x2c, 0xc6, 0x2d, 0x8f, 0x29, 0xd2, 0xaa, 0xc6, 0x28, 0x59, 0x2d, 0xc4, 0x2c,
  0x13, 0xad, 0xa3, 0x1e, 0xa5, 0xaa, 0xe9, 0xae, 0xc6, 0x28, 0x5b, 0x2e, 0x1b, 0xaa, 0xb5, 0x2e,
  0xdc, 0xa9, 0x84, 0xa7, 0x72, 0xac, 0x2c, 0x28, 0x0b, 0x2c, 0xb0, 0x2e, 0x0b, 0x2d, 0x57, 0x26,
  0xfe, 0xa8, 0x21, 0xa8, 0xad, 0xa9, 0x30, 0xab, 0xe9, 0x2a, 0x74, 0x2e, 0x53, 0x2d, 0xc6, 0xac,
  0x5c, 0xac, 0x7d, 0x27, 0x17, 0x28, 0xcf, 0x23, 0xe0, 0xa6, 0x29, 0xaf, 0xb2, 0xa4, 0x71, 0x24,
  0xa7, 0xaa, 0xca, 0x2d, 0x29, 0x28, 0x57, 0xaa, 0x0d, 0x2c, 0x4d, 0xac, 0xda, 0x2c, 0x87, 0x20,
  0x50, 0xa8, 0xb1, 0x2e, 0x64, 0x1f, 0xd1, 0xa0, 0x1a, 0x29, 0xa6, 0xa8, 0xdd, 0x2e, 0xcc, 0x9f,
  0xe1, 0xa9, 0x2b, 0xa8, 0x3c, 0x19, 0xf1, 0x2c, 0xee, 0x29, 0xa6, 0x2d, 0x63, 0x2c, 0xc3, 0xa9,
  0x1c, 0xad, 0xdd, 0xa5, 0x1d, 0xaa, 0x6a, 0xa8, 0xd2, 0x2e, 0x8c, 0x25, 0x21, 0xae, 0x04, 0x2f,
  0x7a, 0xad, 0x81, 0x2d, 0x7a, 0xaa, 0x81, 0xaf, 0xb9, 0xad, 0x76, 0x9d, 0xf4, 0xa9, 0x29, 0x9c,
  0x92, 0x28, 0xd0, 0xad, 0xd1, 0xa9, 0xe8, 0x2f, 0x0e, 0xae, 0x5d, 0xa3, 0x48, 0x28, 0x82, 0xab,
  0x08, 0x2c, 0x35, 0x31, 0x9b, 0x2f, 0xf3, 0x2c, 0x2a, 0x9a, 0x88, 0x26, 0xf4, 0xa9, 0x75, 0x2d,
  0x4c, 0xac, 0x6f, 0x29, 0x74, 0x24, 0x8a, 0xa7, 0xbd, 0xab, 0xcb, 0x2c, 0x33, 0xa4, 0x4e, 0xaa,
  0xf1, 0x2f, 0xf4, 0x2c, 0xc8, 0xac, 0xc0, 0xae, 0x29, 0xac, 0x23, 0x2e, 0x7d, 0x25, 0x50, 0x2d,
  0xf1, 0x29, 0x62, 0x2d, 0x6b, 0x2a, 0x5c, 0xac, 0xb8, 0xaf, 0x13, 0xae, 0x5e, 0x2d, 0x35, 0xa3,
  0x40, 0x26, 0xda, 0xa8, 0x2f, 0xa8, 0x69, 0x2c, 0x9c, 0x2d, 0x2f, 0x2d, 0xed, 0x2a, 0xce, 0x2d,
  0x55, 0xae, 0x96, 0xad, 0x1e, 0x2a, 0x84, 0x2b, 0x9c, 0x2d, 0x3c, 0x29, 0x29, 0x26, 0x47, 0x1f,
  0x7e, 0x9e, 0x69, 0xa9, 0xa6, 0x28, 0x45, 0x2d, 0xe5, 0xa0, 0x2f, 0x29, 0x05, 0x2e, 0xf4, 0x28,
  0x7e, 0xae, 0x0f, 0x2f, 0xd7, 0x27, 0xf7, 0xaa, 0x18, 0x27, 0x9e, 0x2c, 0x72, 0xaa, 0x1b, 0x28,
  0x07, 0x2c, 0xad, 0xa6, 0x2a, 0x28, 0x5d, 0xae, 0xa2, 0x2a, 0x0a, 0x2f, 0xc6, 0x2a, 0xa2, 0x8d,
  0x4c, 0x2a, 0x1b, 0x2f, 0xe7, 0x25, 0x51, 0x24, 0x93, 0xa8, 0xa8, 0xaa, 0xf6, 0x2b, 0xd7, 0xae,
  0x2b, 0xa2, 0x75, 0xad, 0x6f, 0x2c, 0x75, 0x2c, 0xd0, 0xaf, 0xee, 0xa9, 0x34, 0xaa, 0xb3, 0x9d,
  0xba, 0x28, 0x09, 0xae, 0x66, 0x26, 0x39, 0x1e, 0xf7, 0xad, 0x15, 0x28, 0xa1, 0x2b, 0x5a, 0xa4,
  0x58, 0x2d, 0xfb, 0x2d, 0xf5, 0xad, 0x4b, 0xad, 0xc2, 0xac, 0xa1, 0x91, 0x12, 0x2e, 0x4f, 0xa5,
  0xbe, 0xae, 0x6a, 0x27, 0x07, 0xa7, 0x91, 0x2c, 0x62, 0x2d, 0x1f, 0x28, 0xcd, 0xad, 0xd0, 0x29,
  0x90, 0xaf, 0x28, 0x2c, 0x72, 0x23, 0xb6, 0x24, 0x71, 0xaa, 0x10, 0xaa, 0x03, 0x27, 0x80, 0xaa,
  0x0d, 0xae, 0xd9, 0xac, 0xf8, 0xad, 0xb1, 0x23, 0x22, 0xa4, 0x8a, 0xad, 0x8a, 0x2e, 0x36, 0xad,
  0x81, 0x25, 0xce, 0x25, 0xb2, 0x2a, 0x69, 0x2a, 0x53, 0xa5, 0x89, 0x2b, 0xa2, 0x2d, 0xcf, 0x2b,
  0xcb, 0x2d, 0x68, 0xad, 0x08, 0x2d, 0x1d, 0xab, 0xf5, 0xae, 0x20, 0x2b, 0x22, 0x28, 0x00, 0xad,
  0x6f, 0xad, 0x21, 0xab, 0x7a, 0xaf, 0x81, 0x2c, 0x10, 0xa2, 0xf3, 0x21, 0x14, 0xaf, 0x05, 0x20,
  0x36, 0x2c, 0x80, 0x28, 0xfd, 0xae, 0x8c, 0xab, 0x7c, 0x2f, 0x3e, 0xac, 0x17, 0x2d, 0x1c, 0x9b,
  0xa2, 0x2c, 0x01, 0xac, 0xd9, 0xab, 0x09, 0x29, 0xcf, 0x2a, 0x2c, 0xae, 0x00, 0x29, 0xd2, 0x2d,
  0xe4, 0x2e, 0x1b, 0xae, 0x22, 0x2e, 0xaf, 0x28, 0x2a, 0xad, 0x6a, 0x2a, 0x1b, 0x2a, 0xfe, 0xab,
  0xd3, 0x2c, 0x28, 0x9d, 0xb5, 0xac, 0x11, 0xa6, 0x39, 0xae, 0x6f, 0x2a, 0x30, 0xaa, 0x22, 0xa8,
  0xf8, 0x2a, 0x63, 0x2d, 0x8c, 0x9d, 0xe2, 0xaa, 0x68, 0xad, 0xfc, 0x2a, 0xa0, 0x29, 0xe2, 0x28,
  0x26, 0x2d, 0x3a, 0xae, 0xe5, 0xa4, 0x85, 0x27, 0x41, 0x2a, 0x86, 0x2a, 0x57, 0xab, 0x17, 0xac,
  0x39, 0x2c, 0x60, 0x2b, 0xde, 0x26, 0xfa, 0x1b, 0x58, 0x2f, 0x67, 0x1d, 0x91, 0x2e, 0x73, 0x26,
  0x94, 0x24, 0x38, 0x18, 0x67, 0x1b, 0xe8, 0xac, 0x9c, 0x2e, 0x83, 0x28, 0x4f, 0xad, 0x7b, 0x25,
  0x0c, 0x2f, 0xec, 0xa7, 0x9f, 0x2f, 0xef, 0x2d, 0xba, 0x2b, 0xff, 0xab, 0xbf, 0x2a, 0x03, 0x2b,
  0xf6, 0x2b, 0x4c, 0x2d, 0xc6, 0xaa, 0x08, 0xaf, 0x08, 0xa4, 0x18, 0xa4, 0xb1, 0x2a, 0xe6, 0x27,
  0x54, 0xac, 0x43, 0x2a, 0x71, 0x22, 0xb1, 0x1c, 0x3b, 0x9d, 0xe1, 0x99, 0x95, 0xac, 0xf1, 0xac,
  0x20, 0xab, 0x90, 0x2d, 0x6b, 0xa0, 0x3f, 0x2d, 0x99, 0x25, 0x0f, 0x99, 0x61, 0xac, 0x81, 0x28,
  0x60, 0xae, 0x50, 0xad, 0x39, 0xad, 0x48, 0x28, 0x5f, 0x25, 0x06, 0xab, 0x89, 0xa7, 0x31, 0x22,
  0x45, 0x29, 0x0a, 0x2b, 0xb9, 0x28, 0x7b, 0xaa, 0xa1, 0xa6, 0xcb, 0x24, 0x26, 0x2c, 0x7f, 0x29,
  0x24, 0x2b, 0x0a, 0x2e, 0x68, 0x2e, 0xfa, 0xa7, 0x45, 0x2c, 0x23, 0x2d, 0x75, 0x29, 0x3a, 0x28,
  0x3e, 0xa9, 0x6d, 0x2e, 0xc5, 0xae, 0x60, 0xa0, 0x1b, 0x24, 0x16, 0x29, 0x68, 0x96, 0xe5, 0xad,
  0xbb, 0x94, 0xff, 0x10, 0xf4, 0xa4, 0x36, 0xa0, 0x9f, 0x2c, 0x13, 0x28, 0x40, 0x98, 0xad, 0x18,
  0xc1, 0x29, 0xb4, 0xa6, 0xff, 0x27, 0x5a, 0x2c, 0x5d, 0xac, 0x8c, 0xad, 0xd1, 0x16, 0x08, 0x2c,
  0x3a, 0x1e, 0x89, 0xaa, 0xaa, 0xab, 0x1d, 0x24, 0x70, 0x2d, 0x08, 0xab, 0x63, 0x2a, 0x0a, 0xad,
  0x86, 0xa4, 0x88, 0x9b, 0xe2, 0x2e, 0xb6, 0xac, 0x24, 0xac, 0x70, 0xa8, 0x05, 0x2b, 0xeb, 0x1c,
  0x66, 0x2c, 0x4f, 0x2e, 0x28, 0x25, 0x11, 0xa6, 0x9e, 0x2a, 0xfc, 0xae, 0x58, 0x2a, 0x3e, 0xad,
  0xc2, 0xaa, 0xdb, 0x22, 0x20, 0xa9, 0x03, 0x2d, 0xa7, 0xa6, 0xe3, 0x26, 0x9a, 0x21, 0x2b, 0x2d,
  0xf0, 0xac, 0x84, 0xa4, 0x72, 0xa7, 0x3b, 0xa4, 0xde, 0xa6, 0xaf, 0xa0, 0x53, 0x2e, 0xf5, 0x2a,
  0x0e, 0xaf, 0x76, 0xa7, 0xec, 0x2b, 0x5a, 0x2b, 0x37, 0x21, 0xe6, 0x28, 0x19, 0xaa, 0xd0, 0xa4,
  0xe8, 0x28, 0x4d, 0x20, 0x4c, 0x30, 0x54, 0x2e, 0xc3, 0x2d, 0xb9, 0xac, 0x81, 0xae, 0xbf, 0x2c,
  0x0b, 0xac, 0xf9, 0x2d, 0x08, 0x24, 0x93, 0x2c, 0xd1, 0x2e, 0x3e, 0x2a, 0xfd, 0xab, 0x41, 0x2e,
  0x8f, 0xac, 0x91, 0x2b, 0x99, 0xa9, 0x5c, 0xae, 0x3c, 0x27, 0x36, 0x1f, 0x67, 0x2c, 0x33, 0xa9,
  0xd7, 0xa9, 0x02, 0x1e, 0xb1, 0x1e, 0xe4, 0x9e, 0x2a, 0xac, 0xd0, 0x2a, 0xc4, 0xa8, 0xc8, 0x2e,
  0x4e, 0xa7, 0xb1, 0x8f, 0x1c, 0xae, 0xb0, 0xa0, 0xce, 0x29, 0x18, 0xac, 0x36, 0x24, 0x81, 0x2d,
  0x42, 0xc9, 0xff, 0xff, 0x04, 0x00, 0x00, 0x00, 0x10, 0x00, 0x00, 0x00, 0x01, 0x00, 0x00, 0x00,
  0x37, 0x00, 0x00, 0x00, 0x47, 0x00, 0x00, 0x00, 0x01, 0x00, 0x00, 0x00, 0x5e, 0xc9, 0xff, 0xff,
  0x04, 0x00, 0x00, 0x00, 0x70, 0x00, 0x00, 0x00, 0x0c, 0x34, 0x04, 0x34, 0xea, 0x32, 0xbb, 0x33,
  0xbb, 0x36, 0x22, 0x34, 0xca, 0x33, 0x0e, 0x34, 0x80, 0x32, 0x15, 0x35, 0x0d, 0x34, 0x8c, 0xaa,
  0x66, 0x33, 0x4e, 0x34, 0x26, 0x30, 0x66, 0x34, 0xaa, 0x33, 0xf6, 0x33, 0xfb, 0x33, 0x49, 0x33,
  0xae, 0x37, 0xc1, 0x33, 0x0c, 0x31, 0x07, 0x34, 0xe5, 0x34, 0x40, 0x34, 0xb9, 0x32, 0xaf, 0x31,
  0xb1, 0x33, 0xc9, 0x35, 0x01, 0x39, 0x85, 0x38, 0x19, 0x38, 0x96, 0x32, 0x1f, 0x34, 0x94, 0x37,
  0x37, 0x34, 0x30, 0x37, 0xec, 0x39, 0x4c, 0x34, 0xc5, 0x39, 0xe4, 0x34, 0xad, 0x34, 0x3d, 0x34,
  0xcd, 0x33, 0xc3, 0x37, 0x28, 0x35, 0x92, 0x33, 0x00, 0x34, 0x4c, 0x34, 0xfd, 0x33, 0x5a, 0x33,
  0x0b, 0x34, 0x00, 0x34, 0xf3, 0x33, 0x00, 0x34, 0xda, 0xc9, 0xff, 0xff, 0x04, 0x00, 0x00, 0x00,
  0x70, 0x00, 0x00, 0x00, 0xb5, 0x22, 0xa1, 0xb4, 0x38, 0x25, 0x8d, 0xb2, 0xaa, 0x2a, 0x7b, 0xb4,
  0xc7, 0xb2, 0x1b, 0xb0, 0xbb, 0x31, 0x7f, 0x2a, 0x1f, 0xb3, 0xa5, 0x2e, 0x2d, 0xad, 0xd7, 0xb2,
  0x4f, 0x29, 0xff, 0xaf, 0x0b, 0x30, 0xfc, 0x30, 0x7a, 0x22, 0xc8, 0xb3, 0x04, 0x28, 0x1c, 0xb2,
  0x4e, 0x31, 0x01, 0x30, 0xb6, 0xb1, 0x37, 0xb2, 0xea, 0xa1, 0xb0, 0x9c, 0x56, 0xb1, 0x4f, 0x31,
  0x1c, 0x31, 0xa3, 0x31, 0x2a, 0x2e, 0x59, 0x31, 0x34, 0xb1, 0x28, 0x2a, 0xb4, 0x28, 0x05, 0x2e,
  0x04, 0x33, 0x12, 0xb2, 0x33, 0x2f, 0x81, 0xa1, 0x4a, 0x19, 0xb7, 0xac, 0xd1, 0xb0, 0x2c, 0x2c,
  0xf3, 0x32, 0x72, 0xb3, 0x7a, 0x31, 0xb7, 0xac, 0x39, 0xb3, 0x98, 0xb3, 0xed, 0xb2, 0x9d, 0x34,
  0xf0, 0x33, 0xd5, 0x30, 0x56, 0xca, 0xff, 0xff, 0x04, 0x00, 0x00, 0x00, 0x40, 0x05, 0x00, 0x00,
  0xa0, 0x0d, 0xb0, 0x2f, 0xde, 0xa2, 0x18, 0xb2, 0xca, 0x33, 0xe8, 0x31, 0x09, 0xac, 0xf0, 0xb2,
  0x89, 0xb2, 0x14, 0xb4, 0x1f, 0xb3, 0xa6, 0x34, 0x98, 0x35, 0x25, 0xb2, 0x24, 0xb5, 0x23, 0x33,
  0x6c, 0xae, 0x34, 0x2e, 0x18, 0x2d, 0x59, 0xac, 0xf4, 0xb1, 0x36, 0xb2, 0x03, 0xb4, 0xbc, 0xb4,
  0x29, 0xad, 0x81, 0xb2, 0xd7, 0xb4, 0x94, 0x31, 0xee, 0x31, 0xfb, 0xb2, 0x71, 0xb4, 0xc6, 0xab,
  0x70, 0xaf, 0x2d, 0xae, 0x97, 0x33, 0xaa, 0x32, 0xbc, 0x30, 0xaa, 0xb4, 0x5f, 0xb4, 0xe5, 0x31,
  0x78, 0xb0, 0x43, 0xb4, 0x2e, 0xb6, 0x3e, 0x36, 0xeb, 0xaf, 0xf7, 0x32, 0x42, 0xae, 0xff, 0x31,
  0x90, 0xb1, 0x9e, 0xb1, 0xa8, 0x34, 0xaa, 0x2e, 0xc4, 0x2f, 0x5e, 0xb4, 0x6d, 0x25, 0x3b, 0x33,
  0x96, 0xad, 0xca, 0x25, 0xd9, 0xa7, 0x98, 0xa8, 0x02, 0xab, 0xbe, 0x32, 0x7d, 0xb5, 0xb5, 0x2e,
  0xce, 0x2c, 0x5b, 0x28, 0x5c, 0x2e, 0x72, 0xaa, 0xcc, 0x27, 0x50, 0xac, 0x0b, 0x30, 0x09, 0xb4,
  0x2b, 0xb0, 0xf4, 0xb4, 0x5d, 0xad, 0x34, 0x2c, 0xe5, 0xae, 0x32, 0x31, 0x3a, 0xb0, 0x74, 0xae,
  0x2b, 0xad, 0xd3, 0xb1, 0xbf, 0x33, 0xab, 0x31, 0x2d, 0xb4, 0xb1, 0x2e, 0xbc, 0xa6, 0x9d, 0xb2,
  0x9f, 0x2a, 0xf6, 0xab, 0x9b, 0xb3, 0xf7, 0xb0, 0x57, 0xb4, 0x29, 0x33, 0x06, 0xb2, 0xea, 0xad,
  0xa8, 0xb0, 0x1b, 0xb1, 0xc6, 0x34, 0x1f, 0xac, 0x34, 0xb3, 0xbe, 0x31, 0x9a, 0xae, 0x22, 0xb4,
  0xa6, 0xb2, 0x69, 0x34, 0xfa, 0xa5, 0x0d, 0xaa, 0xe6, 0xb4, 0x29, 0x31, 0x60, 0x2c, 0x94, 0xb1,
  0x74, 0x33, 0xc1, 0x2d, 0x96, 0xb4, 0x19, 0x24, 0xf2, 0x30, 0xdf, 0xac, 0xbd, 0x2e, 0x5d, 0x2c,
  0x83, 0xad, 0x34, 0x2a, 0x8d, 0xb5, 0xf6, 0xb0, 0xd5, 0xb4, 0x21, 0xb1, 0x5a, 0xa9, 0x3c, 0x2e,
  0xab, 0x9a, 0x41, 0x2d, 0x5b, 0x30, 0x79, 0xb2, 0x16, 0x1d, 0x0c, 0x34, 0x03, 0x34, 0x0b, 0x33,
  0x9e, 0xb1, 0x85, 0xb0, 0x10, 0xb3, 0xba, 0x2d, 0x40, 0xb4, 0xa9, 0xb2, 0x76, 0xa8, 0xa4, 0x98,
  0x79, 0x2e, 0xb9, 0x2c, 0x72, 0xb4, 0x95, 0x31, 0x0f, 0xb4, 0x82, 0xa9, 0xfd, 0xb4, 0x9c, 0xb1,
  0xe5, 0xae, 0xe1, 0xb3, 0x5a, 0x2f, 0xe0, 0x31, 0xca, 0xb3, 0xa3, 0x32, 0x35, 0xb0, 0xe5, 0xb1,
  0x3d, 0xa7, 0xd6, 0xad, 0x78, 0xb3, 0x34, 0xb4, 0x39, 0xa9, 0x9b, 0x32, 0x6c, 0xb1, 0x22, 0xae,
  0x07, 0x2c, 0x05, 0xb4, 0x87, 0xb2, 0x46, 0xa9, 0x29, 0xb1, 0x31, 0x30, 0xd7, 0x32, 0x4b, 0xb1,
  0x6d, 0x31, 0x66, 0x1d, 0x95, 0xaa, 0x1d, 0xb1, 0x53, 0xa6, 0x91, 0x9e, 0xb4, 0xad, 0xbd, 0x33,
  0x15, 0xaf, 0xae, 0x26, 0xd4, 0xb1, 0x61, 0x34, 0x13, 0xa0, 0xf6, 0x2f, 0xd3, 0xb4, 0x60, 0xb1,
  0x2e, 0x30, 0x26, 0x35, 0x34, 0xb3, 0xbc, 0xad, 0x28, 0x33, 0x27, 0xae, 0x22, 0x29, 0x82, 0xb4,
  0x41, 0x32, 0x08, 0xaf, 0xc5, 0x2e, 0x66, 0x32, 0x1a, 0x30, 0xc2, 0x33, 0x6a, 0xb4, 0x24, 0xb3,
  0xf8, 0xae, 0xd6, 0xad, 0x80, 0xae, 0x3e, 0x34, 0xc5, 0x31, 0x82, 0x2c, 0x64, 0xb2, 0x08, 0xa4,
  0xe1, 0xa2, 0x2e, 0x29, 0x69, 0x33, 0xea, 0x30, 0x9c, 0xb1, 0xc9, 0x34, 0xb6, 0x25, 0x48, 0xad,
  0x1e, 0xa7, 0xf8, 0x2d, 0x5f, 0xad, 0x28, 0x9f, 0x88, 0xb3, 0x59, 0xaa, 0xaf, 0x32, 0x2a, 0x0d,
  0x27, 0xb4, 0x9d, 0xac, 0x7b, 0xa2, 0x2a, 0x16, 0xc2, 0xae, 0x42, 0xb2, 0x41, 0x30, 0x93, 0x2d,
  0x0f, 0xa4, 0x74, 0x27, 0xaa, 0xb4, 0x81, 0xb3, 0xf3, 0xae, 0xf6, 0xab, 0x49, 0xab, 0x65, 0xac,
  0x82, 0xab, 0x86, 0x2c, 0x94, 0x30, 0x51, 0xa8, 0x58, 0x31, 0x84, 0x34, 0x27, 0x2d, 0x29, 0xb1,
  0x25, 0xb3, 0xcb, 0xad, 0x65, 0x32, 0x2d, 0xb4, 0x25, 0x33, 0x15, 0xb1, 0x64, 0x2f, 0x41, 0x31,
  0x98, 0x33, 0x7e, 0x30, 0x6e, 0x30, 0x78, 0xb1, 0x5a, 0x26, 0x00, 0xb3, 0x8f, 0xb0, 0xa3, 0x2c,
  0x92, 0x32, 0x15, 0x2c, 0x57, 0x31, 0x98, 0x32, 0x53, 0xac, 0x4e, 0xb2, 0x89, 0x30, 0xe7, 0x9d,
  0x60, 0x32, 0xb9, 0x32, 0x0b, 0xa8, 0x77, 0xb4, 0xf8, 0x2e, 0xf1, 0xae, 0x79, 0xb0, 0x1a, 0x34,
  0x77, 0xb3, 0x03, 0x2d, 0xb2, 0x30, 0x3f, 0xb3, 0x4e, 0x2d, 0xdf, 0xad, 0x7a, 0x35, 0xa0, 0x31,
  0x14, 0xae, 0xa4, 0xaf, 0x50, 0x34, 0x38, 0x1e, 0xb7, 0x31, 0x16, 0x2f, 0x06, 0xb3, 0x4d, 0xa6,
  0x09, 0xac, 0x7c, 0xb1, 0x26, 0x2d, 0xb8, 0x32, 0x18, 0xa2, 0xe3, 0xb0, 0x2e, 0x24, 0x68, 0x2d,
  0x62, 0x32, 0x7d, 0xaa, 0xc3, 0x28, 0x2f, 0x2c, 0x7c, 0x30, 0xe8, 0x9f, 0xad, 0xb3, 0x1a, 0xb2,
  0x72, 0xb2, 0xf7, 0x32, 0x0d, 0x32, 0xad, 0x2d, 0x6a, 0x2e, 0x0e, 0xa5, 0xcc, 0x34, 0xf7, 0x2f,
  0xf3, 0x30, 0x56, 0xad, 0x2f, 0x33, 0x7d, 0x27, 0x66, 0x27, 0xc9, 0x34, 0xb8, 0x30, 0x5d, 0x36,
  0xa9, 0x2d, 0x66, 0xa5, 0x96, 0xb3, 0xdd, 0x2d, 0xa8, 0x14, 0xd5, 0x2c, 0x14, 0x31, 0x87, 0x21,
  0xf3, 0xb1, 0x67, 0x30, 0x9a, 0xaa, 0x3d, 0x2e, 0x61, 0x27, 0x67, 0x30, 0xf7, 0x30, 0x09, 0x31,
  0xe0, 0xb1, 0x01, 0xb3, 0xff, 0xb3, 0xaf, 0xb3, 0x9a, 0xaf, 0xef, 0x2c, 0x60, 0x2a, 0x52, 0x34,
  0xc6, 0x33, 0x42, 0x35, 0x17, 0x2d, 0x24, 0xb3, 0x68, 0x23, 0x25, 0xb0, 0xf1, 0xae, 0x9d, 0xb2,
  0x45, 0x2d, 0xa1, 0x24, 0x32, 0x2b, 0x2d, 0x34, 0x0d, 0x33, 0xaa, 0xb2, 0x34, 0xac, 0xa6, 0xaf,
  0x61, 0x2d, 0x7a, 0xb0, 0x56, 0xac, 0xbf, 0x2f, 0x98, 0x32, 0xac, 0xa4, 0x44, 0xb3, 0x9f, 0x33,
  0xb5, 0x2c, 0x66, 0x2c, 0xfc, 0x2d, 0xf9, 0x2c, 0x5d, 0x2f, 0x30, 0xb2, 0x29, 0x25, 0x71, 0x2f,
  0x19, 0xb4, 0x28, 0xb0, 0x66, 0xb3, 0x13, 0x2d, 0xe3, 0x32, 0xfa, 0x30, 0x1e, 0xaf, 0x1a, 0x28,
  0x1c, 0x31, 0x74, 0xad, 0x07, 0x33, 0xdb, 0x34, 0x84, 0xb1, 0xc9, 0xac, 0xb3, 0x2c, 0x5e, 0xa8,
  0x81, 0xb5, 0x00, 0xb5, 0x27, 0xb1, 0xdb, 0x30, 0x77, 0xb3, 0xdf, 0xb0, 0x69, 0xb1, 0xe3, 0x32,
  0x11, 0x30, 0xa2, 0x2e, 0x66, 0x33, 0x38, 0x30, 0x78, 0x34, 0x66, 0x33, 0x55, 0x2d, 0x1a, 0x32,
  0xb0, 0xb1, 0xd9, 0xad, 0x80, 0xae, 0x2f, 0x2d, 0x71, 0xb4, 0x4f, 0xb3, 0xed, 0xa8, 0x21, 0xb0,
  0xcd, 0xb3, 0xec, 0xb0, 0x0e, 0x2e, 0xf9, 0x2e, 0xec, 0xb3, 0x15, 0x35, 0x6e, 0xad, 0xa6, 0xa5,
  0xee, 0x34, 0x81, 0xb4, 0x7b, 0xb3, 0xe3, 0xae, 0xe7, 0x34, 0x35, 0xac, 0x13, 0x2c, 0x57, 0x34,
  0x22, 0x33, 0x0f, 0xae, 0xc8, 0xb1, 0x4e, 0xb3, 0x50, 0x34, 0x4b, 0x34, 0x7a, 0xb0, 0x3f, 0x2f,
  0x0e, 0xb2, 0x33, 0x35, 0x21, 0x34, 0x23, 0x14, 0x59, 0x27, 0xa1, 0xb3, 0xe8, 0x24, 0x72, 0xb4,
  0x90, 0xb0, 0x45, 0xb0, 0x4c, 0x2f, 0x76, 0xab, 0x7c, 0xb2, 0xf0, 0x30, 0x26, 0xa6, 0xda, 0xb4,
  0x50, 0xb1, 0xab, 0x2a, 0x35, 0xb0, 0x00, 0x32, 0x02, 0xb1, 0xe7, 0x30, 0x81, 0x95, 0x02, 0x35,
  0xea, 0xaa, 0x10, 0xb4, 0xdf, 0x2b, 0x5f, 0x2f, 0x4d, 0x9d, 0x3c, 0x29, 0x35, 0x28, 0xb2, 0x32,
  0xf5, 0xb3, 0x51, 0xb2, 0xfc, 0xb3, 0x14, 0x2f, 0x1e, 0x37, 0xa7, 0x23, 0xef, 0x2a, 0x83, 0xb4,
  0xc0, 0x35, 0x09, 0x34, 0x45, 0x31, 0xac, 0x34, 0x17, 0x2c, 0xdc, 0xb1, 0xc5, 0xa9, 0xf0, 0x2f,
  0x0f, 0xb2, 0x38, 0xb0, 0x23, 0xb0, 0xa7, 0x2a, 0x9d, 0xb2, 0xb8, 0xac, 0xc5, 0x1b, 0xd9, 0xb3,
  0xfd, 0x34, 0xb5, 0xb2, 0x54, 0x35, 0xe0, 0x32, 0x66, 0x98, 0x98, 0xb1, 0xa0, 0xa8, 0xef, 0xb3,
  0x86, 0x34, 0x24, 0x25, 0x36, 0x2c, 0xc8, 0xae, 0x0b, 0x31, 0x7a, 0xb2, 0x96, 0xb2, 0x4f, 0x28,
  0xc8, 0x9c, 0x4d, 0xb3, 0xcd, 0x30, 0x71, 0xb0, 0x48, 0xab, 0x34, 0x32, 0x26, 0x35, 0xdd, 0xae,
  0x4b, 0x2d, 0x62, 0xb3, 0x83, 0xb2, 0xea, 0xb0, 0x2a, 0x2f, 0xa3, 0xb2, 0x88, 0x33, 0x90, 0xb1,
  0xe0, 0xb1, 0x66, 0x32, 0xbd, 0xb2, 0x7c, 0x34, 0xff, 0xad, 0xc3, 0xac, 0xbb, 0xb2, 0xd6, 0x34,
  0x9e, 0x2f, 0x0f, 0x34, 0x01, 0x31, 0xe9, 0xb3, 0x3c, 0xa9, 0x01, 0x2f, 0xbf, 0xa6, 0x18, 0xb1,
  0x61, 0x31, 0x87, 0xb4, 0x42, 0x2c, 0xc0, 0xb3, 0xa4, 0x9e, 0x56, 0xae, 0x44, 0xb3, 0x9b, 0xa8,
  0xfa, 0x1d, 0x8f, 0x31, 0x29, 0x2f, 0x33, 0xa3, 0x66, 0x2e, 0x2c, 0xb3, 0xed, 0x29, 0xcf, 0xb3,
  0xf1, 0xb0, 0xca, 0xae, 0x3e, 0x30, 0x12, 0x34, 0x4d, 0x2f, 0x26, 0x35, 0x33, 0xb1, 0x05, 0x34,
  0x94, 0xac, 0x52, 0x34, 0xda, 0xb3, 0x59, 0xae, 0x73, 0x2c, 0x2e, 0xa8, 0x26, 0xb0, 0x26, 0xb2,
  0xf6, 0xb2, 0xf9, 0x26, 0xba, 0xad, 0x6e, 0x30, 0xd8, 0x2f, 0x57, 0xb3, 0xa8, 0x33, 0x5f, 0xaf,
  0x35, 0x31, 0xab, 0xb1, 0x12, 0x34, 0xf8, 0xa9, 0xae, 0xaa, 0x1e, 0x1a, 0x7b, 0x2d, 0x91, 0x27,
  0x42, 0xb4, 0x19, 0x2f, 0x09, 0x2a, 0xfc, 0x34, 0x14, 0xae, 0xd7, 0xab, 0xe4, 0x30, 0x28, 0xa8,
  0xe7, 0x30, 0xb5, 0xae, 0xb2, 0xb1, 0x71, 0x2a, 0x1b, 0xb1, 0x89, 0x34, 0xb8, 0xab, 0x98, 0xb0,
  0x65, 0x2f, 0xf1, 0x30, 0x40, 0x2e, 0x2c, 0x30, 0x5b, 0x25, 0x2a, 0x26, 0xb1, 0xa5, 0x29, 0xb4,
  0x41, 0xb4, 0xc6, 0x33, 0xc3, 0x33, 0x57, 0xa5, 0xde, 0x14, 0xe7, 0xac, 0x9c, 0xb0, 0x1c, 0x34,
  0xd2, 0x34, 0x2d, 0x2d, 0xa4, 0xae, 0xb4, 0xb2, 0x6a, 0x34, 0x50, 0xa7, 0x95, 0xb1, 0xe6, 0x25,
  0x7f, 0xb2, 0x63, 0xa8, 0x1c, 0x2d, 0x74, 0x2b, 0x7a, 0x32, 0x0d, 0xb3, 0xa4, 0x33, 0xf7, 0xb2,
  0x33, 0x32, 0x29, 0xb1, 0x12, 0xa7, 0x5d, 0x31, 0x45, 0x31, 0xb9, 0x32, 0x01, 0x27, 0x01, 0xb0,
  0x45, 0x2f, 0xd9, 0x2d, 0xd9, 0xaf, 0x2e, 0x32, 0xdd, 0xb1, 0x34, 0x1e, 0xa2, 0xb3, 0x8c, 0x30,
  0xa2, 0xcf, 0xff, 0xff, 0x04, 0x00, 0x00, 0x00, 0x18, 0x00, 0x00, 0x00, 0x88, 0x35, 0x43, 0x31,
  0x22, 0x34, 0xd1, 0x32, 0x6c, 0x33, 0xca, 0x33, 0x7b, 0x34, 0x86, 0x38, 0x4b, 0x34, 0x9f, 0x36,
  0xd0, 0x33, 0x0e, 0x33, 0xc6, 0xcf, 0xff, 0xff, 0x04, 0x00, 0x00, 0x00, 0x18, 0x00, 0x00, 0x00,
  0xa4, 0x20, 0x32, 0xa0, 0xc0, 0x1f, 0x54, 0x2e, 0x0f, 0xac, 0xb1, 0x26, 0xca, 0xad, 0x3e, 0x28,
  0x55, 0xa8, 0x45, 0x2c, 0x60, 0x2d, 0xc0, 0xa6, 0xea, 0xcf, 0xff, 0xff, 0x04, 0x00, 0x00, 0x00,
  0x20, 0x0a, 0x00, 0x00, 0xe1, 0x1d, 0x49, 0xa8, 0x24, 0xac, 0x25, 0x9d, 0xa6, 0x2d, 0x75, 0x2d,
  0xa4, 0xae, 0xe2, 0xac, 0xc1, 0xad, 0x40, 0xa7, 0x35, 0x30, 0x15, 0xa5, 0xdb, 0xa0, 0xb8, 0x27,
  0xcb, 0x24, 0x94, 0x23, 0xdb, 0x2a, 0x78, 0xa2, 0x74, 0xab, 0x7c, 0xa4, 0x94, 0xac, 0xcb, 0x25,
  0xa9, 0xad, 0x14, 0x1c, 0x02, 0xaf, 0x92, 0xaa, 0xe3, 0xac, 0xaa, 0xaa, 0x56, 0x99, 0xe1, 0xa3,
  0x7e, 0xa8, 0x55, 0xb0, 0x26, 0x24, 0x42, 0xae, 0x04, 0xaa, 0xfb, 0x28, 0xb0, 0xa0, 0x4a, 0x19,
  0xad, 0xaa, 0xfc, 0x29, 0xb2, 0x30, 0xa9, 0x2d, 0xc0, 0x2b, 0x41, 0xa4, 0x5b, 0xae, 0x23, 0x2d,
  0x16, 0xaa, 0xdc, 0xa1, 0x5b, 0x28, 0x90, 0x2c, 0x6d, 0x24, 0x28, 0xa7, 0x5e, 0x2d, 0xd2, 0xa8,
  0xea, 0x14, 0x0e, 0xa1, 0xa3, 0x2c, 0x0e, 0x1f, 0x79, 0xb1, 0x81, 0x30, 0xe3, 0xad, 0x77, 0xa6,
  0xd6, 0x2a, 0x8e, 0x29, 0xf8, 0xa3, 0xd2, 0xac, 0xf4, 0x2c, 0x0f, 0x24, 0x93, 0xac, 0x08, 0xab,
  0x6f, 0xac, 0xcd, 0x28, 0x70, 0x2a, 0x90, 0xac, 0x9a, 0x26, 0xc9, 0xae, 0x67, 0xaa, 0xd5, 0x1c,
  0x2a, 0xac, 0x33, 0xa5, 0x1d, 0x29, 0xdd, 0x2d, 0x47, 0x2a, 0x44, 0xad, 0x36, 0x2c, 0x09, 0xac,
  0x32, 0xa8, 0xe2, 0x21, 0xcd, 0xa8, 0xef, 0xa7, 0xf1, 0xa5, 0x1a, 0xae, 0xc4, 0xac, 0x7b, 0xb1,
  0x09, 0x2c, 0xb8, 0xac, 0x39, 0xac, 0xa0, 0x1c, 0x09, 0x29, 0x80, 0x2a, 0xcc, 0x25, 0x8d, 0xab,
  0xc1, 0xa6, 0xbb, 0xae, 0xbf, 0xa6, 0x75, 0x2d, 0xfb, 0x2c, 0x6a, 0xa6, 0xad, 0xab, 0x1f, 0x22,
  0x51, 0x30, 0x32, 0x2c, 0x75, 0xac, 0xd6, 0xa0, 0xf1, 0x2e, 0x72, 0x2a, 0x91, 0x24, 0xfd, 0xa4,
  0x99, 0x30, 0x40, 0x2b, 0x9f, 0x9e, 0xc2, 0x24, 0x0c, 0x24, 0x06, 0x2a, 0xeb, 0x9a, 0xc5, 0x2c,
  0xba, 0xac, 0xf2, 0xab, 0xcf, 0xa9, 0x91, 0x22, 0x4c, 0xb0, 0x33, 0xad, 0xd2, 0xab, 0x13, 0xb1,
  0xf1, 0xac, 0xa4, 0xae, 0xbc, 0x27, 0x60, 0x2d, 0x61, 0xa9, 0xb2, 0xb2, 0x14, 0x2b, 0x10, 0x31,
  0xeb, 0xa8, 0x05, 0xa5, 0xba, 0x2b, 0x89, 0x2e, 0x16, 0xac, 0xb4, 0x96, 0xe9, 0xab, 0x33, 0x98,
  0x5f, 0xa8, 0xb8, 0xaa, 0x47, 0x26, 0x96, 0x20, 0x8a, 0x32, 0x97, 0x2b, 0xa7, 0x29, 0x1c, 0x28,
  0x8a, 0x24, 0x8c, 0x31, 0xa2, 0x17, 0x7f, 0x29, 0x39, 0x2c, 0x45, 0x29, 0x34, 0xaf, 0xb0, 0xb1,
  0x77, 0xac, 0x93, 0x2e, 0xa3, 0xa1, 0x3d, 0xaa, 0x11, 0xb0, 0x42, 0x20, 0x82, 0x29, 0x3d, 0x18,
  0x6e, 0xb3, 0xc3, 0xad, 0xda, 0xaf, 0xb0, 0x2b, 0x6f, 0x1a, 0x23, 0xa9, 0x10, 0xa7, 0xcc, 0x27,
  0x33, 0xa8, 0xb8, 0x28, 0xa6, 0x19, 0xb3, 0x2b, 0x1d, 0x2c, 0xa5, 0xaf, 0x8a, 0xac, 0xd9, 0x28,
  0x11, 0x9e, 0xcb, 0xae, 0x14, 0x2a, 0x27, 0x0d, 0xe6, 0x29, 0x45, 0x99, 0xcf, 0x28, 0x68, 0xa3,
  0xd9, 0x2a, 0xce, 0x2d, 0xf2, 0xa8, 0xf5, 0xa8, 0xe9, 0xb2, 0xb9, 0xa4, 0x72, 0xa0, 0x26, 0xab,
  0x05, 0xb0, 0x82, 0x2b, 0x5b, 0x2c, 0x31, 0x2a, 0x2b, 0x27, 0xac, 0x2c, 0xb3, 0xa5, 0x28, 0x2e,
  0x9d, 0x22, 0x08, 0x2a, 0x1b, 0x2c, 0xcb, 0x1c, 0x6d, 0x2c, 0x4a, 0xab, 0x19, 0x29, 0x59, 0xac,
  0x96, 0x9e, 0x3c, 0xac, 0xdf, 0x2e, 0xab, 0xaa, 0xbc, 0x29, 0x93, 0xa9, 0x5d, 0x2c, 0x4c, 0xac,
  0x15, 0xaa, 0xa6, 0x29, 0x48, 0x2d, 0x46, 0x2a, 0xe1, 0x29, 0x89, 0xb1, 0x2b, 0x28, 0x0c, 0xa4,
  0x4a, 0x30, 0x51, 0x2b, 0x9c, 0x2c, 0x75, 0xab, 0x63, 0xa8, 0xb7, 0xad, 0x20, 0x30, 0xa6, 0xa5,
  0x4c, 0xb4, 0x66, 0xad, 0xb1, 0xac, 0xfd, 0x9e, 0x3d, 0xad, 0x5b, 0xac, 0x72, 0x1f, 0x09, 0x28,
  0x86, 0x30, 0x0d, 0x2b, 0x3b, 0xad, 0x90, 0xab, 0xb6, 0xaa, 0xad, 0xa0, 0x9e, 0xa8, 0x4c, 0xae,
  0x1f, 0x30, 0x3e, 0xa2, 0x99, 0xab, 0xe1, 0xa7, 0xf6, 0xab, 0x43, 0x2b, 0x0f, 0x27, 0x70, 0x30,
  0xde, 0x2c, 0x65, 0x24, 0x23, 0x2c, 0x2d, 0xb1, 0x0b, 0xb2, 0x6e, 0x2d, 0x84, 0x24, 0x1a, 0xad,
  0xfa, 0xa8, 0x7d, 0xa9, 0xfd, 0x24, 0x90, 0x25, 0xfa, 0x9d, 0x6d, 0xac, 0x68, 0x1e, 0x09, 0xa5,
  0x8c, 0x24, 0x47, 0x2e, 0x1e, 0x2e, 0x1f, 0x2c, 0x18, 0xac, 0x90, 0x28, 0xf6, 0x2b, 0x27, 0x2b,
  0xe3, 0x2b, 0x11, 0xa4, 0xa5, 0xa7, 0xd8, 0x24, 0x00, 0x24, 0x2d, 0x2f, 0xf2, 0x25, 0xca, 0x2d,
  0x6d, 0xa6, 0x8b, 0x15, 0x80, 0x2c, 0xab, 0xaf, 0x27, 0x1d, 0x53, 0xa8, 0x06, 0xaf, 0x78, 0xab,
  0x21, 0xae, 0x96, 0x2d, 0x28, 0x19, 0x90, 0xab, 0x42, 0x28, 0x79, 0x1f, 0xce, 0x22, 0x46, 0xa9,
  0x2a, 0xaf, 0x5e, 0x9f, 0x5a, 0x24, 0xc1, 0x95, 0x6c, 0x28, 0x76, 0xa9, 0x1f, 0x24, 0x21, 0xa8,
  0x50, 0x29, 0xa4, 0x26, 0xdd, 0x2d, 0x63, 0xa7, 0x37, 0xa0, 0x7d, 0x2f, 0x96, 0x22, 0xac, 0x25,
  0xd3, 0xac, 0x7f, 0x29, 0x58, 0xaa, 0x12, 0x2b, 0x3b, 0xa8, 0x9d, 0xae, 0x53, 0x33, 0x15, 0x28,
  0xca, 0xab, 0xb2, 0xac, 0x11, 0xaa, 0x05, 0xac, 0x99, 0xa9, 0x9f, 0xaa, 0xf5, 0xac, 0x4e, 0x2b,
  0xe8, 0x2a, 0x11, 0xac, 0x7f, 0x28, 0x58, 0xb0, 0x4c, 0xa6, 0x30, 0x2d, 0xb2, 0xa7, 0x7a, 0xb0,
  0x35, 0xb0, 0x86, 0x25, 0x34, 0x2d, 0x64, 0xa5, 0xd4, 0xa4, 0xe1, 0xa6, 0x94, 0x2e, 0x2a, 0x9c,
  0x96, 0x2c, 0x82, 0x9d, 0x53, 0xa2, 0x48, 0x27, 0x79, 0xab, 0x81, 0x2c, 0x01, 0x2d, 0x4d, 0xa8,
  0xbf, 0xad, 0xf5, 0x2a, 0x0d, 0x34, 0x77, 0x31, 0xd8, 0xad, 0x82, 0x1a, 0xa0, 0xaa, 0x33, 0xae,
  0x1a, 0xb0, 0x3d, 0x2c, 0x2f, 0x2d, 0x1e, 0x29, 0x72, 0xa9, 0xaf, 0x1b, 0xdd, 0x22, 0xcb, 0xa8,
  0xdd, 0x1e, 0x6d, 0xab, 0xf4, 0xa8, 0x06, 0x30, 0x0a, 0xa9, 0x6e, 0xa4, 0x14, 0xb0, 0xd5, 0xa4,
  0x05, 0x28, 0x24, 0xb0, 0xa8, 0x28, 0xee, 0xae, 0x4e, 0xa8, 0x0a, 0xa2, 0xd8, 0x2c, 0xe2, 0xa6,
  0x15, 0xac, 0x86, 0x23, 0x63, 0xa5, 0xe7, 0xa8, 0x3e, 0xa7, 0x3b, 0x2e, 0x09, 0x23, 0x32, 0x2d,
  0x45, 0x19, 0xb4, 0x95, 0xfb, 0xae, 0x65, 0xa1, 0xfe, 0xa6, 0x4f, 0x2a, 0x4d, 0x2c, 0x5b, 0x28,
  0xcf, 0xab, 0x41, 0x16, 0xf5, 0xad, 0xcd, 0xa1, 0x9a, 0x29, 0x73, 0xaa, 0x62, 0x26, 0x10, 0x2b,
  0xee, 0xa5, 0xdd, 0x2a, 0xd8, 0x29, 0x96, 0x2b, 0x5c, 0x31, 0xcd, 0xa6, 0x79, 0x21, 0xa6, 0x0d,
  0x6d, 0x9c, 0x9c, 0xac, 0x4a, 0x1d, 0x40, 0x12, 0x36, 0x31, 0x3d, 0x2a, 0x5b, 0x2b, 0x78, 0xa8,
  0x83, 0xa7, 0xe2, 0x2e, 0x87, 0xa5, 0xee, 0xad, 0x13, 0xa7, 0x21, 0x2a, 0x63, 0x1a, 0x8c, 0xad,
  0x88, 0xae, 0xe7, 0xad, 0xa7, 0x27, 0xd1, 0xaa, 0x2f, 0x9e, 0x75, 0xaf, 0x8b, 0x2b, 0x87, 0x2d,
  0x1a, 0xa9, 0xab, 0xaf, 0x87, 0x30, 0x83, 0x2d, 0x9c, 0xab, 0x47, 0xaf, 0x45, 0x2e, 0xdb, 0x23,
  0xed, 0x26, 0xec, 0x1c, 0x62, 0x24, 0x19, 0x2d, 0x09, 0x9e, 0x10, 0xa2, 0x2d, 0xa4, 0x96, 0xa9,
  0x29, 0x31, 0x14, 0xa5, 0xa0, 0x2d, 0x20, 0x2d, 0xa6, 0x2c, 0xb4, 0x30, 0x81, 0x22, 0x19, 0x30,
  0xbc, 0x1d, 0x2a, 0x99, 0xae, 0xad, 0x7a, 0xb1, 0xd5, 0xa7, 0xb3, 0x30, 0x67, 0xa9, 0x51, 0x24,
  0x14, 0xac, 0x0a, 0x1e, 0x11, 0x1a, 0x6a, 0x1b, 0xb1, 0xa9, 0x7f, 0xab, 0x01, 0xb1, 0x1d, 0x2d,
  0xb3, 0xb0, 0x6f, 0x2e, 0x44, 0x99, 0x74, 0x1e, 0x35, 0xac, 0x5c, 0xa0, 0xb7, 0x94, 0xa7, 0x2a,
  0x1a, 0x25, 0x0c, 0xa9, 0xcb, 0x24, 0xbe, 0xa5, 0x13, 0xa0, 0x08, 0x9f, 0xe7, 0xa4, 0x7c, 0xaa,
  0x13, 0xa6, 0xc1, 0xaf, 0x32, 0xa6, 0x0a, 0xa9, 0xed, 0xac, 0x38, 0xab, 0xd3, 0x1a, 0x99, 0x23,
  0x1e, 0xab, 0x17, 0x24, 0x1d, 0x1f, 0xbb, 0xaa, 0x53, 0x2d, 0x81, 0x25, 0xc1, 0x29, 0x29, 0xae,
  0xcf, 0xa4, 0xa0, 0x28, 0x86, 0x27, 0x2c, 0x2a, 0x76, 0xab, 0xfb, 0xa0, 0x30, 0xab, 0x69, 0x2b,
  0x21, 0x98, 0x5a, 0x21, 0x16, 0xae, 0x9d, 0x2b, 0x58, 0x2f, 0xdb, 0xaf, 0x12, 0x21, 0x6c, 0xa6,
  0x92, 0x2c, 0xc0, 0xac, 0x28, 0x2e, 0xa7, 0x26, 0x2b, 0x2f, 0xcb, 0xaa, 0xb8, 0x2d, 0xe4, 0x1e,
  0x82, 0x28, 0x71, 0x31, 0x59, 0x24, 0x8c, 0xab, 0x2c, 0x2a, 0x32, 0x27, 0xc6, 0xa8, 0x2f, 0xa2,
  0x78, 0x2d, 0x46, 0x2d, 0xc9, 0xad, 0x28, 0x2c, 0x12, 0x20, 0x4a, 0x2c, 0x1b, 0x26, 0x06, 0x24,
  0xc2, 0x2a, 0xef, 0x26, 0x0f, 0x2a, 0x21, 0x2e, 0x71, 0xa3, 0xd8, 0x2e, 0x3e, 0x30, 0x1f, 0x20,
  0x2a, 0xb0, 0xd9, 0xb1, 0x0d, 0xa1, 0x7c, 0xa5, 0x4f, 0x2a, 0x90, 0xb0, 0xfa, 0x2f, 0xcf, 0xa1,
  0x80, 0x29, 0x1e, 0x28, 0xae, 0x2a, 0x89, 0x2e, 0xaf, 0x33, 0x52, 0xa9, 0x6d, 0x2f, 0xe0, 0xa1,
  0xce, 0x2d, 0x33, 0xab, 0xf5, 0xac, 0xcf, 0x2a, 0x57, 0x27, 0xda, 0x21, 0x80, 0xa8, 0x68, 0x2c,
  0x01, 0x20, 0x4b, 0xac, 0x8b, 0x28, 0x79, 0x2d, 0x23, 0xab, 0x81, 0x28, 0x98, 0x28, 0x78, 0xa3,
  0x7b, 0x27, 0x9d, 0x2c, 0xe1, 0x30, 0xa0, 0x27, 0x7b, 0x2b, 0x34, 0x9d, 0xb9, 0xa8, 0xfc, 0x2d,
  0xf7, 0x26, 0x1f, 0x30, 0x3c, 0x10, 0xd9, 0xa6, 0x40, 0x2e, 0x61, 0x2c, 0x2c, 0xb1, 0xda, 0x28,
  0x4a, 0xad, 0x4a, 0xab, 0x67, 0x28, 0xf0, 0xb1, 0x3d, 0xa9, 0x00, 0x30, 0x2b, 0x2e, 0x6b, 0xa8,
  0x16, 0x28, 0x5f, 0xa8, 0x52, 0x2b, 0x0e, 0x29, 0xc6, 0xaa, 0xa9, 0xac, 0xd2, 0x16, 0xbd, 0x2c,
  0xa3, 0x2b, 0x5c, 0xa5, 0xec, 0x28, 0xc4, 0x24, 0x0a, 0x30, 0x90, 0xb0, 0xb7, 0xaf, 0xfe, 0xac,
  0x40, 0x2c, 0xcb, 0x2c, 0x21, 0x28, 0xcb, 0xab, 0xee, 0xac, 0x16, 0xab, 0xa5, 0xa9, 0xb8, 0x2a,
  0xd2, 0x1e, 0xc9, 0x2f, 0xf6, 0xaf, 0x84, 0xa7, 0x64, 0x30, 0x2c, 0x31, 0xe7, 0x27, 0x45, 0xac,
  0xed, 0x30, 0x99, 0xb0, 0xc0, 0x29, 0xdb, 0xaa, 0xc5, 0xa3, 0x1b, 0x2a, 0x26, 0xa2, 0x53, 0x2a,
  0xa9, 0x29, 0x55, 0x2e, 0x29, 0x27, 0x43, 0xac, 0x06, 0x24, 0xb8, 0x29, 0x8c, 0xa0, 0x2f, 0x24,
  0x19, 0x2e, 0xa3, 0xa8, 0x2a, 0x23, 0x3f, 0xa0, 0x80, 0x2a, 0x23, 0x2c, 0x3b, 0xa8, 0x63, 0x2d,
  0x53, 0xa9, 0x9a, 0xa3, 0x32, 0x2e, 0x62, 0x2e, 0x87, 0xaa, 0xf5, 0xaf, 0xd1, 0xa9, 0x76, 0x2c,
  0xa3, 0xa6, 0x2d, 0x30, 0x60, 0xa5, 0x59, 0x31, 0x92, 0x2f, 0x00, 0xab, 0x34, 0xac, 0xac, 0xaa,
  0x07, 0xa8, 0xb6, 0xaf, 0x44, 0xb0, 0x2e, 0xa4, 0xf1, 0xa4, 0x69, 0x26, 0xbc, 0xa9, 0x2b, 0xa8,
  0xcb, 0x2a, 0xce, 0xac, 0x59, 0xae, 0x47, 0x2d, 0x2c, 0xa8, 0xcd, 0xac, 0xe6, 0xac, 0x36, 0xab,
  0xfd, 0x9c, 0x16, 0x2d, 0x9d, 0x2b, 0xe5, 0xac, 0x5f, 0x2c, 0xfb, 0xac, 0x07, 0x28, 0x8a, 0xac,
  0xac, 0x22, 0x23, 0x2c, 0xa9, 0x20, 0x07, 0x27, 0x9f, 0xa5, 0x22, 0x2c, 0xa7, 0x2d, 0xa4, 0xac,
  0xfc, 0x9f, 0xd8, 0xae, 0x64, 0x18, 0x6b, 0x24, 0x60, 0x28, 0x40, 0xad, 0xb2, 0x28, 0xff, 0x29,
  0x09, 0xa5, 0xd6, 0x2f, 0x6e, 0x29, 0x89, 0xa7, 0xe2, 0xac, 0xb0, 0x1b, 0x3a, 0x2e, 0xd0, 0x27,
  0x9b, 0x2a, 0xc1, 0x25, 0x76, 0xa6, 0x0a, 0x2d, 0x9c, 0x1d, 0xc4, 0xa2, 0x05, 0xad, 0x6f, 0x2b,
  0xf6, 0x2c, 0xc5, 0xab, 0x1d, 0x2d, 0xe6, 0x2d, 0x2b, 0xac, 0x56, 0xac, 0x4f, 0x29, 0xdd, 0x1f,
  0x2d, 0xac, 0x2d, 0x2f, 0x85, 0xac, 0x08, 0x2e, 0x79, 0x94, 0x41, 0x26, 0x25, 0xae, 0x86, 0xad,
  0xdf, 0xa0, 0x4e, 0xae, 0x59, 0xaa, 0x7b, 0x2d, 0x51, 0xa6, 0x10, 0xa3, 0xf0, 0x2c, 0x7d, 0xa8,
  0x55, 0xa5, 0xe9, 0x2b, 0x36, 0x24, 0x90, 0xa8, 0x2e, 0xac, 0xcb, 0xab, 0x78, 0x2d, 0xe1, 0xa4,
  0xa2, 0x18, 0xc1, 0x24, 0x9a, 0x2a, 0xd5, 0x2c, 0x8a, 0x2e, 0x39, 0xac, 0x7e, 0xa9, 0xb9, 0x26,
  0xf5, 0xac, 0xb8, 0x2c, 0x43, 0x2e, 0x75, 0x2c, 0x08, 0xb0, 0x60, 0x9a, 0x83, 0x2e, 0x13, 0xac,
  0xa1, 0x24, 0x82, 0x26, 0x31, 0xaf, 0x22, 0x2e, 0xd1, 0x2a, 0xbd, 0xa9, 0xd7, 0x9c, 0x54, 0xab,
  0x07, 0x2d, 0xfe, 0xab, 0x65, 0x29, 0x14, 0x0f, 0xb1, 0x20, 0x0c, 0xad, 0x6a, 0xa9, 0x25, 0x2d,
  0x1c, 0xa8, 0x70, 0xab, 0x6a, 0x24, 0x94, 0x2a, 0xaa, 0x29, 0x82, 0xa9, 0x84, 0x28, 0x33, 0xab,
  0x5a, 0xaa, 0xaf, 0xaa, 0x75, 0x2c, 0x21, 0x2d, 0x4b, 0x29, 0xaf, 0xac, 0xe0, 0x23, 0x98, 0x90,
  0x95, 0xa2, 0x5f, 0x18, 0x08, 0x2c, 0xf9, 0x24, 0x2b, 0xa5, 0xb9, 0x2e, 0x09, 0x2d, 0x3f, 0xaa,
  0x3c, 0x92, 0xef, 0x23, 0x9e, 0xad, 0xb9, 0x2a, 0x53, 0xac, 0x67, 0xa5, 0x5f, 0xac, 0x4d, 0x28,
  0x59, 0xa2, 0x86, 0x26, 0xf3, 0xab, 0x5e, 0x26, 0x6f, 0xae, 0xa4, 0x9e, 0x9e, 0xae, 0xc8, 0xab,
  0xa1, 0x28, 0x34, 0xa4, 0x6e, 0x2c, 0x0b, 0xac, 0x7a, 0x29, 0x28, 0x1e, 0xfc, 0x2c, 0xbd, 0xa8,
  0xc1, 0xad, 0x95, 0x23, 0x27, 0x11, 0xe9, 0x29, 0x92, 0x2f, 0x9e, 0x9e, 0x19, 0x2a, 0x22, 0x28,
  0x8d, 0x26, 0x18, 0xab, 0x25, 0xab, 0x02, 0x28, 0xcb, 0xad, 0xcc, 0x1c, 0x8e, 0xac, 0x26, 0x22,
  0xb3, 0x2e, 0xa4, 0x2d, 0x24, 0x2e, 0x7e, 0x2b, 0x30, 0xb1, 0xe8, 0x27, 0x1e, 0xa8, 0x81, 0xad,
  0xd2, 0xaa, 0x12, 0x2c, 0x0b, 0x31, 0x15, 0xab, 0xf3, 0xa6, 0xd4, 0xae, 0x91, 0xae, 0x7a, 0x2d,
  0xdb, 0x28, 0x7a, 0xac, 0xed, 0x1d, 0x4c, 0x2b, 0x38, 0xa5, 0x5b, 0x2e, 0x45, 0x2f, 0x59, 0xae,
  0x42, 0x26, 0x3f, 0x32, 0x6c, 0x1f, 0x7a, 0x2d, 0x01, 0x94, 0xa7, 0x2b, 0x3c, 0x2b, 0xbb, 0xa9,
  0x46, 0x2b, 0xe3, 0xa6, 0x03, 0x31, 0x76, 0x2b, 0x60, 0xac, 0x9d, 0xb0, 0x37, 0x24, 0x7d, 0x20,
  0xda, 0x2f, 0x50, 0x2c, 0x38, 0xa7, 0xcc, 0x9d, 0x25, 0xa8, 0x84, 0xa3, 0xb6, 0x25, 0x5e, 0x2f,
  0xbb, 0x2d, 0xfd, 0xa6, 0x4a, 0xa4, 0xc5, 0x2b, 0xda, 0x30, 0x5c, 0xa9, 0x5a, 0xa6, 0x20, 0x2c,
  0x70, 0x29, 0x0f, 0xac, 0x01, 0xa2, 0xb5, 0x27, 0x09, 0x28, 0xd7, 0xac, 0x66, 0x28, 0x5f, 0x1c,
  0xc7, 0x2a, 0x77, 0x2f, 0xa0, 0x1d, 0x4a, 0xa9, 0xec, 0xae, 0x98, 0xaa, 0xc2, 0xad, 0xa2, 0xac,
  0xb8, 0x23, 0xb3, 0xad, 0x43, 0x19, 0xb0, 0x29, 0x03, 0xae, 0x3c, 0x26, 0x31, 0x2a, 0xf5, 0xac,
  0xe4, 0x21, 0x1c, 0x29, 0xff, 0x2d, 0x23, 0xac, 0xf7, 0xa7, 0x09, 0x31, 0xa6, 0xa4, 0xee, 0x2a,
  0x98, 0xa1, 0xe4, 0xa4, 0x30, 0x29, 0x9c, 0x29, 0x2b, 0x2c, 0x03, 0xa9, 0x11, 0x29, 0xea, 0xa5,
  0xcf, 0xa3, 0x8c, 0xb0, 0x59, 0xa8, 0x96, 0x9b, 0x91, 0xa8, 0x8c, 0x2c, 0xf2, 0xa5, 0x83, 0x21,
  0x4c, 0x99, 0x2b, 0x2c, 0x28, 0x9f, 0xc8, 0x2c, 0x13, 0xa6, 0x56, 0x24, 0xc1, 0x2c, 0xc2, 0x24,
  0x5c, 0x24, 0xd6, 0xa7, 0x66, 0xaf, 0x44, 0x2d, 0xf1, 0x22, 0xc4, 0x27, 0x78, 0xaa, 0x95, 0xa4,
  0x89, 0xa7, 0x1f, 0xa1, 0x4d, 0x2c, 0x30, 0x2a, 0xc9, 0xa1, 0x8a, 0xac, 0xe7, 0x9d, 0x17, 0x90,
  0x01, 0x2c, 0x7f, 0x2c, 0x85, 0x2d, 0x9e, 0x2d, 0xd2, 0x26, 0x22, 0x27, 0xff, 0x28, 0xb0, 0x28,
  0xdc, 0x27, 0xe8, 0x26, 0xe3, 0x28, 0x84, 0x2a, 0xcb, 0xab, 0xd1, 0xa8, 0x24, 0x2a, 0xbc, 0xa7,
  0x96, 0xad, 0xd1, 0xad, 0xdc, 0x2d, 0xc6, 0x27, 0xa9, 0xa9, 0x95, 0x2e, 0x70, 0xae, 0x69, 0xa0,
  0xf2, 0xac, 0x06, 0xa3, 0x4c, 0xa9, 0x5b, 0x9e, 0x2c, 0xab, 0x10, 0x26, 0x5e, 0x2a, 0x9e, 0x27,
  0x50, 0x1e, 0x86, 0xa8, 0xef, 0x2b, 0xcb, 0x2b, 0x09, 0x22, 0xb3, 0xa7, 0x08, 0x2f, 0x02, 0xa0,
  0x7a, 0x1e, 0xc5, 0x28, 0x47, 0x2d, 0xea, 0xa6, 0xaf, 0xa0, 0x84, 0xad, 0xca, 0x2c, 0x57, 0xa7,
  0x63, 0x25, 0xa9, 0xa6, 0x2d, 0xb0, 0x16, 0xa5, 0xfc, 0xa7, 0x5a, 0xa4, 0x83, 0x19, 0xa8, 0xa7,
  0xed, 0x29, 0xff, 0xa6, 0xda, 0xa8, 0xc7, 0x98, 0x8e, 0xac, 0xfb, 0x25, 0x0e, 0xa9, 0x3f, 0xa8,
  0xd5, 0xa5, 0x3e, 0xa8, 0xaa, 0x2d, 0xab, 0xa5, 0x81, 0x26, 0xc2, 0xac, 0x81, 0xa0, 0x50, 0xad,
  0x01, 0x20, 0x41, 0x2b, 0x70, 0x2c, 0x98, 0xac, 0x17, 0x28, 0x8a, 0xac, 0x7b, 0x2a, 0x77, 0xad,
  0xd4, 0x2c, 0xae, 0x21, 0xe6, 0xab, 0x8d, 0xab, 0x0c, 0x25, 0x4a, 0x2a, 0x3f, 0x28, 0x48, 0xaa,
  0x1d, 0x22, 0x87, 0xa6, 0xb9, 0x29, 0xd9, 0x2a, 0xe3, 0x20, 0xc6, 0xab, 0x9b, 0x9b, 0xed, 0xa9,
  0x04, 0x2f, 0x32, 0x2c, 0x93, 0xa7, 0x6c, 0x96, 0x41, 0x26, 0xd6, 0x2b, 0x30, 0xac, 0x2f, 0xa5,
  0x54, 0xa9, 0x1c, 0xb0, 0x13, 0xac, 0x84, 0x9d, 0xf4, 0x28, 0x8e, 0xad, 0x82, 0xb1, 0x5f, 0xa8,
  0xf7, 0x2b, 0xf2, 0x30, 0xa6, 0x2d, 0xba, 0xab, 0x28, 0x2b, 0x05, 0x25, 0xee, 0x20, 0xc8, 0x1a,
  0x5d, 0xab, 0xdd, 0x2b, 0x3b, 0x2c, 0x44, 0x28, 0x14, 0xaa, 0x17, 0xab, 0x82, 0x2d, 0x4a, 0x28,
  0x2b, 0x2d, 0x5e, 0x20, 0xc1, 0x2c, 0x67, 0x24, 0x19, 0x2c, 0x86, 0xa8, 0x0b, 0x24, 0x9c, 0xa8,
  0x43, 0x9d, 0xab, 0xa7, 0x51, 0xac, 0x3d, 0x2c, 0x77, 0x27, 0x97, 0xa8, 0xe6, 0x28, 0xc5, 0x27,
  0xfd, 0x9c, 0x20, 0xad, 0x91, 0xae, 0xaa, 0xa0, 0xaf, 0xaa, 0x48, 0xa5, 0xfb, 0xac, 0xe4, 0x25,
  0x04, 0x21, 0x92, 0x2b, 0x34, 0x2b, 0x26, 0xaa, 0xe3, 0x22, 0x09, 0xa8, 0x33, 0x19, 0xaa, 0x2d,
  0xbc, 0xa6, 0x65, 0x2c, 0xff, 0x2a, 0xe2, 0x1b, 0xe3, 0xae, 0x72, 0x1e, 0xd9, 0x24, 0x0c, 0xb1,
  0x13, 0x33, 0x3c, 0xb0, 0xc2, 0x9c, 0x63, 0x2a, 0xcd, 0xa7, 0x7f, 0x29, 0xc8, 0x1a, 0x64, 0xa8,
  0xf4, 0x31, 0x3d, 0x2f, 0xc8, 0xaa, 0x81, 0x25, 0x18, 0xa9, 0x46, 0x27, 0x1c, 0xa7, 0xd3, 0x24,
  0xfe, 0x29, 0x21, 0xad, 0xf5, 0x29, 0xec, 0xb1, 0x56, 0xb0, 0x52, 0x1f, 0xac, 0xa9, 0xe0, 0xa8,
  0xd1, 0x19, 0x27, 0xac, 0x53, 0x2d, 0x1f, 0xa8, 0x18, 0xb0, 0x43, 0xae, 0x3b, 0x32, 0x45, 0x2f,
  0xe9, 0xaf, 0x5f, 0xa5, 0x53, 0x30, 0xbd, 0x9f, 0x8d, 0x2c, 0x32, 0xaa, 0x20, 0xa8, 0x8d, 0xab,
  0x03, 0x23, 0xfb, 0xa6, 0x0c, 0x2c, 0xcd, 0xac, 0x2f, 0x2e, 0xad, 0x22, 0x5a, 0x30, 0x99, 0x2d,
  0xc9, 0xaf, 0xaf, 0x20, 0xf1, 0x23, 0xe9, 0x2f, 0x9f, 0xac, 0x46, 0xad, 0x40, 0xb0, 0xf6, 0xb3,
  0x78, 0xaf, 0xa0, 0x30, 0xad, 0xac, 0x24, 0xad, 0x0e, 0xb0, 0x7b, 0xab, 0x7c, 0xa7, 0xfe, 0x2e,
  0x6d, 0xad, 0x61, 0xb1, 0x37, 0xb0, 0x94, 0x2d, 0x04, 0x28, 0xc8, 0x2d, 0x8d, 0x2e, 0x5f, 0xac,
  0xf0, 0x21, 0x0b, 0x28, 0xef, 0x9d, 0x0c, 0xa6, 0xb7, 0x2c, 0x6e, 0x2c, 0x60, 0x29, 0x22, 0x23,
  0x97, 0x32, 0xf2, 0xa8, 0x8c, 0xab, 0x67, 0xa5, 0x80, 0xaa, 0x16, 0xad, 0xef, 0xaa, 0x8c, 0x2b,
  0xa9, 0x26, 0xcb, 0xac, 0x10, 0xae, 0xdd, 0x18, 0xcd, 0xa6, 0xe8, 0x23, 0xff, 0xad, 0x21, 0xae,
  0x76, 0xb0, 0x44, 0x2b, 0x60, 0x23, 0x79, 0xa9, 0xf8, 0xae, 0xbd, 0xa8, 0x91, 0xad, 0xac, 0x2a,
  0x22, 0x1c, 0x4c, 0x24, 0x16, 0xda, 0xff, 0xff, 0x04, 0x00, 0x00, 0x00, 0x18, 0x00, 0x00, 0x00,
  0xa2, 0x2b, 0x2b, 0x31, 0x15, 0x34, 0xc5, 0x34, 0x2a, 0x32, 0x68, 0x34, 0x79, 0x34, 0x3f, 0x34,
  0x0b, 0x34, 0x71, 0x33, 0x9d, 0x33, 0x7f, 0x33, 0x3a, 0xda, 0xff, 0xff, 0x04, 0x00, 0x00, 0x00,
  0x18, 0x00, 0x00, 0x00, 0x6a, 0x29, 0xc5, 0x2a, 0xb3, 0x2c, 0x5d, 0xaa, 0xc2, 0x2c, 0x9e, 0x2a,
  0x3b, 0xad, 0xf6, 0xa9, 0x29, 0x2d, 0xdd, 0xac, 0x5f, 0x26, 0x1e, 0xa7, 0x5e, 0xda, 0xff, 0xff,
  0x04, 0x00, 0x00, 0x00, 0x20, 0x0a, 0x00, 0x00, 0xa2, 0xa6, 0xc8, 0x29, 0xf1, 0x29, 0x08, 0xb0,
  0xaa, 0x2f, 0xb4, 0x2c, 0x1a, 0x97, 0xe5, 0xa8, 0x3a, 0x23, 0xaa, 0xa5, 0xc4, 0x25, 0x44, 0x2e,
  0x36, 0x25, 0x41, 0xa9, 0xb8, 0xa5, 0x21, 0x2d, 0x85, 0xaf, 0x26, 0x29, 0xd9, 0xa3, 0xf3, 0xb0,
  0x60, 0xaf, 0x46, 0xa4, 0x05, 0x2a, 0x16, 0x30, 0x81, 0x2c, 0xa9, 0xa9, 0x34, 0xaa, 0x3a, 0xad,
  0x67, 0xaa, 0x31, 0x2e, 0x5e, 0x2d, 0x74, 0xa9, 0x39, 0xad, 0xba, 0xa3, 0x2d, 0x29, 0x6f, 0xa0,
  0xe0, 0xa0, 0xd6, 0x2e, 0xe1, 0xa9, 0x9a, 0xa5, 0x72, 0x2f, 0xa7, 0xa4, 0xd3, 0x2c, 0x15, 0x2e,
  0x80, 0xac, 0x18, 0xaf, 0xc1, 0x2e, 0xa4, 0xaf, 0x99, 0x31, 0x26, 0x31, 0x5c, 0x21, 0xa5, 0xa5,
  0x2a, 0xad, 0xe5, 0xac, 0x83, 0x2f, 0x6f, 0x25, 0xa6, 0xac, 0xa5, 0x32, 0xc3, 0x2d, 0x9d, 0xb2,
  0x76, 0x24, 0xa5, 0x2b, 0x09, 0xa5, 0x36, 0xa4, 0x12, 0x20, 0x10, 0x31, 0x2d, 0xa0, 0x8d, 0xb0,
  0x90, 0xaa, 0x93, 0x1e, 0x54, 0x1b, 0x64, 0xb0, 0x1b, 0x9c, 0x8a, 0x2f, 0x84, 0x2b, 0x47, 0x26,
  0x1e, 0x1e, 0x9a, 0xa9, 0x59, 0x28, 0x1e, 0x2c, 0xf3, 0xac, 0xaf, 0x26, 0x85, 0xa4, 0x8a, 0x2f,
  0x73, 0x2e, 0xb1, 0xa5, 0x28, 0x28, 0x49, 0xae, 0xc7, 0xad, 0xde, 0xab, 0x16, 0xa9, 0x04, 0xa9,
  0x71, 0x2c, 0x6e, 0xa9, 0xdc, 0x27, 0x00, 0x22, 0xb9, 0x26, 0x9b, 0x2d, 0x10, 0xa7, 0x9c, 0xad,
  0x9c, 0x29, 0x9e, 0x28, 0x62, 0x2e, 0x2d, 0xae, 0x71, 0xa9, 0x3d, 0xac, 0x15, 0xaa, 0x58, 0x18,
  0xb1, 0x2d, 0xb4, 0xa4, 0xbb, 0x28, 0xcc, 0xac, 0x37, 0x2e, 0x19, 0x17, 0xc6, 0xac, 0xdb, 0xa2,
  0x4d, 0x2e, 0x95, 0xac, 0x06, 0xad, 0xa0, 0xab, 0x01, 0xa5, 0xbe, 0x29, 0xd3, 0x2b, 0xae, 0xae,
  0x63, 0x28, 0xba, 0x2c, 0x15, 0xae, 0xe2, 0x2d, 0x79, 0x2a, 0x40, 0x9e, 0x5a, 0x90, 0x32, 0x22,
  0x2d, 0x2d, 0xfb, 0xa4, 0x56, 0xa9, 0xa5, 0xac, 0x75, 0x20, 0x3e, 0x2a, 0x38, 0xad, 0x56, 0xa8,
  0x8b, 0x2d, 0x3a, 0x30, 0x95, 0xa4, 0xf5, 0x26, 0xe3, 0xa7, 0xd9, 0xa6, 0x31, 0x04, 0x38, 0x2d,
  0x09, 0xac, 0xea, 0x29, 0x9c, 0x0b, 0x8c, 0xa9, 0xc0, 0x2c, 0xfc, 0xaa, 0x2a, 0xad, 0xc5, 0xa9,
  0x28, 0x2d, 0x7b, 0x2c, 0xd5, 0x20, 0x42, 0x2d, 0x98, 0x2d, 0x50, 0x9c, 0x30, 0xac, 0xe3, 0x26,
  0xd3, 0x1e, 0xb9, 0xad, 0x86, 0x28, 0x9c, 0xa7, 0xb9, 0x28, 0xfd, 0x2f, 0x35, 0x2a, 0x56, 0x2b,
  0x4b, 0xad, 0x3e, 0xad, 0xa2, 0x2c, 0xa8, 0xa7, 0x9c, 0xa8, 0xc5, 0x1e, 0x05, 0x2c, 0x0f, 0x2d,
  0xf2, 0x29, 0x09, 0x25, 0x78, 0x2e, 0xd1, 0x2a, 0x10, 0xaa, 0xc2, 0x28, 0x02, 0xa1, 0x42, 0xac,
  0x99, 0x2c, 0xd3, 0x9e, 0xd5, 0xae, 0x87, 0xab, 0xb0, 0xab, 0xb4, 0xaf, 0xdc, 0xa6, 0xdb, 0x2c,
  0xd6, 0xad, 0xeb, 0xaa, 0x0e, 0xaf, 0xee, 0xae, 0x26, 0x23, 0x8f, 0x1f, 0x76, 0xa0, 0x96, 0xac,
  0xcd, 0x29, 0x9a, 0xab, 0xbd, 0xa4, 0x3d, 0xae, 0x83, 0xa2, 0x76, 0xa8, 0x12, 0xac, 0xad, 0xa9,
  0x86, 0xae, 0x71, 0xac, 0xc5, 0x28, 0x01, 0x9c, 0xb3, 0xac, 0x04, 0x2f, 0xd0, 0x2c, 0xd1, 0x24,
  0xe2, 0xad, 0x12, 0x28, 0x16, 0xab, 0x0f, 0x2b, 0xc5, 0xa3, 0x53, 0xaa, 0x1c, 0xa7, 0x06, 0x0d,
  0xf3, 0xad, 0xdb, 0xa8, 0xe2, 0x2a, 0xd4, 0xa9, 0x3b, 0xa8, 0x8c, 0x32, 0xe3, 0x28, 0x5c, 0xa5,
  0xa1, 0x2a, 0x7e, 0xb1, 0xdf, 0xb1, 0x65, 0xa9, 0xfb, 0xad, 0x45, 0xa9, 0x90, 0xad, 0x4f, 0xa8,
  0xfb, 0xab, 0x8d, 0x2b, 0xf5, 0xad, 0x6c, 0xa3, 0x27, 0xb0, 0xe9, 0xac, 0x57, 0xaf, 0xb5, 0x29,
  0xc6, 0x27, 0xe9, 0xa8, 0xad, 0x2d, 0x36, 0xad, 0x54, 0xac, 0x6f, 0x2a, 0x4b, 0x22, 0xfe, 0xad,
  0x81, 0x28, 0xef, 0x2d, 0x2e, 0x2a, 0xae, 0xac, 0xf3, 0xac, 0xfd, 0xb0, 0x35, 0x2c, 0x53, 0x2c,
  0xe6, 0xa6, 0xba, 0x28, 0x77, 0xab, 0x23, 0x26, 0xec, 0xab, 0xec, 0xb1, 0x3c, 0xb1, 0xd4, 0x2c,
  0x09, 0x25, 0x41, 0xa4, 0x22, 0xa6, 0x1a, 0xaa, 0x48, 0x9e, 0x14, 0xb0, 0x40, 0x2e, 0xcb, 0xa6,
  0x1f, 0x23, 0x9b, 0xb1, 0x36, 0x2a, 0x5d, 0x2c, 0x28, 0x2c, 0x23, 0x2d, 0x95, 0xae, 0xf7, 0x2d,
  0x69, 0xad, 0xba, 0x28, 0x2d, 0x28, 0xb5, 0xae, 0x9c, 0x21, 0x77, 0x2a, 0x4d, 0x28, 0x62, 0x23,
  0x08, 0x2b, 0x7e, 0xaf, 0x02, 0xaf, 0x47, 0x2a, 0xbf, 0xa8, 0x6f, 0x30, 0x88, 0xaa, 0xc1, 0x2a,
  0xbb, 0x22, 0xda, 0xad, 0xc6, 0x25, 0x42, 0x28, 0xc7, 0x2d, 0xfa, 0x31, 0xcc, 0xaa, 0x11, 0x1e,
  0xe3, 0x10, 0xf2, 0xa5, 0xaa, 0x27, 0x77, 0xb0, 0x0e, 0x2c, 0xc7, 0xad, 0x30, 0x18, 0x34, 0x2d,
  0x02, 0xa5, 0xfa, 0xa8, 0xe7, 0x23, 0x9c, 0xa4, 0x36, 0x23, 0xac, 0xa2, 0x3b, 0x30, 0x9b, 0x2d,
  0xdc, 0x2b, 0x81, 0x2e, 0xa5, 0x28, 0x33, 0x25, 0x67, 0xab, 0x96, 0x28, 0xe0, 0x26, 0xff, 0x2c,
  0xdd, 0xa8, 0x56, 0xad, 0x67, 0xae, 0xe8, 0xab, 0x73, 0xac, 0x87, 0x32, 0x23, 0x9c, 0x26, 0xb1,
  0x34, 0xad, 0xdf, 0xad, 0x2e, 0x30, 0x59, 0x2e, 0x46, 0x2d, 0xb9, 0x2c, 0x31, 0xae, 0x58, 0x22,
  0xe2, 0x2b, 0x23, 0xab, 0x95, 0xa4, 0x92, 0x2b, 0x17, 0x29, 0x4b, 0xa7, 0x10, 0x2e, 0x81, 0xa8,
  0x8e, 0x2d, 0x00, 0x32, 0x9f, 0xb1, 0x25, 0xa6, 0x95, 0x2c, 0x76, 0x2c, 0x50, 0xb1, 0xb6, 0xa2,
  0x25, 0xac, 0x37, 0x2d, 0xb5, 0xae, 0x96, 0x2f, 0x20, 0x2b, 0xa6, 0x27, 0x00, 0xad, 0x8a, 0x30,
  0xe0, 0x28, 0xb4, 0x2d, 0x48, 0x27, 0x8c, 0xb0, 0xfa, 0x24, 0x67, 0xad, 0x5f, 0xad, 0x5e, 0x26,
  0x05, 0x25, 0x0d, 0x28, 0x50, 0xa2, 0xab, 0xaa, 0x15, 0xa9, 0xfa, 0x32, 0x96, 0x30, 0x89, 0x29,
  0xa3, 0xa1, 0x56, 0xb2, 0x5a, 0x2e, 0x16, 0x2d, 0x99, 0x22, 0x36, 0x30, 0x59, 0xae, 0x90, 0xb0,
  0xc3, 0xa8, 0x6f, 0xaa, 0x14, 0xae, 0xa9, 0x1e, 0xe1, 0xa9, 0xb6, 0xa6, 0xb4, 0x23, 0xce, 0x29,
  0xf0, 0x26, 0xca, 0xab, 0x06, 0x2a, 0xbd, 0x2e, 0xdb, 0x25, 0x25, 0xad, 0x36, 0x2a, 0x51, 0x30,
  0xcc, 0xaa, 0x0f, 0xaf, 0xd2, 0x2d, 0x02, 0x2c, 0x3d, 0x2e, 0xd6, 0xab, 0x19, 0xaf, 0xc2, 0xac,
  0xc3, 0x1c, 0xae, 0x28, 0x02, 0x27, 0xf1, 0x26, 0x08, 0x2d, 0x36, 0x9f, 0x90, 0xad, 0x36, 0xab,
  0x17, 0xb0, 0x36, 0x2b, 0x9e, 0x2b, 0xb7, 0xa8, 0x48, 0xac, 0x23, 0x2c, 0xe0, 0x21, 0x9f, 0xab,
  0x22, 0x24, 0x3e, 0x20, 0xbd, 0xaf, 0xfd, 0x2c, 0x4e, 0xaf, 0x3c, 0xb0, 0x51, 0x18, 0x38, 0xb0,
  0x7f, 0xb3, 0xfb, 0x1f, 0x57, 0x2e, 0xbe, 0xa6, 0x61, 0xad, 0x2f, 0x2d, 0x46, 0xa2, 0x6a, 0x20,
  0xa8, 0x2f, 0xdd, 0x24, 0x84, 0xab, 0x95, 0xa8, 0x9d, 0x2d, 0x32, 0x26, 0xb3, 0xac, 0x66, 0x28,
  0x29, 0xab, 0x43, 0x26, 0xfe, 0xab, 0x99, 0xa7, 0x67, 0xa4, 0x3f, 0x25, 0x4f, 0xa0, 0x18, 0x2f,
  0x37, 0xb1, 0xf6, 0x21, 0x52, 0x28, 0x03, 0xa9, 0x96, 0x2e, 0xa5, 0x30, 0x8a, 0x2c, 0x62, 0xb0,
  0xbc, 0xaa, 0x71, 0xaa, 0xc2, 0x28, 0x5f, 0xab, 0xf7, 0xaa, 0x27, 0x32, 0x53, 0x30, 0x6b, 0xae,
  0x18, 0x16, 0x77, 0x2a, 0x74, 0xaa, 0x53, 0x14, 0x2a, 0xa9, 0x8c, 0x2f, 0x95, 0xac, 0x3f, 0xa9,
  0x30, 0x2c, 0xaf, 0x24, 0x2c, 0xac, 0xd4, 0x25, 0xf1, 0xa9, 0xf2, 0x29, 0xe7, 0x19, 0x08, 0xac,
  0x2f, 0x2a, 0x37, 0x2b, 0x1b, 0x28, 0x80, 0xa4, 0x3d, 0xb0, 0x8f, 0x2a, 0x17, 0xa6, 0x2c, 0xa0,
  0x6a, 0xa6, 0x7b, 0x17, 0x91, 0xac, 0x22, 0xaf, 0xdf, 0xaa, 0x7a, 0x29, 0xc7, 0xa4, 0xf4, 0xac,
  0x15, 0x9a, 0x01, 0x31, 0xf8, 0x2d, 0xd8, 0xad, 0x6a, 0xb0, 0x08, 0xae, 0xd6, 0xac, 0xed, 0x24,
  0xe2, 0xa1, 0x2e, 0x2d, 0xb9, 0x2e, 0x10, 0x23, 0xcb, 0xb0, 0xc1, 0xa0, 0x33, 0x25, 0x1d, 0x2f,
  0x75, 0xaa, 0xb8, 0xad, 0xe5, 0x28, 0xfd, 0x29, 0xce, 0xb0, 0xfd, 0x2f, 0xc2, 0xac, 0xb3, 0x2c,
  0xf4, 0xa7, 0x4e, 0xa3, 0xa6, 0x2b, 0x67, 0x22, 0x23, 0xa1, 0x9d, 0xad, 0x9c, 0x2e, 0x3c, 0xac,
  0x07, 0xad, 0x59, 0xac, 0x6e, 0xad, 0xcb, 0xad, 0xc9, 0xab, 0xa6, 0x30, 0x5c, 0x30, 0xbe, 0x2a,
  0x9d, 0x9e, 0x57, 0xac, 0xda, 0xa4, 0xfa, 0x25, 0xe6, 0xa9, 0x44, 0xaa, 0x67, 0xa6, 0xde, 0x9c,
  0xf3, 0x2d, 0xf7, 0xa1, 0x8d, 0x11, 0x2b, 0x30, 0x1e, 0xa5, 0xe6, 0xa8, 0x4f, 0xab, 0x19, 0xac,
  0x8f, 0x2b, 0xda, 0x99, 0x97, 0x2c, 0x62, 0x28, 0x9c, 0xa3, 0x0a, 0x07, 0x8a, 0x2b, 0x77, 0x2b,
  0x08, 0x31, 0x88, 0x31, 0x7b, 0xa8, 0x6b, 0x2d, 0x4d, 0xa0, 0xc5, 0xa4, 0x0c, 0x2e, 0x71, 0xac,
  0x0f, 0x2c, 0xa1, 0x33, 0xa4, 0x2f, 0x1f, 0xae, 0x49, 0x2d, 0x50, 0x2f, 0x3f, 0x24, 0x7d, 0x2e,
  0x61, 0x2c, 0x4d, 0x29, 0x06, 0x2c, 0x4a, 0xaa, 0x91, 0xa8, 0xc3, 0x21, 0xf4, 0x2a, 0x16, 0xaf,
  0xa2, 0xa9, 0x27, 0xa8, 0xd0, 0xab, 0xb0, 0x28, 0xdb, 0xac, 0xc0, 0x2b, 0xe6, 0x25, 0x05, 0xad,
  0x1e, 0xac, 0x3c, 0x25, 0x7d, 0x27, 0xfa, 0xa6, 0xf2, 0x2c, 0x8c, 0x1d, 0x1b, 0x94, 0x2e, 0xac,
  0x75, 0xa7, 0x83, 0xa9, 0xce, 0xa9, 0xbd, 0xaf, 0xec, 0xab, 0xea, 0xa7, 0xda, 0xab, 0x11, 0xae,
  0xfb, 0x28, 0x8d, 0xab, 0x42, 0x2a, 0xc9, 0x2d, 0xc0, 0x29, 0xc7, 0xab, 0x20, 0x2b, 0xd7, 0x11,
  0x24, 0xad, 0x05, 0x2b, 0xde, 0x2b, 0x3a, 0xa6, 0xf7, 0x2d, 0x28, 0xa3, 0x31, 0xa4, 0x0b, 0x2b,
  0x7e, 0xa8, 0x63, 0x31, 0x9e, 0xb0, 0x0c, 0x2d, 0x25, 0x94, 0xf9, 0x2e, 0x3d, 0x2c, 0xe0, 0xa1,
  0x2f, 0x2b, 0x79, 0xb0, 0x4e, 0x23, 0x03, 0x9d, 0x48, 0xab, 0x58, 0xab, 0x11, 0xa9, 0x5a, 0xa6,
  0x11, 0x21, 0xfe, 0x28, 0xc5, 0x8f, 0xa0, 0x2e, 0x44, 0x2a, 0xdb, 0x8e, 0xc7, 0xad, 0x01, 0x25,
  0x66, 0xa9, 0x4e, 0x31, 0x1b, 0xac, 0x9f, 0x1f, 0x02, 0x25, 0x8d, 0x28, 0x7d, 0x29, 0x22, 0x30,
  0x43, 0x22, 0x8e, 0x30, 0x9b, 0x2d, 0x4c, 0x12, 0xbe, 0x2c, 0x0b, 0x2e, 0xe0, 0x29, 0xb4, 0x20,
  0x38, 0xae, 0xcc, 0xa9, 0x57, 0x29, 0x44, 0xa8, 0xea, 0x29, 0x5a, 0xa9, 0x63, 0xa1, 0x5a, 0xaa,
  0x20, 0x97, 0x7d, 0x2f, 0xec, 0xa3, 0xb1, 0x31, 0xfa, 0x28, 0xc6, 0xa8, 0xff, 0xa9, 0x4c, 0x30,
  0x06, 0xae, 0x6a, 0xa8, 0x80, 0x30, 0x81, 0x30, 0x45, 0x25, 0xd1, 0x2e, 0xc2, 0xad, 0x51, 0xb0,
  0x01, 0xae, 0x86, 0xab, 0xb5, 0x2d, 0x75, 0xac, 0xbf, 0x2d, 0x25, 0xac, 0x06, 0xa6, 0x30, 0x30,
  0xe0, 0x26, 0xaa, 0xa8, 0x67, 0x23, 0x66, 0x99, 0x6f, 0x2d, 0x45, 0x2e, 0x7a, 0xa9, 0xb6, 0xad,
  0x3d, 0x9e, 0xd8, 0x22, 0x54, 0x2b, 0x16, 0xa6, 0xe2, 0xab, 0x9d, 0x25, 0x38, 0xaa, 0x12, 0x2c,
  0x56, 0xae, 0xa9, 0xad, 0x08, 0x2c, 0xce, 0x2d, 0x40, 0x2d, 0xe2, 0xac, 0xe9, 0xa5, 0x20, 0xb0,
  0x58, 0x2e, 0x6c, 0x2b, 0x7a, 0xab, 0x7f, 0xa9, 0xf8, 0x2e, 0x67, 0x27, 0x8a, 0xa7, 0x26, 0x1d,
  0xae, 0xae, 0x72, 0xb1, 0x92, 0x18, 0x7d, 0x29, 0x45, 0xa4, 0x34, 0x33, 0xe5, 0xa6, 0x8b, 0xab,
  0x08, 0x29, 0xf7, 0xae, 0x45, 0xac, 0x56, 0x99, 0x78, 0x2a, 0xc1, 0xac, 0x5a, 0x2b, 0x56, 0xa4,
  0x84, 0xaa, 0x9f, 0xb1, 0x67, 0x25, 0x8f, 0x2a, 0x53, 0xa7, 0x1a, 0xae, 0x75, 0xac, 0x90, 0xaa,
  0x8b, 0x2b, 0x88, 0x2b, 0x93, 0x23, 0xdd, 0x2b, 0x9f, 0x1b, 0x96, 0x2d, 0x03, 0x24, 0xbe, 0xa9,
  0xec, 0x1f, 0x9b, 0xa9, 0x84, 0xa3, 0xc8, 0x29, 0x68, 0x2b, 0xc5, 0xa9, 0x55, 0x29, 0x41, 0xa1,
  0x9f, 0xab, 0x77, 0xa0, 0x42, 0xaa, 0xbf, 0xaf, 0x53, 0xab, 0x3e, 0xb0, 0x5a, 0xae, 0x69, 0x21,
  0x18, 0x2c, 0x85, 0xac, 0x1e, 0x2c, 0xda, 0xac, 0x5c, 0x25, 0x02, 0xb3, 0x90, 0xac, 0x15, 0x2c,
  0x40, 0x2c, 0x89, 0xb0, 0x91, 0xb0, 0x23, 0x2e, 0xc1, 0xa6, 0x7d, 0xae, 0x8a, 0x2a, 0x0a, 0xad,
  0xbd, 0x2a, 0x03, 0xab, 0x76, 0x9f, 0x54, 0x20, 0xe8, 0xac, 0xb4, 0xae, 0x7c, 0xad, 0x13, 0xa3,
  0xe4, 0x2e, 0x39, 0x28, 0x08, 0xa4, 0x47, 0x2a, 0x77, 0xad, 0x9d, 0x28, 0xa0, 0xac, 0xfe, 0xab,
  0x4e, 0x23, 0x01, 0x2d, 0xca, 0x2f, 0xe8, 0xaf, 0x9f, 0xa8, 0x66, 0xa4, 0x43, 0x2c, 0x49, 0x2e,
  0x21, 0xa9, 0x4c, 0x30, 0xe9, 0xa8, 0x90, 0xb1, 0x6b, 0x2a, 0xfc, 0xb0, 0xa2, 0x98, 0x28, 0x2a,
  0x07, 0x2e, 0xb8, 0x27, 0xfd, 0x14, 0xa6, 0xab, 0x66, 0xa9, 0xb4, 0x2a, 0x04, 0xb0, 0xdd, 0x2e,
  0x98, 0x27, 0x3b, 0xa8, 0x67, 0xa2, 0xa7, 0x2e, 0x15, 0x2c, 0x16, 0x26, 0xd2, 0x30, 0x26, 0x28,
  0x1a, 0x2b, 0x5b, 0x29, 0x5c, 0xa7, 0x99, 0xa8, 0x6c, 0x2d, 0x14, 0xa8, 0x80, 0xa9, 0x3e, 0xaa,
  0xec, 0xae, 0x4e, 0x21, 0x7a, 0xac, 0xb1, 0x2d, 0x83, 0xad, 0x49, 0xa5, 0x47, 0x2d, 0xbc, 0x24,
  0xce, 0xab, 0xd5, 0xad, 0xef, 0xa9, 0x29, 0x2b, 0xf7, 0x29, 0x02, 0x30, 0x40, 0xa9, 0x5c, 0x1d,
  0xc8, 0x2b, 0xfb, 0xa9, 0x21, 0x2b, 0x7d, 0x25, 0xd5, 0xaf, 0xea, 0x2b, 0xa1, 0x20, 0x75, 0x98,
  0xa5, 0xa4, 0xdb, 0xae, 0xd4, 0x22, 0x5a, 0x29, 0xa3, 0xa8, 0x9b, 0x2d, 0xd0, 0xab, 0x02, 0x21,
  0xc9, 0x9b, 0x63, 0x20, 0xb6, 0xaa, 0xe7, 0x30, 0x6d, 0xae, 0x1a, 0xb0, 0xcd, 0xa4, 0x4e, 0x2f,
  0x51, 0xac, 0x4f, 0x2a, 0x98, 0x29, 0xed, 0xa5, 0x86, 0x2b, 0xfd, 0xb1, 0x1b, 0x24, 0x7f, 0x32,
  0x25, 0x17, 0xd6, 0xae, 0x02, 0xa0, 0x6b, 0xa0, 0x2c, 0xa1, 0xee, 0xab, 0x77, 0x2d, 0xc0, 0x2c,
  0x4b, 0x30, 0x41, 0xa5, 0x69, 0xa9, 0x49, 0x2d, 0x1a, 0xaa, 0x0e, 0xa7, 0x07, 0xa3, 0xf5, 0x2c,
  0x50, 0x17, 0x48, 0x29, 0x27, 0xac, 0xdc, 0x29, 0x2d, 0xac, 0xdc, 0x29, 0xdb, 0x2d, 0xdc, 0x26,
  0x80, 0xa4, 0x3f, 0xab, 0x71, 0x2a, 0x78, 0x2d, 0x71, 0xad, 0xe1, 0x2a, 0xe7, 0x29, 0xbf, 0x25,
  0x54, 0xa4, 0x58, 0x23, 0xba, 0x27, 0x05, 0x2d, 0x67, 0x2b, 0xca, 0xa5, 0x73, 0xa9, 0x21, 0x2d,
  0xd3, 0x2b, 0xd6, 0x22, 0xf5, 0x2c, 0xa2, 0xab, 0xa9, 0x27, 0xe2, 0xa9, 0x2f, 0x2c, 0x56, 0xa1,
  0x8d, 0x2e, 0x39, 0xa4, 0xc6, 0x2b, 0x4e, 0x1f, 0x4e, 0x9e, 0x37, 0x2d, 0x40, 0xaa, 0xf0, 0xb0,
  0x19, 0x2d, 0xde, 0xaa, 0xd5, 0x2e, 0x97, 0x2c, 0x82, 0xac, 0xc0, 0xad, 0x25, 0x31, 0x69, 0x30,
  0xbe, 0x28, 0x53, 0x28, 0x50, 0xae, 0xbb, 0x2f, 0x9e, 0x19, 0xdc, 0xb0, 0x0b, 0xb1, 0x11, 0x31,
  0x99, 0xab, 0x17, 0x9a, 0x6e, 0xab, 0xe4, 0xab, 0x97, 0x2d, 0xa2, 0xa6, 0x74, 0xa8, 0x69, 0xa3,
  0x62, 0x25, 0x81, 0x9d, 0xaf, 0xa9, 0xed, 0xad, 0x10, 0x24, 0x1d, 0xac, 0x41, 0x27, 0x4a, 0xab,
  0xb6, 0xa9, 0x4f, 0x28, 0xc4, 0xa4, 0x49, 0x2b, 0xd7, 0x22, 0xd9, 0x30, 0xbd, 0x91, 0x10, 0x2d,
  0xc7, 0x2c, 0x31, 0xab, 0x34, 0x31, 0xff, 0x2d, 0xa3, 0xac, 0xa7, 0x1d, 0x72, 0x28, 0xf4, 0xb0,
  0x79, 0x1e, 0x17, 0xad, 0xa0, 0x21, 0x5f, 0xb1, 0x36, 0xab, 0x90, 0xac, 0x60, 0xa9, 0x62, 0x2e,
  0x2d, 0x2c, 0xe7, 0x29, 0x2e, 0x24, 0x20, 0x26, 0xb5, 0x2c, 0xf2, 0xad, 0x3a, 0xab, 0xe3, 0x24,
  0xc8, 0x2e, 0xb4, 0xa4, 0xc0, 0x2c, 0xa4, 0xad, 0x1f, 0xae, 0x2d, 0x2e, 0xb0, 0x2e, 0x0a, 0x2e,
  0x28, 0x25, 0x74, 0x24, 0x1a, 0x2f, 0x6e, 0x2c, 0xf7, 0xac, 0x0e, 0xac, 0xf9, 0x2a, 0xb5, 0x28,
  0x67, 0xac, 0x42, 0x18, 0x0a, 0xac, 0xa7, 0xaa, 0xc9, 0xa8, 0x0a, 0xab, 0x63, 0x2b, 0x2e, 0x29,
  0xcf, 0x28, 0xb9, 0xac, 0xd6, 0x23, 0x1e, 0x1a, 0x01, 0x2f, 0x3c, 0xaf, 0x5d, 0xa4, 0x7d, 0x26,
  0x4d, 0x96, 0x4a, 0xa9, 0x36, 0x1c, 0x5b, 0xa8, 0xcb, 0xa9, 0x6c, 0x2c, 0xae, 0x2c, 0xa4, 0x2b,
  0x27, 0xab, 0xc6, 0x2e, 0x01, 0xab, 0xd9, 0xae, 0xa4, 0xa6, 0xaf, 0x24, 0x1c, 0xb0, 0x13, 0x1f,
  0xa7, 0x2d, 0x7a, 0x2d, 0xf9, 0x2d, 0xab, 0x2c, 0x78, 0x2a, 0x72, 0x2f, 0xc6, 0xb0, 0xdf, 0x29,
  0x45, 0x14, 0x89, 0x10, 0x31, 0xb2, 0x67, 0xa2, 0xb8, 0x8b, 0xf2, 0x25, 0x8a, 0x19, 0x62, 0x28,
  0x31, 0xb1, 0xa1, 0xad, 0xc2, 0xad, 0x30, 0x29, 0xb0, 0xad, 0xf8, 0x30, 0xeb, 0xab, 0x83, 0x2d,
  0x29, 0xab, 0x02, 0xb2, 0x7d, 0xa7, 0x94, 0x30, 0x00, 0xa9, 0x79, 0x92, 0x69, 0xa5, 0x53, 0xaf,
  0x09, 0xa4, 0xe4, 0xb0, 0x4b, 0xb1, 0x63, 0xa1, 0xba, 0x2a, 0xc3, 0xb1, 0x4b, 0x2c, 0x75, 0xaa,
  0x22, 0xaa, 0x7d, 0x26, 0x72, 0xb3, 0x82, 0x29, 0xd1, 0xaa, 0x61, 0xae, 0x36, 0xad, 0x4c, 0x2b,
  0x57, 0xa0, 0xc9, 0x29, 0x92, 0x2e, 0xd9, 0xa8, 0x9c, 0xa9, 0x1f, 0xae, 0xc5, 0xad, 0x85, 0x2a,
