/* Auto-generated from espcn_micro_float32.tflite — do not edit */
#pragma once
#include <stddef.h>

const unsigned char espcn_micro_float32_tflite[] = {
  0x1c, 0x00, 0x00, 0x00, 0x54, 0x46, 0x4c, 0x33, 0x14, 0x00, 0x20, 0x00, 0x1c, 0x00, 0x18, 0x00,
  0x14, 0x00, 0x10, 0x00, 0x0c, 0x00, 0x00, 0x00, 0x04, 0x00, 0x08, 0x00, 0x14, 0x00, 0x00, 0x00,
  0x1c, 0x00, 0x00, 0x00, 0x20, 0x00, 0x00, 0x00, 0x24, 0x00, 0x00, 0x00, 0x48, 0x00, 0x00, 0x00,
  0x64, 0x00, 0x00, 0x00, 0x68, 0x00, 0x00, 0x00, 0x03, 0x00, 0x00, 0x00, 0x01, 0x00, 0x00, 0x00,
  0x6c, 0x00, 0x00, 0x00, 0x01, 0x00, 0x00, 0x00, 0x98, 0x00, 0x00, 0x00, 0x09, 0x00, 0x00, 0x00,
  0xa8, 0x1a, 0x00, 0x00, 0x54, 0x18, 0x00, 0x00, 0x04, 0x18, 0x00, 0x00, 0xf4, 0x05, 0x00, 0x00,
  0xc4, 0x05, 0x00, 0x00, 0x34, 0x01, 0x00, 0x00, 0x14, 0x01, 0x00, 0x00, 0xf4, 0x00, 0x00, 0x00,
  0xd8, 0x00, 0x00, 0x00, 0x19, 0x00, 0x00, 0x00, 0x6f, 0x6e, 0x6e, 0x78, 0x32, 0x74, 0x66, 0x20,
  0x66, 0x6c, 0x61, 0x74, 0x62, 0x75, 0x66, 0x66, 0x65, 0x72, 0x5f, 0x64, 0x69, 0x72, 0x65, 0x63,
  0x74, 0x00, 0x00, 0x00, 0x01, 0x00, 0x00, 0x00, 0x74, 0x1a, 0x00, 0x00, 0x03, 0x00, 0x00, 0x00,
  0xe0, 0x20, 0x00, 0x00, 0xc4, 0x20, 0x00, 0x00, 0xb4, 0x20, 0x00, 0x00, 0x98, 0xff, 0xff, 0xff,
  0x08, 0x00, 0x00, 0x00, 0x04, 0x00, 0x00, 0x00, 0x19, 0x00, 0x00, 0x00, 0x72, 0x65, 0x64, 0x75,
  0x63, 0x65, 0x64, 0x5f, 0x70, 0x72, 0x65, 0x63, 0x69, 0x73, 0x69, 0x6f, 0x6e, 0x5f, 0x73, 0x75,
  0x70, 0x70, 0x6f, 0x72, 0x74, 0x00, 0x0a, 0x00, 0x10, 0x00, 0x0c, 0x00, 0x08, 0x00, 0x04, 0x00,
  0x0a, 0x00, 0x00, 0x00, 0x0c, 0x00, 0x00, 0x00, 0x1c, 0x00, 0x00, 0x00, 0x20, 0x00, 0x00, 0x00,
  0x0f, 0x00, 0x00, 0x00, 0x73, 0x65, 0x72, 0x76, 0x69, 0x6e, 0x67, 0x5f, 0x64, 0x65, 0x66, 0x61,
  0x75, 0x6c, 0x74, 0x00, 0x01, 0x00, 0x00, 0x00, 0x14, 0x00, 0x00, 0x00, 0x01, 0x00, 0x00, 0x00,
  0x24, 0x00, 0x00, 0x00, 0x08, 0x00, 0x0c, 0x00, 0x08, 0x00, 0x04, 0x00, 0x08, 0x00, 0x00, 0x00,
  0x0a, 0x00, 0x00, 0x00, 0x04, 0x00, 0x00, 0x00, 0x06, 0x00, 0x00, 0x00, 0x6f, 0x75, 0x74, 0x70,
  0x75, 0x74, 0x00, 0x00, 0x36, 0xe5, 0xff, 0xff, 0x04, 0x00, 0x00, 0x00, 0x05, 0x00, 0x00, 0x00,
  0x69, 0x6e, 0x70, 0x75, 0x74, 0x00, 0x00, 0x00, 0x4a, 0xe5, 0xff, 0xff, 0x04, 0x00, 0x00, 0x00,
  0x0b, 0x00, 0x00, 0x00, 0x66, 0x70, 0x31, 0x36, 0x61, 0x63, 0x63, 0x66, 0x70, 0x33, 0x32, 0x00,
  0x62, 0xe5, 0xff, 0xff, 0x04, 0x00, 0x00, 0x00, 0x10, 0x00, 0x00, 0x00, 0x00, 0x00, 0x00, 0x00,
  0x01, 0x00, 0x00, 0x00, 0x02, 0x00, 0x00, 0x00, 0x03, 0x00, 0x00, 0x00, 0x7e, 0xe5, 0xff, 0xff,
  0x04, 0x00, 0x00, 0x00, 0x10, 0x00, 0x00, 0x00, 0xc3, 0x11, 0x9b, 0xbc, 0x81, 0x22, 0x92, 0x3c,
  0x41, 0x53, 0x3d, 0x3d, 0xcb, 0xae, 0x26, 0x3d, 0x9a, 0xe5, 0xff, 0xff, 0x04, 0x00, 0x00, 0x00,
  0x80, 0x04, 0x00, 0x00, 0xa3, 0x13, 0x04, 0x3e, 0xdf, 0x79, 0x58, 0x3c, 0x76, 0x2f, 0xca, 0xbc,
  0x0d, 0xc7, 0x92, 0xbd, 0xc7, 0x3b, 0x21, 0xbe, 0xd4, 0xfe, 0xc1, 0x3b, 0x60, 0x31, 0xd4, 0x3d,
  0xf2, 0x82, 0x07, 0xbe, 0x61, 0xf9, 0xac, 0xbc, 0xd8, 0x39, 0x8e, 0x3c, 0xc3, 0xce, 0xc5, 0x3d,
  0xd1, 0xf2, 0x47, 0xbd, 0x5e, 0x17, 0x81, 0x3d, 0xe0, 0x75, 0x4f, 0xbd, 0x62, 0xf3, 0x76, 0x3d,
  0xe7, 0x5e, 0x91, 0x3e, 0xc9, 0x91, 0x36, 0x3c, 0x9d, 0x82, 0x11, 0xbc, 0x73, 0xd0, 0xc1, 0x3c,
  0xcb, 0x6a, 0x1f, 0x3d, 0x8d, 0x34, 0x95, 0xbd, 0x07, 0x90, 0x99, 0x3d, 0xad, 0x59, 0x5c, 0x3c,
  0x87, 0x6d, 0x4e, 0xbd, 0x56, 0x41, 0x8f, 0x3c, 0x9f, 0x6e, 0x5d, 0x3d, 0x0c, 0xe8, 0xc5, 0x3d,
  0x55, 0x8d, 0x8e, 0x3d, 0xf6, 0xad, 0x51, 0xbd, 0x55, 0xf3, 0x08, 0xbd, 0x5f, 0xdc, 0x95, 0x3b,
  0xa2, 0x8f, 0xa2, 0x3d, 0x94, 0x17, 0x88, 0x3d, 0xae, 0x9b, 0xa1, 0x3d, 0x22, 0x5b, 0x84, 0x3d,
  0xc1, 0x6d, 0x5c, 0x3e, 0x7f, 0xfd, 0x26, 0x3e, 0x14, 0x1c, 0x0a, 0x3d, 0x13, 0x9a, 0xf4, 0x3c,
  0xca, 0x03, 0x18, 0x3c, 0xe2, 0x4b, 0xd2, 0xbc, 0x11, 0x6f, 0xee, 0x3d, 0x19, 0xa7, 0x36, 0xbc,
  0x5b, 0xd1, 0xa5, 0xbd, 0x65, 0x49, 0x27, 0x3e, 0xbf, 0x94, 0xc2, 0xbb, 0x72, 0x3f, 0x28, 0xbd,
  0xe8, 0x9c, 0x91, 0xbc, 0xd8, 0x58, 0x87, 0x3d, 0xbf, 0x09, 0x06, 0x3e, 0x12, 0x70, 0x16, 0xbc,
  0xe3, 0x93, 0x11, 0xbc, 0x2d, 0x06, 0xb3, 0xbd, 0x4c, 0x5e, 0xac, 0xbd, 0x09, 0xdb, 0xbc, 0xbc,
  0xa6, 0x4b, 0x08, 0xbd, 0xe3, 0xef, 0x3d, 0x3d, 0xd8, 0x82, 0x02, 0x3d, 0xa3, 0x5e, 0x29, 0x3e,
  0x23, 0x43, 0x01, 0x3e, 0x07, 0x83, 0xba, 0xbd, 0x75, 0x4d, 0xb8, 0xbd, 0xcc, 0x9a, 0x54, 0x3d,
  0x77, 0x7e, 0xb9, 0xbd, 0x53, 0x50, 0xde, 0x3b, 0x6e, 0x9e, 0x30, 0xbd, 0x2d, 0x2b, 0x64, 0x3d,
  0x6d, 0xc8, 0x1e, 0xbd, 0x39, 0xee, 0x36, 0xbd, 0xe2, 0x7e, 0xa0, 0x3a, 0xcd, 0xb8, 0x0f, 0xbc,
  0x84, 0xb9, 0xa6, 0xba, 0xe7, 0x8c, 0xad, 0x3d, 0xe0, 0x0e, 0x54, 0xbc, 0x61, 0x78, 0x70, 0x3d,
  0xf1, 0xd2, 0x4a, 0xbe, 0xc8, 0xfe, 0x8a, 0xbd, 0x0e, 0xe2, 0xd7, 0x3d, 0x1a, 0xe8, 0x18, 0x3e,
  0xa8, 0x8e, 0xee, 0x3d, 0x52, 0x3d, 0x9a, 0xbc, 0xb7, 0x6e, 0x2e, 0x3d, 0x90, 0xcb, 0xa8, 0x3d,
  0xb8, 0x8f, 0xf4, 0xba, 0x3a, 0xd9, 0xa4, 0x3c, 0x42, 0x86, 0xa4, 0x3d, 0xff, 0xa9, 0xa0, 0x3d,
  0x0c, 0x68, 0xb1, 0xbd, 0xf4, 0x1b, 0x0e, 0xbd, 0x7a, 0x74, 0x46, 0x3c, 0x81, 0x47, 0x0c, 0x3a,
  0x8f, 0xec, 0x60, 0xbc, 0x17, 0x6e, 0xa6, 0xbd, 0x8c, 0x5e, 0x79, 0xbd, 0x35, 0x48, 0xdf, 0x3d,
  0x2e, 0x20, 0x78, 0x3e, 0x0c, 0x50, 0x33, 0xbd, 0x23, 0x6a, 0x9f, 0xbd, 0x11, 0x24, 0xb3, 0xbc,
  0x7b, 0xaa, 0x99, 0xbc, 0x6b, 0x65, 0x97, 0x3b, 0xd1, 0xe1, 0xa3, 0xbc, 0xba, 0x36, 0x0c, 0x3c,
  0xee, 0xf5, 0x3f, 0xba, 0xe8, 0x49, 0x5d, 0x3e, 0xce, 0x9f, 0xb3, 0x3d, 0xbe, 0x04, 0x27, 0xbc,
  0x08, 0xb3, 0x62, 0x3e, 0x0f, 0x18, 0xae, 0x3d, 0x02, 0x12, 0x75, 0x3d, 0x6f, 0xdc, 0xdb, 0x3d,
  0xdb, 0x27, 0xda, 0xbd, 0xaf, 0xcc, 0x4d, 0x3d, 0x48, 0x83, 0x01, 0x3d, 0x6e, 0xbb, 0xc9, 0x3c,
  0x59, 0xb5, 0x07, 0x3c, 0xf2, 0x4f, 0x7d, 0x3d, 0xf1, 0xf0, 0xce, 0xbd, 0x67, 0xf2, 0xec, 0xbd,
  0x7b, 0xbf, 0x3c, 0x3d, 0x68, 0x89, 0xe6, 0x3c, 0x43, 0x13, 0xc8, 0x3d, 0x6c, 0x20, 0xce, 0x3d,
  0x31, 0x16, 0x58, 0x3d, 0x7c, 0xc3, 0xff, 0xbc, 0x20, 0x68, 0xb4, 0xbd, 0x5f, 0xd6, 0xc8, 0xbd,
  0xfc, 0xa6, 0x3c, 0xbd, 0x97, 0x8f, 0xe2, 0xbc, 0x0e, 0xb8, 0x3d, 0x3d, 0x97, 0xbc, 0xa3, 0x3d,
  0x67, 0xa8, 0x9c, 0x3d, 0x7d, 0xca, 0x4f, 0xbd, 0x3d, 0x6c, 0x94, 0x3d, 0x8d, 0x65, 0x15, 0x3e,
  0xd2, 0xff, 0x3e, 0x3b, 0x1a, 0xff, 0xe2, 0xbb, 0x1b, 0x5e, 0x85, 0x3c, 0x0a, 0xcf, 0x08, 0xbc,
  0x7e, 0xdc, 0xb4, 0xbd, 0x9f, 0x9e, 0xa1, 0x3b, 0x73, 0x9a, 0xae, 0xbd, 0x85, 0xd4, 0x7a, 0xbd,
  0x70, 0xcb, 0x61, 0xbc, 0xde, 0xf9, 0xd1, 0x3c, 0x86, 0x4f, 0x69, 0x3d, 0x77, 0xc4, 0x48, 0x3d,
  0x54, 0xb2, 0x04, 0x3c, 0xdb, 0x82, 0x65, 0xbb, 0x84, 0x1b, 0xce, 0x3c, 0x7f, 0xb9, 0x80, 0xbd,
  0x4c, 0x90, 0x15, 0x3d, 0xf7, 0xfa, 0x22, 0xbe, 0xd4, 0x8e, 0x58, 0xbd, 0x70, 0x5d, 0xfd, 0x3d,
  0x36, 0xc5, 0x51, 0xbd, 0x35, 0xc3, 0x95, 0x3d, 0xde, 0xc2, 0xbc, 0xbd, 0x96, 0x27, 0x53, 0x3d,
  0x21, 0x98, 0x6f, 0x3e, 0xef, 0xc8, 0x5e, 0x3c, 0xf3, 0x8e, 0x19, 0xbd, 0x5f, 0x6e, 0x89, 0xbd,
  0x40, 0x70, 0xbb, 0x3d, 0x7c, 0xc8, 0x36, 0xbc, 0x65, 0x67, 0x45, 0x3d, 0xbc, 0x6c, 0x86, 0xbd,
  0x80, 0x9c, 0x49, 0xbd, 0xb5, 0x63, 0x80, 0xbc, 0x27, 0xf5, 0x35, 0xbd, 0x15, 0x31, 0xba, 0x3d,
  0x2e, 0xdd, 0xba, 0xbd, 0xeb, 0xce, 0x50, 0xbb, 0xaf, 0xc9, 0x9c, 0xbd, 0xc9, 0xbc, 0x0a, 0xbc,
  0xa2, 0x50, 0x0d, 0xbd, 0x8d, 0xef, 0x2b, 0x3e, 0xfb, 0x97, 0xba, 0xbd, 0x1b, 0x74, 0x71, 0x3d,
  0xa5, 0xc5, 0x29, 0x3e, 0x58, 0xdc, 0x79, 0x3e, 0xa4, 0x59, 0x62, 0x3b, 0xf4, 0x19, 0x64, 0x3d,
  0xd1, 0x32, 0x13, 0x3e, 0x2e, 0x83, 0x2e, 0xbd, 0x11, 0x16, 0x67, 0x3d, 0x7e, 0x16, 0x48, 0x3d,
  0x37, 0x91, 0x1f, 0xbd, 0x8a, 0x6f, 0x20, 0x3d, 0x95, 0x10, 0x85, 0xbd, 0x81, 0xf6, 0x41, 0x3d,
  0xfa, 0x5c, 0x11, 0x3d, 0x80, 0x62, 0x8f, 0x3c, 0x42, 0x16, 0x61, 0xbd, 0x7f, 0xac, 0xc8, 0xbc,
  0x6c, 0x78, 0x2f, 0xbd, 0xfa, 0x00, 0xf8, 0xba, 0xf3, 0xe5, 0x35, 0x3d, 0xcb, 0xef, 0x2e, 0xbc,
  0xec, 0x61, 0xf3, 0x3c, 0xab, 0x64, 0x46, 0xbd, 0xad, 0x89, 0xa8, 0x3d, 0xdc, 0x65, 0xb7, 0xbc,
  0x51, 0x70, 0x00, 0x3e, 0xa3, 0x79, 0x43, 0xbc, 0x5a, 0x7e, 0x9c, 0x3b, 0x8d, 0x9a, 0x1f, 0x3d,
  0xb9, 0xd8, 0xb1, 0xbd, 0x1b, 0x33, 0x18, 0xbd, 0xe4, 0xa8, 0x00, 0x3d, 0x96, 0xb0, 0x06, 0x3d,
  0xc0, 0x84, 0x38, 0xbd, 0xa2, 0xcd, 0x44, 0xbd, 0xd7, 0x5b, 0x18, 0x3e, 0xcf, 0xed, 0x96, 0xbc,
  0x23, 0x8c, 0x8e, 0xbc, 0x6d, 0xa3, 0xce, 0x3d, 0xe7, 0x75, 0xf5, 0x3c, 0x45, 0x55, 0xa8, 0x3d,
  0x09, 0x0f, 0xf6, 0xbd, 0xb7, 0x17, 0x4b, 0xbd, 0xa3, 0x3d, 0x5e, 0xbd, 0xa2, 0x12, 0x26, 0x3c,
  0x0a, 0x10, 0x70, 0x3d, 0xe5, 0xd8, 0x03, 0xbe, 0xc3, 0xaa, 0x02, 0x3d, 0x0d, 0x1a, 0x89, 0x3d,
  0x95, 0x5e, 0xad, 0xbb, 0x75, 0xde, 0x20, 0x3e, 0x5a, 0x47, 0x97, 0xbd, 0x8d, 0x48, 0xb8, 0xbc,
  0x64, 0x0c, 0xe6, 0xbd, 0x06, 0x2b, 0x55, 0xbd, 0xe2, 0x61, 0x00, 0xbc, 0x2b, 0xd1, 0x89, 0x3d,
  0xe3, 0x8e, 0xdc, 0xbc, 0x1b, 0x31, 0xe9, 0xbd, 0xff, 0xbb, 0x76, 0x3d, 0x51, 0x88, 0x00, 0x3e,
  0x90, 0xa1, 0x40, 0x3e, 0xe7, 0x8c, 0xcc, 0xbc, 0x54, 0x03, 0xe9, 0xbd, 0xdc, 0x4d, 0x0b, 0xbe,
  0xef, 0x51, 0x95, 0xbd, 0x27, 0x72, 0xeb, 0x3c, 0x26, 0x39, 0x37, 0x3c, 0xfd, 0x17, 0xed, 0x3d,
  0x7e, 0x8a, 0xb4, 0x3b, 0x7a, 0x80, 0x14, 0x3e, 0xf9, 0x1f, 0x0b, 0x3e, 0x86, 0x69, 0x47, 0x3d,
  0xf4, 0xcb, 0x09, 0x3d, 0xf2, 0x75, 0x75, 0x3e, 0x52, 0x17, 0x12, 0x3e, 0xad, 0x78, 0x12, 0x3e,
  0x36, 0x6c, 0x04, 0xbe, 0x60, 0x34, 0xd7, 0xbb, 0x9f, 0x59, 0x1e, 0x3d, 0x01, 0x3b, 0xb4, 0xbd,
  0x48, 0xec, 0x86, 0x3d, 0x45, 0x45, 0xaa, 0x3d, 0x23, 0x47, 0x59, 0xbb, 0xe5, 0xa5, 0x84, 0xbd,
  0xfa, 0xf7, 0x0e, 0x3e, 0x83, 0x3c, 0x0a, 0xbd, 0x45, 0x52, 0x5b, 0xbd, 0x25, 0x27, 0x1b, 0x3d,
  0x70, 0x1a, 0x27, 0x3d, 0x02, 0x1e, 0x89, 0x3d, 0x08, 0xf5, 0x14, 0x3d, 0x85, 0x8a, 0x2e, 0x3d,
  0xcb, 0x31, 0xc0, 0xbc, 0x5e, 0x97, 0xfb, 0xbc, 0xf9, 0xd9, 0x49, 0x3d, 0x3c, 0x0c, 0x93, 0x3d,
  0x57, 0xe5, 0xf5, 0x3c, 0x85, 0x9c, 0x57, 0x3c, 0xf5, 0xa1, 0x3c, 0xbd, 0xb3, 0x60, 0xf2, 0x3d,
  0x28, 0x95, 0xcd, 0xbd, 0x9e, 0x3d, 0x6a, 0xbd, 0xde, 0x04, 0x86, 0xbd, 0xbc, 0x15, 0xbb, 0x3d,
  0xec, 0x4d, 0x9e, 0xbd, 0xc1, 0x3a, 0xa0, 0xbd, 0xe9, 0x22, 0xcb, 0xbd, 0x8a, 0x02, 0x4c, 0x3c,
  0x0a, 0x3a, 0x66, 0xbc, 0x26, 0xea, 0xff, 0xff, 0x04, 0x00, 0x00, 0x00, 0x20, 0x00, 0x00, 0x00,
  0x86, 0xc5, 0x0b, 0x3c, 0x28, 0xb7, 0xc2, 0xbc, 0x9d, 0xfe, 0x9e, 0x3d, 0x7a, 0x4f, 0xe7, 0xbc,
  0x78, 0x3c, 0x0d, 0x3d, 0xca, 0xe9, 0x7d, 0x3d, 0x61, 0x0b, 0x04, 0xbd, 0xc9, 0xdf, 0x83, 0x3d,
  0x52, 0xea, 0xff, 0xff, 0x04, 0x00, 0x00, 0x00, 0x00, 0x12, 0x00, 0x00, 0x9b, 0x35, 0xac, 0xbc,
  0x53, 0x75, 0xc0, 0x3c, 0x1e, 0x54, 0xb4, 0x3d, 0x56, 0xd1, 0xbd, 0x3d, 0x40, 0x3f, 0x82, 0x3d,
  0xcb, 0xd1, 0x93, 0x3e, 0x4a, 0xae, 0x61, 0xbb, 0x3c, 0xf7, 0xb7, 0x3d, 0x3a, 0xe3, 0x6c, 0xbe,
  0xeb, 0xbf, 0x41, 0xbd, 0x73, 0x50, 0x94, 0xbc, 0x78, 0x3d, 0x30, 0xbd, 0xdd, 0xdb, 0x5e, 0x3c,
  0xec, 0x57, 0x53, 0xbe, 0x47, 0x2a, 0xc8, 0x3d, 0x2f, 0xfa, 0x81, 0x3d, 0x59, 0xf6, 0x5e, 0x3d,
  0x4d, 0x62, 0xcd, 0x3d, 0x68, 0x1a, 0xec, 0xbc, 0x72, 0xfb, 0x59, 0x3e, 0x0d, 0x39, 0xb1, 0xbc,
  0x7b, 0xf8, 0xbe, 0xbc, 0x54, 0x73, 0x9b, 0x3c, 0xf9, 0x1f, 0x50, 0x3d, 0x1b, 0x8c, 0x17, 0x3d,
  0x0b, 0xb6, 0x13, 0x3c, 0x69, 0x4e, 0x80, 0x3d, 0x74, 0x0e, 0x51, 0x3d, 0xc9, 0xec, 0xa1, 0xbc,
  0x6d, 0xc1, 0xa9, 0xbd, 0x88, 0x8f, 0xea, 0x3c, 0xa8, 0x68, 0xa8, 0x3c, 0x15, 0xc2, 0x7d, 0xbd,
  0x0e, 0x79, 0x63, 0xbb, 0x16, 0xcc, 0x84, 0x3c, 0x2b, 0x28, 0xa5, 0x3c, 0x19, 0xf4, 0x7b, 0xbd,
  0xd7, 0xa3, 0x9d, 0x3d, 0xd6, 0xd2, 0x09, 0xbd, 0x8a, 0x69, 0xf6, 0x3c, 0xfb, 0x6b, 0xbb, 0x3d,
  0x88, 0xdf, 0x3c, 0x3d, 0x4b, 0xe8, 0x84, 0xbc, 0x4f, 0x24, 0xc7, 0x3d, 0xfc, 0xee, 0x7e, 0xbd,
  0x88, 0x54, 0x70, 0x3b, 0x09, 0xbc, 0xc5, 0x3d, 0x07, 0xd8, 0x97, 0xbd, 0x20, 0xd6, 0x5e, 0xbd,
  0x6a, 0xe0, 0x91, 0x3d, 0x9f, 0xf9, 0xcf, 0xbd, 0x7f, 0xca, 0xdb, 0xbd, 0x46, 0xb4, 0x1d, 0xbc,
  0xa4, 0x32, 0x93, 0xbd, 0x6e, 0xa8, 0xc4, 0x3c, 0x18, 0x4b, 0x34, 0x3d, 0x37, 0x43, 0x6d, 0xbe,
  0x88, 0x56, 0x6d, 0xbd, 0x18, 0xcc, 0xeb, 0x3a, 0x61, 0x19, 0xe9, 0x3d, 0x92, 0x8e, 0xe7, 0x3d,
  0x49, 0xee, 0x16, 0x3e, 0x3c, 0x53, 0xf0, 0x3d, 0x83, 0xc2, 0x0a, 0x3d, 0x87, 0x62, 0x98, 0x3d,
  0xad, 0x38, 0x76, 0x3d, 0x7c, 0x7a, 0x20, 0x3c, 0x7a, 0xd3, 0x7b, 0xbd, 0x90, 0x30, 0x76, 0x3d,
  0x4d, 0xdb, 0xac, 0x3e, 0x32, 0x14, 0x2f, 0xbd, 0x73, 0x8b, 0x57, 0xbc, 0xea, 0x66, 0x9c, 0xbe,
  0xd6, 0xf4, 0x38, 0xbb, 0x66, 0x23, 0xf5, 0x3d, 0x3a, 0xe4, 0x2f, 0xbc, 0x35, 0xfd, 0x22, 0x3d,
  0x2c, 0x64, 0x0d, 0x3d, 0x2b, 0x05, 0x22, 0x3e, 0x0c, 0xcd, 0x52, 0xbd, 0xf2, 0x01, 0x90, 0x3d,
  0x0a, 0xa6, 0x0d, 0xbc, 0x6a, 0x8e, 0x9e, 0x3d, 0x0d, 0xad, 0xdf, 0x3d, 0x05, 0x43, 0x4b, 0xbc,
  0xeb, 0x41, 0x11, 0xbe, 0xed, 0x68, 0x51, 0x3d, 0x7d, 0x05, 0x02, 0x3e, 0xb4, 0x5b, 0x4b, 0xbd,
  0x16, 0x56, 0x01, 0xbc, 0x3e, 0xb8, 0xc1, 0x3d, 0xee, 0x12, 0x1b, 0xbd, 0xb9, 0x09, 0x5a, 0xbd,
  0x0e, 0xc3, 0x10, 0xbc, 0xed, 0xb8, 0x9c, 0xbd, 0x3b, 0xee, 0x25, 0xbd, 0xb6, 0x85, 0x56, 0x3d,
  0x60, 0x74, 0x5e, 0xbd, 0x54, 0x79, 0x2c, 0xbd, 0x52, 0x71, 0xd1, 0x3c, 0x31, 0x35, 0x72, 0x3d,
  0x38, 0xf4, 0x3a, 0x3e, 0xfa, 0x33, 0x1c, 0xbd, 0xce, 0x9e, 0x07, 0x3c, 0xb3, 0x97, 0xfe, 0x3c,
  0xe3, 0x76, 0x1a, 0xbd, 0x19, 0x9d, 0x42, 0xbb, 0x95, 0xd4, 0x8a, 0x3d, 0xab, 0x22, 0x01, 0xbd,
  0x8f, 0xc4, 0x48, 0xbc, 0x6b, 0x6d, 0x32, 0xbd, 0x03, 0x27, 0x88, 0x3d, 0x8e, 0x72, 0xb1, 0x3d,
  0x16, 0x45, 0x11, 0x3d, 0x97, 0x79, 0x8b, 0x3d, 0xa6, 0x52, 0xdd, 0x3d, 0xcd, 0xdf, 0xf5, 0xbc,
  0x53, 0x1d, 0x48, 0xbe, 0xb3, 0x3d, 0xc3, 0xbb, 0xc8, 0xfb, 0xe1, 0x3c, 0xea, 0xab, 0xdc, 0x3c,
  0x00, 0xc7, 0xd8, 0xbb, 0x78, 0x68, 0x48, 0x3d, 0xeb, 0x01, 0xd2, 0x3d, 0x2f, 0xb2, 0x84, 0xbc,
  0xca, 0xca, 0x60, 0xbc, 0x6f, 0x9c, 0xac, 0xbd, 0xb8, 0x71, 0x49, 0x3c, 0x9b, 0xf7, 0x31, 0xbc,
  0xb8, 0xc5, 0xba, 0x3c, 0x93, 0x9a, 0x9f, 0x3d, 0x81, 0x0c, 0x74, 0xbe, 0x93, 0xbb, 0x74, 0x3d,
  0x7e, 0x68, 0x81, 0x3d, 0x4f, 0xb3, 0xc3, 0x3d, 0xcc, 0x12, 0x66, 0xbd, 0xe9, 0xab, 0x1a, 0xbe,
  0xd6, 0x0e, 0x14, 0xbc, 0x45, 0x42, 0x92, 0xbd, 0x66, 0xc1, 0x41, 0xba, 0xda, 0x52, 0xd0, 0x3d,
  0x3e, 0x6f, 0x27, 0xbd, 0xde, 0x35, 0x67, 0xbd, 0x6f, 0xc4, 0x31, 0xbd, 0xcc, 0x09, 0xa5, 0x3d,
  0xd8, 0xd7, 0x23, 0x3d, 0x0d, 0x2c, 0xcd, 0xbc, 0x27, 0x47, 0x95, 0x3d, 0x4c, 0xd3, 0x82, 0xbd,
  0x39, 0x47, 0x03, 0x3e, 0x81, 0xc1, 0x84, 0xbd, 0x4b, 0x0e, 0x0b, 0x3d, 0x6b, 0x5a, 0xe0, 0xbd,
  0xe0, 0x36, 0x44, 0xbd, 0xb9, 0x34, 0xb2, 0xbc, 0x75, 0xba, 0x1d, 0x3b, 0xcf, 0x4d, 0xb7, 0x3d,
  0x8a, 0x11, 0x11, 0xbe, 0x60, 0xc1, 0x46, 0x3d, 0x1a, 0x17, 0xcc, 0x3c, 0x83, 0x4e, 0x7e, 0xbd,
  0xb6, 0x8c, 0x0a, 0x3e, 0x24, 0x15, 0x2e, 0x3d, 0x5d, 0xe3, 0x18, 0xbd, 0x8a, 0xb9, 0x2b, 0x3d,
  0x96, 0x0f, 0x59, 0xbe, 0xcf, 0xa4, 0x08, 0xbd, 0xd0, 0xfd, 0x6c, 0xbd, 0xea, 0xbc, 0x95, 0xbc,
  0x18, 0x6f, 0xa0, 0xbd, 0x55, 0x44, 0x98, 0x3d, 0x3a, 0x14, 0x52, 0x3c, 0xfa, 0x4f, 0x13, 0xbd,
  0xc1, 0x50, 0xea, 0x3d, 0x07, 0x62, 0x4a, 0x3d, 0x7a, 0x5b, 0x5c, 0x3d, 0xd9, 0xe2, 0x85, 0xbb,
  0xda, 0x2d, 0x81, 0xbd, 0xf5, 0xb7, 0xa9, 0xbd, 0x10, 0x32, 0x94, 0xbe, 0xa1, 0x39, 0xb3, 0xbc,
  0xfa, 0xb1, 0x35, 0x3e, 0x3f, 0x91, 0xe8, 0x3c, 0x21, 0x15, 0x0f, 0x3c, 0xd7, 0xb8, 0x76, 0xbd,
  0xff, 0x36, 0x9a, 0xbd, 0x3b, 0x2e, 0x2f, 0xbd, 0x0d, 0x27, 0x05, 0xbd, 0x0c, 0x25, 0x1d, 0x3d,
  0x2b, 0x8d, 0x61, 0x3d, 0x0b, 0xdb, 0xf8, 0x3c, 0x71, 0x42, 0x1d, 0xbd, 0x11, 0xbf, 0x81, 0x3d,
  0x7c, 0x1a, 0xc4, 0xbc, 0x62, 0xba, 0xd3, 0x3d, 0x83, 0x44, 0x37, 0xbc, 0x98, 0x55, 0x38, 0x3d,
  0x35, 0x7a, 0x6e, 0xbd, 0x4b, 0x89, 0xd6, 0x3c, 0xa9, 0xf6, 0x90, 0x3c, 0xd5, 0x5b, 0x2a, 0xbd,
  0xd0, 0x04, 0xf2, 0xbc, 0x87, 0x9b, 0xc0, 0xbd, 0x67, 0x78, 0x7d, 0xbc, 0xb4, 0xf4, 0x13, 0x3d,
  0x51, 0xea, 0xad, 0xbd, 0xd5, 0x29, 0xb5, 0xbc, 0xa2, 0x1b, 0x0d, 0xbc, 0xc9, 0xb2, 0x54, 0x3d,
  0x6d, 0x74, 0x80, 0xbc, 0x0c, 0x45, 0xa1, 0xbd, 0x56, 0x64, 0x74, 0x3e, 0x2c, 0xa0, 0x3f, 0x3d,
  0x31, 0xd6, 0x63, 0x3e, 0xd8, 0x38, 0x98, 0x3d, 0x74, 0x81, 0xe6, 0x3d, 0xd4, 0x4b, 0xc2, 0xbc,
  0xd3, 0xb5, 0x6e, 0xbd, 0xd1, 0x0a, 0xd7, 0x3d, 0x6c, 0xce, 0x8a, 0xbd, 0xca, 0x97, 0xc5, 0x3d,
  0x88, 0xbc, 0x2c, 0x3e, 0xa9, 0x55, 0xf4, 0xbc, 0x96, 0x7c, 0xf4, 0xbc, 0x00, 0xe2, 0xc7, 0xbc,
  0xdf, 0xb2, 0x9f, 0x3c, 0xdd, 0xa8, 0x5d, 0x3d, 0x1c, 0x40, 0x40, 0x3e, 0xa6, 0x11, 0x0e, 0xbd,
  0xae, 0x47, 0x77, 0xbc, 0x93, 0x92, 0xe1, 0x3b, 0x9c, 0x4e, 0x7c, 0x3d, 0x65, 0x9a, 0x82, 0xbc,
  0x53, 0x14, 0x51, 0x3d, 0x98, 0xf5, 0x11, 0x3d, 0x3f, 0x9d, 0x04, 0xbd, 0x23, 0x05, 0xd2, 0x3c,
  0xfc, 0x0b, 0xd6, 0x3d, 0x7f, 0x29, 0xad, 0x3b, 0x5a, 0x9a, 0x1f, 0xbd, 0x95, 0x91, 0xab, 0x3d,
  0x77, 0x90, 0x81, 0x3c, 0x22, 0xde, 0x0f, 0xbd, 0x7a, 0x15, 0xd6, 0x3c, 0x65, 0x79, 0x0a, 0x3c,
  0x29, 0x14, 0x85, 0xbe, 0x33, 0xde, 0xab, 0x3c, 0x16, 0x33, 0x80, 0xbd, 0xc1, 0x74, 0xeb, 0x3a,
  0xb6, 0x94, 0x58, 0x3d, 0xb8, 0x35, 0xa9, 0xbd, 0x97, 0xfc, 0xca, 0x3c, 0x4c, 0x0f, 0x21, 0x3d,
  0x9e, 0x16, 0xa0, 0xbc, 0xb5, 0x4c, 0x9f, 0x3c, 0xd6, 0xf1, 0x42, 0xbd, 0x5a, 0x30, 0xb1, 0x3d,
  0x7e, 0xd3, 0x81, 0xba, 0xfe, 0x3f, 0x85, 0x3d, 0x6a, 0xb0, 0x0e, 0xbd, 0x17, 0x81, 0x31, 0x3d,
  0x80, 0x05, 0xb5, 0xba, 0xc2, 0xeb, 0xb7, 0x3d, 0x32, 0xf7, 0xee, 0xbc, 0xc4, 0x11, 0x00, 0xbe,
  0xc3, 0xbd, 0x8e, 0x3d, 0xdd, 0xe3, 0x42, 0xba, 0x2d, 0x69, 0x07, 0x3d, 0xe5, 0x8c, 0xe0, 0xbc,
  0x1a, 0x7c, 0x92, 0xbd, 0x1b, 0x3b, 0x69, 0xbd, 0xa4, 0x4f, 0x9c, 0x3c, 0x17, 0xe2, 0x90, 0x3d,
  0xad, 0x5e, 0x1b, 0xbd, 0x0a, 0x3d, 0x2c, 0x3c, 0x21, 0x25, 0x1e, 0xbe, 0x3e, 0x58, 0x7f, 0x3c,
  0x54, 0x00, 0x82, 0x3d, 0xcc, 0xcf, 0x3e, 0x3c, 0x42, 0xe9, 0x95, 0xbd, 0x7b, 0x15, 0x17, 0xbd,
  0xab, 0x94, 0xff, 0xba, 0x2a, 0x7d, 0x08, 0x3c, 0xae, 0xab, 0x3e, 0xbd, 0x9b, 0x2d, 0x2d, 0x3d,
  0xab, 0x3b, 0x19, 0xbd, 0x2e, 0xfa, 0x25, 0x3d, 0x44, 0x30, 0x91, 0x3d, 0xd8, 0xc2, 0x06, 0x3d,
  0x50, 0xc9, 0xdd, 0x3c, 0xf9, 0xc0, 0x02, 0x3c, 0x2a, 0xe1, 0xbd, 0xbd, 0xe2, 0x80, 0x9e, 0x3c,
  0x58, 0xde, 0x56, 0x3d, 0xd3, 0x52, 0xd6, 0x3c, 0x62, 0xaa, 0x20, 0x3d, 0xf9, 0xda, 0x01, 0xbe,
  0x98, 0x83, 0x8c, 0x3d, 0xf1, 0xff, 0x5a, 0xbd, 0x00, 0xcb, 0x2a, 0x3d, 0x9a, 0xf1, 0x81, 0x3d,
  0x00, 0x4c, 0xc2, 0x3c, 0x77, 0x34, 0xd7, 0x3d, 0x0c, 0x76, 0x4b, 0xbd, 0x7f, 0x10, 0xd1, 0x3c,
  0x84, 0x0c, 0x19, 0xbd, 0xab, 0x0a, 0x82, 0xbd, 0x0c, 0xb2, 0xd7, 0x3d, 0x33, 0xdb, 0x4b, 0x3c,
  0xef, 0x36, 0x19, 0xbd, 0xfa, 0x7c, 0x19, 0xbd, 0x7f, 0x2a, 0x61, 0xbd, 0xd2, 0xd8, 0x74, 0xbc,
  0xe6, 0x21, 0x5e, 0xbd, 0x86, 0x70, 0x25, 0x3d, 0x28, 0x99, 0x1b, 0xbc, 0x3e, 0xaa, 0x79, 0x3d,
  0x3d, 0x4f, 0x4a, 0xbd, 0xd0, 0xec, 0x85, 0xbd, 0x99, 0x3e, 0x89, 0xbc, 0x6a, 0xfd, 0x54, 0x3d,
  0x19, 0x46, 0xdc, 0x3c, 0x8f, 0xf0, 0x01, 0x3c, 0x07, 0x09, 0x87, 0xbd, 0x31, 0xd3, 0x96, 0x3d,
  0xc2, 0x2e, 0x81, 0x3d, 0x1d, 0x1e, 0x84, 0x3d, 0x7a, 0x5c, 0x3f, 0xbd, 0xd5, 0xd8, 0x7e, 0x3c,
  0x1e, 0x09, 0x8f, 0xbd, 0x84, 0x59, 0x2a, 0x3d, 0x04, 0xe2, 0xb6, 0x3d, 0x76, 0x9c, 0x99, 0xbd,
  0x1a, 0x9c, 0xa7, 0xbb, 0x53, 0xb9, 0x65, 0x3d, 0x19, 0x63, 0x82, 0x3d, 0x22, 0x1c, 0xd6, 0xbb,
  0xd5, 0x47, 0xb5, 0x3c, 0x4a, 0x25, 0x57, 0xbc, 0xd2, 0x09, 0x13, 0xbc, 0x65, 0xb8, 0x18, 0xbd,
  0x63, 0xaa, 0xb2, 0xbd, 0x82, 0xf0, 0x1c, 0xbd, 0x31, 0x67, 0xb7, 0xbc, 0x93, 0x64, 0xc9, 0xbd,
  0x00, 0x70, 0xf1, 0x3b, 0x0d, 0xeb, 0xb6, 0xbb, 0xae, 0x04, 0x9a, 0x3c, 0xca, 0x89, 0x85, 0xbd,
  0xba, 0x3f, 0xb8, 0x3d, 0x1b, 0x1e, 0x42, 0x3d, 0x7a, 0x65, 0xfa, 0xbb, 0xab, 0x4e, 0x24, 0xbd,
  0x12, 0x1f, 0xe0, 0x3c, 0x86, 0xb3, 0xb9, 0x3d, 0x63, 0xe1, 0xb5, 0x3d, 0x8d, 0x4a, 0x85, 0xbd,
  0x5f, 0xb8, 0x5f, 0xbd, 0x18, 0x4a, 0xb5, 0x3d, 0xb6, 0xd6, 0x86, 0x3c, 0x22, 0xc0, 0x8f, 0xbc,
  0x80, 0x13, 0xd3, 0xbc, 0xa2, 0x52, 0x51, 0x3c, 0xd6, 0x11, 0x21, 0x3d, 0x79, 0xb0, 0x63, 0x3d,
  0x7a, 0x0a, 0x1e, 0x3e, 0x11, 0x73, 0x47, 0xbc, 0x19, 0x99, 0x8b, 0x3d, 0xbf, 0xad, 0x5b, 0xbb,
  0xab, 0xc6, 0x09, 0xbd, 0x58, 0xa7, 0x75, 0x3d, 0xd0, 0x4e, 0x17, 0x3d, 0x1f, 0x17, 0x5c, 0xbd,
  0xff, 0xf1, 0x34, 0xbe, 0x0c, 0x7c, 0x22, 0xbd, 0xd4, 0x09, 0x22, 0x3d, 0x67, 0x90, 0xba, 0x3b,
  0xe6, 0x0c, 0xb7, 0xbc, 0x04, 0x24, 0x0c, 0x3d, 0x4d, 0xc0, 0xb1, 0xbd, 0x2f, 0x93, 0x01, 0xbd,
  0x86, 0xc0, 0x39, 0xbd, 0x80, 0x93, 0xb5, 0x3c, 0xd3, 0x22, 0xb3, 0x3c, 0x3c, 0xdb, 0xe9, 0xbb,
  0x76, 0x04, 0xa9, 0x3c, 0x27, 0x32, 0x92, 0xbc, 0x41, 0x9b, 0x29, 0x3c, 0x69, 0x11, 0x4a, 0x3d,
  0x99, 0x1b, 0x43, 0xbd, 0xb4, 0x39, 0xb6, 0xbc, 0xaf, 0x78, 0x3f, 0x3c, 0xff, 0x37, 0x0b, 0xbe,
  0xb7, 0x28, 0x91, 0xbd, 0xad, 0x20, 0x22, 0x3d, 0x69, 0x63, 0x89, 0x3d, 0x19, 0x8b, 0x59, 0xbd,
  0x78, 0x10, 0xad, 0x3c, 0x12, 0xdc, 0x6f, 0xbc, 0xc2, 0x23, 0x88, 0xbc, 0x58, 0x3f, 0xcb, 0x3d,
  0x30, 0x69, 0x28, 0x3c, 0xd1, 0xc4, 0x19, 0x3d, 0x83, 0xef, 0xaa, 0xbd, 0x05, 0x35, 0x22, 0xbd,
  0x6b, 0xbb, 0x83, 0x3c, 0x5a, 0xdc, 0xd2, 0x3d, 0x44, 0xce, 0x8b, 0x3d, 0x70, 0x00, 0xe5, 0xbd,
  0x80, 0x65, 0x93, 0x3b, 0xda, 0x5d, 0xa4, 0xbc, 0x73, 0xd0, 0x81, 0x3d, 0xee, 0x1f, 0xc1, 0x3b,
  0xd4, 0x8a, 0xfc, 0x3c, 0xe3, 0xe5, 0x05, 0x3e, 0x6e, 0x19, 0xa5, 0x3d, 0x84, 0xa1, 0x5e, 0x3c,
  0x2e, 0x0e, 0x3c, 0xbd, 0x86, 0xd1, 0x19, 0xbd, 0xd8, 0x93, 0xbf, 0xbd, 0xdd, 0xf6, 0x0f, 0x3d,
  0xa1, 0xf5, 0x0b, 0xbd, 0x64, 0x27, 0x0e, 0x3d, 0x4e, 0x04, 0x47, 0x3d, 0x65, 0xb8, 0x42, 0x3c,
  0x00, 0x62, 0xb2, 0x3c, 0x5a, 0x0e, 0x9f, 0xbd, 0x52, 0x5b, 0xd9, 0xbd, 0x91, 0x76, 0x69, 0x3d,
  0x6b, 0x6a, 0x03, 0x3c, 0x4b, 0xa7, 0xb1, 0x3d, 0x00, 0x06, 0x97, 0x3c, 0x39, 0x41, 0x2d, 0xbd,
  0x20, 0xd1, 0xc0, 0x3d, 0x28, 0x5b, 0xba, 0xbc, 0x96, 0x39, 0x26, 0x3d, 0xb9, 0x9b, 0x89, 0x3d,
  0xa5, 0xf6, 0x64, 0x3d, 0x03, 0x5c, 0x14, 0x3d, 0xc5, 0x2f, 0x93, 0xbc, 0x46, 0x51, 0x4d, 0xbe,
  0x73, 0x35, 0x9b, 0xbd, 0x69, 0xe6, 0x62, 0x3c, 0x30, 0x30, 0x93, 0xbd, 0xab, 0xe8, 0x94, 0xbd,
  0x65, 0xa8, 0xf6, 0x3b, 0x9a, 0xde, 0xd9, 0x3d, 0xf7, 0x9b, 0xaa, 0xbb, 0x68, 0xed, 0xbf, 0x3d,
  0xbd, 0x19, 0xae, 0x3d, 0x5c, 0x2f, 0x04, 0x3d, 0x12, 0xf8, 0x8b, 0x3e, 0x3b, 0x90, 0x05, 0x3b,
  0xf7, 0x71, 0x0a, 0xbe, 0x97, 0xcf, 0xe2, 0x3d, 0xdc, 0xa3, 0x80, 0x3c, 0x91, 0xb9, 0x83, 0x3d,
  0xe6, 0xfe, 0xda, 0xbc, 0xb7, 0x28, 0xb8, 0x3d, 0xa5, 0x5f, 0x9f, 0x3d, 0xe5, 0x4c, 0x9b, 0x3d,
  0x96, 0xcd, 0x6d, 0xbd, 0x9a, 0xef, 0x85, 0x3e, 0x01, 0xc7, 0x99, 0xbb, 0x59, 0x7b, 0x9c, 0x3d,
  0x33, 0xb5, 0x20, 0xbb, 0x6d, 0x1b, 0x84, 0xbd, 0x80, 0xd6, 0xdf, 0xbd, 0x32, 0xa6, 0x1f, 0x3d,
  0x7d, 0x87, 0x5e, 0xbd, 0x53, 0xf3, 0x0c, 0xbc, 0xd5, 0xbd, 0x84, 0x3d, 0x19, 0x33, 0x61, 0x3d,
  0x9b, 0x80, 0x79, 0x3d, 0xc7, 0xd9, 0xa5, 0x3d, 0xd2, 0x9e, 0x55, 0x3e, 0xd4, 0x7f, 0x56, 0x3d,
  0xec, 0x8b, 0x89, 0xbd, 0xa6, 0xe2, 0x32, 0x3e, 0x18, 0xda, 0xb9, 0x3c, 0x10, 0xdf, 0xc1, 0x3b,
  0x64, 0x23, 0x35, 0x3e, 0xe8, 0x2e, 0xbb, 0xbc, 0x1f, 0x5c, 0x48, 0xbd, 0x7e, 0x74, 0x58, 0xbd,
  0x4c, 0x0f, 0x0c, 0xbe, 0x53, 0x0b, 0x9d, 0x3d, 0x13, 0x28, 0x98, 0xbd, 0xea, 0x12, 0x43, 0x3e,
  0xa6, 0x83, 0x8a, 0x3c, 0x35, 0xf9, 0x14, 0x3d, 0xf8, 0x97, 0x1a, 0x3e, 0x32, 0xf1, 0x97, 0x3d,
  0xa5, 0xda, 0xea, 0x3d, 0x39, 0x9e, 0x0d, 0x3c, 0x62, 0x16, 0xfe, 0x3c, 0x27, 0x85, 0xa2, 0x3d,
  0x32, 0x56, 0x1a, 0xbe, 0xd4, 0xb5, 0x39, 0x3e, 0xf2, 0x89, 0xce, 0x3c, 0x5f, 0x4c, 0x21, 0x3d,
  0x4a, 0x6f, 0x77, 0x3e, 0xf6, 0x70, 0x88, 0x3d, 0x80, 0x4a, 0x4c, 0x3d, 0x09, 0xa0, 0xb0, 0xbd,
  0x00, 0x95, 0xb8, 0xbc, 0xf3, 0xa3, 0xd2, 0xbc, 0x9c, 0xd9, 0x8d, 0x3d, 0x06, 0x21, 0x99, 0x3d,
  0xb8, 0x57, 0x8b, 0x3d, 0x1f, 0x39, 0xd1, 0xbc, 0x22, 0x63, 0x99, 0xbd, 0x87, 0x75, 0xaf, 0xbc,
  0xbf, 0x81, 0xf1, 0xbd, 0x31, 0x33, 0x59, 0xbc, 0x48, 0xb4, 0x0a, 0xbe, 0x88, 0xfc, 0xd3, 0xbd,
  0x7f, 0x78, 0x28, 0xbd, 0xda, 0xa0, 0x0d, 0xbd, 0x04, 0x7c, 0x67, 0x3d, 0xc9, 0xb0, 0x94, 0x3c,
  0xf0, 0xec, 0x1f, 0x3d, 0xfd, 0x90, 0x97, 0x3c, 0x2e, 0xbb, 0x13, 0xbd, 0xd7, 0x65, 0x31, 0xbd,
  0x59, 0x92, 0x60, 0x3d, 0x98, 0xfc, 0xea, 0xbd, 0x99, 0x3a, 0xb0, 0xbb, 0xb4, 0xf4, 0x8e, 0x3d,
  0x0e, 0xb3, 0x00, 0xbb, 0xdc, 0xb8, 0x86, 0x39, 0x21, 0x43, 0x03, 0xbe, 0xb4, 0x5e, 0x10, 0xbe,
  0x96, 0x6b, 0xcb, 0x3d, 0x9e, 0x4e, 0x48, 0x3c, 0x99, 0xd7, 0xf0, 0xbc, 0x22, 0x2a, 0x32, 0xbe,
  0x96, 0x96, 0x55, 0x3c, 0x4d, 0x90, 0xbc, 0xbc, 0xb7, 0xa1, 0xd6, 0xbd, 0x7e, 0x41, 0x24, 0xbd,
  0x9e, 0xde, 0x16, 0xbe, 0x94, 0xdd, 0x0b, 0x3e, 0x63, 0xe2, 0xe2, 0x3c, 0x77, 0x44, 0x8e, 0xbd,
  0x06, 0x16, 0x32, 0x3c, 0x9d, 0x0e, 0x7d, 0x3d, 0x91, 0xad, 0xc2, 0xbd, 0x43, 0x53, 0x0d, 0xbe,
  0x76, 0x55, 0x88, 0x3e, 0x51, 0x77, 0x7b, 0xbd, 0x9a, 0x7f, 0x57, 0x3c, 0x74, 0x66, 0xb3, 0xbc,
  0xdb, 0x5a, 0x2f, 0xbd, 0x4e, 0xf2, 0x37, 0x3d, 0xcd, 0x54, 0xc9, 0xbd, 0xd9, 0x19, 0xf2, 0xba,
  0x62, 0xd1, 0xfd, 0x3c, 0xba, 0x41, 0x86, 0xbd, 0xd7, 0x49, 0x32, 0x3c, 0x33, 0x3c, 0xd4, 0xbd,
  0x7e, 0xd7, 0x9b, 0x3d, 0x75, 0x8e, 0xbc, 0xbb, 0x3f, 0xa5, 0x98, 0xbb, 0xb3, 0x98, 0xf9, 0x3c,
  0x7d, 0x21, 0xbe, 0x3d, 0x25, 0xa3, 0x01, 0xbd, 0xb2, 0x5a, 0xf0, 0xbd, 0x55, 0x7c, 0x0b, 0x3d,
  0x76, 0x0a, 0x7c, 0xbd, 0x53, 0x60, 0x67, 0x3d, 0x21, 0xdf, 0xa5, 0x3c, 0x55, 0x0e, 0xdd, 0xbd,
  0x3f, 0xef, 0xd2, 0xbc, 0x9d, 0x59, 0x44, 0x3d, 0x38, 0xc9, 0x78, 0xbd, 0x6a, 0x0e, 0x96, 0xbd,
  0xc6, 0xbf, 0x9b, 0xbc, 0x9a, 0xab, 0xb6, 0x3d, 0x63, 0x39, 0x36, 0x3d, 0x40, 0x6c, 0x27, 0xbd,
  0x0a, 0xc4, 0x16, 0x3e, 0x57, 0x4f, 0x05, 0xbc, 0x83, 0x7a, 0x23, 0xbc, 0x90, 0xbc, 0x1c, 0x3d,
  0x36, 0xe0, 0x08, 0xbc, 0x55, 0x60, 0x49, 0x3d, 0x84, 0x6b, 0x73, 0xbd, 0x8d, 0x3a, 0x6c, 0x3c,
  0x0f, 0x42, 0x2c, 0xbe, 0xc7, 0x0d, 0xe2, 0x3d, 0x6e, 0x64, 0x82, 0x3d, 0x59, 0xab, 0x1b, 0x3d,
  0x47, 0xd4, 0x1e, 0x3e, 0xab, 0xf5, 0x79, 0x3d, 0x22, 0xa7, 0x4a, 0x3b, 0xf9, 0x07, 0x9a, 0xbd,
  0xf8, 0xa9, 0x9b, 0x3c, 0x0b, 0xe4, 0x4f, 0x3c, 0xfb, 0x59, 0x6b, 0xbd, 0x0b, 0xa6, 0xbc, 0x3d,
  0x66, 0x64, 0x10, 0x3d, 0x11, 0x7b, 0x2e, 0x3d, 0x62, 0x33, 0xc9, 0x3d, 0x5e, 0xbe, 0xb3, 0xbd,
  0x63, 0x54, 0x12, 0x3d, 0x7f, 0x56, 0x8a, 0x3e, 0xb5, 0xc9, 0x77, 0xbd, 0x0c, 0x39, 0xb0, 0x3b,
  0xab, 0x7c, 0x8b, 0x3d, 0x1c, 0x00, 0xe0, 0xbd, 0x65, 0x54, 0xb1, 0xbd, 0x1c, 0x40, 0xb7, 0x3c,
  0x17, 0x03, 0xbe, 0xbd, 0x04, 0x8a, 0xed, 0x3c, 0x7f, 0x21, 0xad, 0x3d, 0xe1, 0xeb, 0xf1, 0x3d,
  0xf6, 0xd3, 0x39, 0x3d, 0x61, 0xe1, 0x8a, 0xbd, 0x75, 0x16, 0x75, 0x3e, 0xe3, 0xb8, 0x45, 0xbd,
  0xc4, 0x6f, 0x6a, 0xbd, 0x79, 0x7c, 0x2d, 0x3e, 0x2a, 0x04, 0x75, 0xba, 0xec, 0x55, 0xb6, 0x3d,
  0xf2, 0x3b, 0x13, 0xbd, 0x82, 0xac, 0xfa, 0x3b, 0x62, 0xee, 0x3c, 0xbe, 0x31, 0xd8, 0x6d, 0xbc,
  0xfb, 0xe6, 0x8d, 0x3c, 0x14, 0xf5, 0x93, 0xbd, 0x65, 0x95, 0x03, 0xbd, 0xd7, 0xcd, 0x55, 0xbe,
  0x1b, 0x86, 0x23, 0x3d, 0xb1, 0x0d, 0x94, 0x3c, 0xd0, 0x19, 0xbe, 0x3d, 0x56, 0xc3, 0xe9, 0x3d,
  0x7e, 0xd9, 0xab, 0x3d, 0xd6, 0x9a, 0xaf, 0x3d, 0xf2, 0xbe, 0x30, 0xbc, 0x57, 0x62, 0x93, 0x3d,
  0xec, 0xc6, 0x26, 0x3e, 0x85, 0x0a, 0x20, 0x3e, 0x8f, 0xc8, 0x2c, 0x3e, 0x13, 0x34, 0x00, 0x3c,
  0xc7, 0x6b, 0x69, 0x3e, 0xb7, 0x86, 0x12, 0xbc, 0xb5, 0x44, 0x29, 0xbb, 0x5d, 0x23, 0x09, 0xbf,
  0x6e, 0x2e, 0x21, 0x3d, 0x70, 0xe5, 0x10, 0x3e, 0x01, 0xfa, 0xff, 0x3d, 0xb6, 0x04, 0xc1, 0x3d,
  0xf7, 0x00, 0xb9, 0xbc, 0xcf, 0x43, 0xa3, 0x3d, 0xbb, 0x73, 0x5b, 0xbd, 0xd6, 0xd9, 0xb0, 0x3d,
  0x99, 0x24, 0xe0, 0xbd, 0xbc, 0x27, 0xd5, 0xbd, 0x5e, 0xec, 0x01, 0xbe, 0xce, 0xfa, 0x13, 0xbc,
  0x88, 0xb8, 0x8b, 0xbc, 0x70, 0xf7, 0x89, 0xbd, 0x2d, 0x89, 0x18, 0x3e, 0xba, 0x56, 0x1f, 0xbd,
  0xf6, 0x45, 0x58, 0xbd, 0xcb, 0xcc, 0xcb, 0x3d, 0x19, 0x17, 0xe4, 0x3c, 0x88, 0x2e, 0x80, 0xbd,
  0x51, 0x32, 0xd0, 0xbc, 0x50, 0x29, 0xfe, 0x3d, 0x62, 0xd0, 0x83, 0xbd, 0x07, 0x53, 0x95, 0x3d,
  0x0c, 0x56, 0x53, 0x3d, 0x8e, 0x6f, 0x14, 0x3c, 0x48, 0xcf, 0x01, 0x3e, 0xa8, 0xf4, 0x81, 0x3d,
  0x86, 0x03, 0x3d, 0xbe, 0x42, 0x1f, 0x8a, 0xbd, 0xea, 0x6f, 0x49, 0x3c, 0x09, 0x45, 0xec, 0x3d,
  0xc0, 0x18, 0x80, 0xbc, 0x84, 0xa7, 0xca, 0xbc, 0xe6, 0x79, 0x45, 0xbd, 0x9c, 0x75, 0x22, 0xbd,
  0x88, 0x7d, 0xc3, 0xbd, 0xbd, 0xf9, 0x74, 0xbd, 0x6d, 0x86, 0xa1, 0xbd, 0x70, 0x81, 0x3d, 0x3d,
  0x75, 0x0a, 0x29, 0x3c, 0x9b, 0x88, 0x50, 0xba, 0x71, 0xdd, 0x9f, 0x3d, 0x0b, 0x60, 0x84, 0xbd,
  0xad, 0x5e, 0x8b, 0x3e, 0x92, 0x7e, 0x78, 0x3c, 0x85, 0x60, 0xaf, 0xbd, 0xbf, 0x94, 0x1c, 0xbe,
  0x18, 0x6a, 0x9d, 0x3d, 0x6c, 0x22, 0x1e, 0xbd, 0x36, 0x43, 0xfa, 0x3d, 0xab, 0x6f, 0xa8, 0xbc,
  0x54, 0x57, 0x58, 0x3d, 0xd3, 0x26, 0x85, 0x3d, 0xac, 0xf5, 0xb3, 0xbd, 0xde, 0x54, 0x1b, 0x3d,
  0xfe, 0xea, 0x2a, 0xbd, 0xa9, 0xcf, 0x15, 0xbd, 0x52, 0x27, 0x5c, 0x3d, 0x65, 0x41, 0x4e, 0x3d,
  0x83, 0xf9, 0x6b, 0xbc, 0xbe, 0x64, 0x1a, 0x3d, 0x06, 0xe2, 0x39, 0xbc, 0xa2, 0x72, 0x6c, 0x3d,
  0xd8, 0x79, 0x3d, 0x3d, 0x19, 0x5b, 0xba, 0xbd, 0xa5, 0xb9, 0x83, 0xbd, 0x27, 0xd8, 0xb7, 0xbd,
  0xc6, 0xec, 0x95, 0xbc, 0xff, 0x60, 0xad, 0xbd, 0x6f, 0x33, 0x5d, 0x3d, 0x1d, 0x3d, 0x6e, 0x3d,
  0x4b, 0x27, 0x48, 0xbd, 0x3a, 0x81, 0xb0, 0xbc, 0x58, 0x98, 0xd1, 0x3c, 0x0b, 0xc5, 0x6b, 0x3d,
  0x0a, 0x13, 0x3a, 0x3e, 0x11, 0x11, 0xae, 0x3c, 0x5f, 0x53, 0x6d, 0x3d, 0x64, 0x80, 0x97, 0xbe,
  0x56, 0xab, 0x32, 0xba, 0x62, 0x3d, 0x68, 0x3d, 0x20, 0x83, 0x7a, 0x3d, 0xc7, 0x76, 0x91, 0xbc,
  0x2f, 0xf8, 0x2d, 0xbc, 0x3b, 0x00, 0x0b, 0x3e, 0x0e, 0x2f, 0x6b, 0x3a, 0xa2, 0xf7, 0x8c, 0xbd,
  0xb5, 0xda, 0xa3, 0xbc, 0x76, 0xe5, 0xdf, 0x3b, 0xa2, 0x45, 0x74, 0xbc, 0x17, 0xbf, 0xda, 0xbc,
  0x3f, 0xeb, 0xdc, 0xbe, 0x62, 0x91, 0x14, 0x3d, 0x12, 0x92, 0xab, 0xbd, 0xc8, 0xf5, 0x8d, 0x3e,
  0x1b, 0xad, 0x81, 0x3d, 0xa5, 0xfe, 0xcc, 0xbb, 0xa4, 0x10, 0x6c, 0xbd, 0x92, 0x2b, 0x75, 0xbd,
  0x46, 0x97, 0x90, 0xbb, 0x5e, 0xff, 0x9d, 0xbd, 0x0e, 0xfc, 0xfa, 0x3c, 0x77, 0xea, 0x7a, 0xba,
  0x6a, 0x0e, 0x87, 0xbd, 0xb3, 0x39, 0xe4, 0xbc, 0x76, 0xcd, 0x13, 0x3e, 0x93, 0x49, 0xfb, 0xbc,
  0xcf, 0x1d, 0xfe, 0xbb, 0x5b, 0xff, 0xae, 0xbc, 0x4f, 0x87, 0xae, 0x3c, 0x49, 0x96, 0xd2, 0x3d,
  0x10, 0xd1, 0x11, 0x3d, 0xc3, 0xea, 0x96, 0xbc, 0x51, 0x5f, 0xdf, 0xbd, 0x63, 0x07, 0xa0, 0xbd,
  0xc3, 0xf8, 0x58, 0x3d, 0x77, 0x65, 0xf4, 0xbd, 0x5f, 0x8d, 0x51, 0x3d, 0xbd, 0x07, 0x7d, 0xbd,
  0x56, 0x78, 0x84, 0xbd, 0x49, 0xe8, 0xdd, 0x3c, 0xe4, 0xb6, 0xfb, 0xbb, 0xb6, 0x16, 0x37, 0xbd,
  0x65, 0x3c, 0xc6, 0xbc, 0x0f, 0xd8, 0xd1, 0xbc, 0x30, 0x52, 0xfd, 0xbc, 0x03, 0x6f, 0xeb, 0x3d,
  0x2c, 0x5f, 0x87, 0xbd, 0x22, 0x83, 0xd6, 0xbc, 0x96, 0xa2, 0x04, 0xbe, 0x13, 0x22, 0x1e, 0xbd,
  0xc0, 0x25, 0xba, 0x3d, 0x10, 0xf4, 0xf2, 0xbc, 0x93, 0x38, 0x10, 0x3d, 0x57, 0xf5, 0x38, 0xbd,
  0x78, 0xff, 0x9e, 0xbd, 0x26, 0x7a, 0xcd, 0x3c, 0xde, 0xa0, 0x61, 0x3d, 0x8f, 0x8d, 0x4d, 0xbd,
  0x04, 0x8e, 0x14, 0xbe, 0x6a, 0xee, 0x4a, 0x3d, 0x2a, 0x53, 0x91, 0xbc, 0x92, 0x79, 0x51, 0x3d,
  0x86, 0xcc, 0x1a, 0x3d, 0x16, 0x0a, 0x4b, 0x3d, 0xc9, 0x6f, 0x35, 0x3c, 0xbf, 0x22, 0x71, 0x3d,
  0x2a, 0xd4, 0xa2, 0xbb, 0x32, 0x5e, 0x40, 0xbd, 0x7b, 0xc6, 0xa5, 0xbd, 0x3b, 0xae, 0xc5, 0xbd,
  0xc7, 0x2e, 0x04, 0x3d, 0x1b, 0x83, 0x82, 0xbd, 0xfb, 0x8f, 0xac, 0x3d, 0xd4, 0xda, 0x0c, 0x3c,
  0xfe, 0x16, 0xc6, 0x3d, 0xab, 0xd3, 0xd0, 0x3c, 0xaa, 0x0b, 0x97, 0xbd, 0x31, 0x49, 0x9b, 0xbd,
  0xf6, 0xb9, 0xbd, 0x3c, 0xa7, 0xe4, 0xf5, 0x3b, 0xf3, 0xf2, 0xa2, 0x3b, 0xe6, 0xf8, 0xb1, 0xbb,
  0xe7, 0xbc, 0xfb, 0xbd, 0xdf, 0x98, 0x31, 0x3d, 0xc8, 0xf0, 0xc4, 0xbd, 0x06, 0x2f, 0xb8, 0xbd,
  0x39, 0xc8, 0x72, 0xbd, 0x46, 0x85, 0x3c, 0x3d, 0x24, 0x52, 0xe5, 0x3c, 0xb2, 0x6b, 0xd0, 0x3c,
  0xbd, 0x75, 0xab, 0xbd, 0x0d, 0x61, 0x9b, 0x3b, 0xa5, 0xa2, 0x59, 0xbd, 0x89, 0xf9, 0x4f, 0xbb,
  0xab, 0xca, 0x5e, 0xbb, 0x53, 0xd7, 0xa8, 0x3c, 0x37, 0xaf, 0xaa, 0xba, 0xa5, 0xa8, 0x4f, 0xbd,
  0x4e, 0x0e, 0x8e, 0xbd, 0xb2, 0xf5, 0x76, 0x3c, 0xe2, 0x9d, 0x64, 0x3d, 0xc8, 0xc4, 0x48, 0xbc,
  0xed, 0x93, 0xf3, 0x3b, 0xc2, 0x8b, 0xf0, 0xbc, 0xd5, 0x10, 0xe7, 0x3c, 0x25, 0xda, 0x4d, 0xbd,
  0x8f, 0xd9, 0xea, 0xbc, 0x74, 0xd0, 0x3e, 0xbd, 0x19, 0xf0, 0x4e, 0x3d, 0x55, 0xc4, 0xc8, 0x3d,
  0xe6, 0x05, 0x99, 0xbc, 0x0b, 0x21, 0x06, 0xbd, 0x03, 0x14, 0x0a, 0xbd, 0x58, 0x18, 0x61, 0xbd,
  0x49, 0x2b, 0xec, 0xbb, 0x31, 0xec, 0x6b, 0xbd, 0x43, 0x9e, 0x1e, 0x3d, 0x63, 0x92, 0x9e, 0xbd,
  0x3a, 0xb0, 0xa7, 0xbc, 0x6a, 0xef, 0x05, 0x3d, 0xb2, 0x15, 0x2b, 0x3e, 0xc1, 0xf1, 0x56, 0x3d,
  0xe6, 0x2a, 0x05, 0xbd, 0x4e, 0xc0, 0x4c, 0x3c, 0x99, 0xd9, 0xe9, 0x3b, 0x28, 0x7b, 0x55, 0x3e,
  0xeb, 0x26, 0x9c, 0xbc, 0x01, 0x8a, 0x47, 0xbd, 0x0b, 0x92, 0x43, 0xbd, 0x8d, 0x0f, 0x47, 0x3d,
  0x50, 0x95, 0x93, 0xbd, 0x42, 0x30, 0x6d, 0xbd, 0xc8, 0xdb, 0xbd, 0x3c, 0x76, 0xc4, 0xdd, 0x3c,
  0x8b, 0xe1, 0x12, 0x3d, 0xd5, 0x08, 0xab, 0x3c, 0x84, 0xf6, 0x30, 0xbd, 0x66, 0x23, 0x1c, 0xbd,
  0xcd, 0x23, 0x0e, 0x3d, 0xfa, 0xb0, 0x45, 0xbd, 0x5a, 0xe2, 0xb9, 0xbd, 0x8c, 0x39, 0x14, 0xbe,
  0x40, 0x11, 0xa1, 0xbc, 0xed, 0xa5, 0x3e, 0xbd, 0x33, 0x31, 0x6b, 0x3d, 0x97, 0xc3, 0xb1, 0x3c,
  0x56, 0x4a, 0x9b, 0xbc, 0xdd, 0xce, 0x74, 0x3d, 0x10, 0x11, 0x18, 0xbd, 0x89, 0xd8, 0x98, 0x3c,
  0x91, 0x61, 0x6c, 0x3d, 0xf1, 0x65, 0x0b, 0x3d, 0xb3, 0x5c, 0xcc, 0x3e, 0x20, 0x8c, 0xb5, 0xbc,
  0xad, 0x37, 0x2d, 0xbc, 0x49, 0xc1, 0xaf, 0x3d, 0x2f, 0x47, 0x1e, 0xbd, 0x85, 0x80, 0xb8, 0x3d,
  0xb3, 0x43, 0x62, 0xbd, 0x7b, 0x28, 0x0f, 0x3e, 0xcd, 0x91, 0x1d, 0xbc, 0xc8, 0x70, 0xae, 0xbc,
  0xfe, 0x32, 0x1f, 0xbd, 0x42, 0xd4, 0x00, 0x3e, 0x4b, 0xcb, 0x48, 0x3d, 0xf0, 0xc7, 0x71, 0x3d,
  0xc1, 0x34, 0xd5, 0x3d, 0xa9, 0xc6, 0x92, 0xbd, 0x00, 0x76, 0xd2, 0x3d, 0x52, 0xb1, 0xb4, 0xbd,
  0xe4, 0xba, 0x38, 0xbd, 0x67, 0x6f, 0x92, 0xbd, 0x7e, 0x0a, 0x2f, 0x3d, 0x8c, 0x26, 0x4b, 0x3d,
  0x24, 0xd1, 0x8f, 0xbd, 0xd1, 0x7c, 0xb5, 0xbd, 0x96, 0xc1, 0xe1, 0x3d, 0xed, 0x25, 0x76, 0x3c,
  0x51, 0x8f, 0x3d, 0xbe, 0x2e, 0x39, 0x64, 0x3d, 0xf0, 0xe0, 0x44, 0xbd, 0xde, 0xdd, 0x86, 0x3d,
  0xeb, 0xf5, 0x8f, 0x3d, 0xc5, 0x52, 0x62, 0x3d, 0xb8, 0x7d, 0x1a, 0xbd, 0xf8, 0xd1, 0x3d, 0x3d,
  0xad, 0x66, 0xbf, 0xbd, 0xaf, 0x54, 0xf8, 0x3c, 0x52, 0xc7, 0xc4, 0xbd, 0x76, 0xb6, 0x7f, 0x3d,
  0x08, 0x80, 0x1a, 0x3d, 0xc6, 0x33, 0x5d, 0xbd, 0x23, 0xf8, 0x25, 0xbb, 0xf7, 0xf4, 0xcd, 0x3b,
  0x85, 0x44, 0x1c, 0x3d, 0xc1, 0x34, 0xb7, 0x3d, 0xd5, 0x1a, 0x27, 0x3d, 0xcb, 0x16, 0xd5, 0x3d,
  0xc2, 0xc1, 0x6c, 0xbc, 0x4b, 0x37, 0x79, 0x3d, 0x2a, 0x0a, 0x3e, 0x3e, 0xbc, 0xa3, 0x98, 0xbd,
  0x5c, 0xe9, 0x90, 0x3e, 0x50, 0x9f, 0xfd, 0x3c, 0x11, 0xc1, 0x85, 0xbd, 0xa4, 0x3b, 0x8d, 0xbe,
  0x0b, 0x7b, 0x69, 0x3c, 0xf2, 0x13, 0x14, 0xbc, 0xb7, 0xea, 0xb7, 0x3d, 0x03, 0x4e, 0x91, 0xba,
  0x6a, 0x8b, 0x25, 0xbd, 0x11, 0x83, 0x81, 0x3e, 0x9e, 0xa2, 0x6d, 0xbd, 0xca, 0x4a, 0xc0, 0x3d,
  0x08, 0x80, 0xc2, 0x3d, 0x38, 0x68, 0xeb, 0x3b, 0x89, 0xcd, 0x02, 0xbe, 0x88, 0xa4, 0xf6, 0xbd,
  0xa5, 0xcf, 0xe3, 0x3b, 0xf9, 0xa5, 0x83, 0x3d, 0xcd, 0xf0, 0xda, 0x3d, 0xdf, 0xa6, 0xc4, 0xbd,
  0x08, 0x70, 0x8c, 0x3d, 0xb8, 0x15, 0x51, 0x3d, 0x1d, 0x95, 0x9c, 0xbb, 0x78, 0x24, 0x33, 0xbd,
  0x2f, 0xe6, 0x2b, 0x3c, 0x8d, 0xf6, 0xb4, 0xbc, 0x6a, 0x19, 0x5c, 0xbd, 0xf0, 0xeb, 0xc6, 0xbb,
  0x67, 0xc4, 0x8c, 0x3d, 0x09, 0x56, 0xfa, 0x3c, 0xe2, 0x0e, 0x0a, 0xbe, 0x18, 0x4a, 0x9a, 0x3d,
  0xed, 0xc5, 0x73, 0xbd, 0x75, 0x8b, 0x11, 0xbc, 0x28, 0xe4, 0x1f, 0xbd, 0x2e, 0x0a, 0xbe, 0x3c,
  0xd0, 0x80, 0x0a, 0x3d, 0x15, 0x8b, 0xdc, 0xbc, 0x7f, 0xb8, 0x68, 0x3c, 0x3b, 0x59, 0x74, 0x3b,
  0xf5, 0xb5, 0x66, 0x3d, 0x60, 0x4c, 0x20, 0xbd, 0xc2, 0x8a, 0xc6, 0xbd, 0x55, 0x0a, 0x02, 0x3d,
  0xb8, 0x49, 0x33, 0x3d, 0xb6, 0x82, 0x04, 0xbd, 0x89, 0xbb, 0x03, 0xbe, 0x66, 0x3c, 0x85, 0xbd,
  0xfa, 0xc3, 0xbd, 0xbd, 0xbd, 0x94, 0xf8, 0x3c, 0xa4, 0xb9, 0x2b, 0xbd, 0x8f, 0xce, 0x80, 0xbe,
  0xe3, 0xa2, 0xa4, 0x3d, 0xb9, 0x89, 0x9f, 0xbd, 0xa5, 0x13, 0x8b, 0xbd, 0x8b, 0xfe, 0x86, 0xbd,
  0xde, 0x56, 0xbd, 0xbc, 0x35, 0x32, 0xaa, 0xbd, 0xa9, 0xbb, 0xaa, 0xbd, 0x3e, 0xf1, 0x72, 0xbc,
  0x4b, 0xc9, 0x16, 0x3d, 0x07, 0xb0, 0xdf, 0xbc, 0xe2, 0xc3, 0x12, 0xbe, 0xe8, 0x09, 0xda, 0xbc,
  0x9a, 0xae, 0x5e, 0x3c, 0x70, 0x59, 0x60, 0x3d, 0x0a, 0xe9, 0x25, 0xbc, 0x3d, 0xc9, 0xf3, 0xbc,
  0x18, 0x0e, 0x27, 0x3d, 0xbe, 0x7b, 0xa3, 0xbc, 0x7a, 0xcf, 0xa3, 0x3d, 0x70, 0x9c, 0xd6, 0xbc,
  0x0f, 0x40, 0x03, 0xbd, 0xcb, 0x13, 0xbf, 0xbb, 0x80, 0xf1, 0xec, 0xbc, 0x34, 0x82, 0x87, 0xba,
  0x0a, 0xbd, 0x01, 0x3e, 0x6e, 0x99, 0x1e, 0x3d, 0xb9, 0x64, 0xcd, 0x3d, 0x1d, 0x46, 0x06, 0xbd,
  0xa1, 0xe8, 0xa6, 0x3c, 0xed, 0x0c, 0x89, 0x3d, 0xd7, 0x7e, 0xd8, 0xbc, 0xbd, 0x97, 0xfe, 0xbd,
  0xab, 0x59, 0xbe, 0x3b, 0x84, 0x9c, 0xc7, 0x3d, 0x2c, 0xfa, 0x32, 0x3e, 0xa0, 0xd7, 0x59, 0xbb,
  0x01, 0x36, 0x83, 0xbe, 0x52, 0xab, 0xa0, 0x3d, 0x2d, 0x4f, 0x8f, 0x3d, 0xd5, 0xcf, 0xba, 0x3b,
  0x70, 0x70, 0x4e, 0xbc, 0x24, 0x45, 0xec, 0xbd, 0x60, 0xd8, 0x53, 0x3e, 0xe8, 0x94, 0xcd, 0xbd,
  0xac, 0x8b, 0xf3, 0xbd, 0x92, 0x7b, 0x34, 0xbd, 0x82, 0x43, 0x8f, 0x3d, 0xd1, 0xa3, 0x2b, 0x3c,
  0xf0, 0x7f, 0xb8, 0x3c, 0xb5, 0xfa, 0xc2, 0xbc, 0xef, 0x39, 0xbc, 0xbd, 0x5f, 0x42, 0xb7, 0x3b,
  0xf5, 0x45, 0x47, 0x3e, 0xab, 0x5e, 0x35, 0x3e, 0xe4, 0x5a, 0xb2, 0x3c, 0x72, 0x5d, 0x0b, 0xbc,
  0xdd, 0xc4, 0x91, 0xbd, 0xc1, 0x32, 0x09, 0x3e, 0xe0, 0x1e, 0x2a, 0x3e, 0x21, 0x80, 0xc2, 0xbc,
  0xe5, 0x6d, 0x1c, 0x3b, 0xae, 0xa9, 0x03, 0xbd, 0x2a, 0x47, 0x53, 0x3d, 0xe5, 0x09, 0x00, 0x3e,
  0xe6, 0xba, 0xae, 0xbc, 0xbd, 0xda, 0xf8, 0xbc, 0xa0, 0x08, 0xca, 0x3d, 0x92, 0xe5, 0xbb, 0x3c,
  0x6f, 0x1d, 0x32, 0xbe, 0xdd, 0x70, 0x34, 0x3e, 0x08, 0xf4, 0xc4, 0xbd, 0xef, 0xfb, 0x83, 0x3d,
  0xea, 0x78, 0x31, 0x3e, 0xa3, 0x51, 0xf0, 0xbd, 0x2d, 0x7c, 0x73, 0x3c, 0xca, 0x9b, 0xfc, 0x3c,
  0xe6, 0x7e, 0x12, 0x3d, 0x15, 0x20, 0x48, 0xbc, 0x88, 0xd4, 0x0b, 0xbe, 0x2d, 0x78, 0x14, 0xbe,
  0x06, 0xfc, 0xba, 0x3c, 0x3e, 0x82, 0x95, 0x3d, 0x18, 0x91, 0xb7, 0xbc, 0x76, 0xad, 0xb5, 0xbc,
  0xa7, 0x79, 0xed, 0x3c, 0x60, 0xff, 0x90, 0x3d, 0x20, 0xfd, 0x96, 0x3d, 0x8d, 0xc9, 0x3e, 0x3c,
  0xe1, 0x8f, 0xe3, 0x3d, 0xe6, 0x70, 0xc3, 0x3c, 0xd7, 0x68, 0x7c, 0xbd, 0x66, 0x9c, 0x6b, 0xbe,
  0x01, 0x1c, 0x89, 0xbd, 0xd7, 0x3a, 0x10, 0xbb, 0xb1, 0x5b, 0xb3, 0x3c, 0x7d, 0xee, 0x6c, 0x3c,
  0x77, 0xfb, 0x86, 0x3d, 0xc9, 0xeb, 0xc0, 0x3d, 0x0e, 0x6d, 0xbd, 0x3d, 0xa5, 0xc4, 0xdd, 0xbd,
  0x65, 0x07, 0x3f, 0x3d, 0x00, 0xff, 0x2f, 0x3e, 0xdb, 0xec, 0x2f, 0xbc, 0xd8, 0x88, 0xc5, 0xbd,
  0x97, 0xbe, 0x51, 0x3d, 0x97, 0x92, 0x8e, 0x3d, 0xc4, 0x28, 0x4c, 0xbe, 0x3c, 0x2f, 0x9c, 0xbd,
  0x9a, 0xe5, 0x85, 0x3d, 0xa0, 0xfe, 0xaa, 0x3c, 0x95, 0x21, 0xbe, 0x3d, 0x66, 0x40, 0xcd, 0xbc,
  0xf2, 0x55, 0x9a, 0xbd, 0x31, 0x84, 0xd7, 0x3d, 0x06, 0x97, 0x03, 0x3e, 0xf9, 0x37, 0xf8, 0xbd,
  0xcf, 0x2b, 0x28, 0x3d, 0xf6, 0x37, 0xb5, 0x3d, 0x2b, 0x14, 0x85, 0x3c, 0x10, 0x01, 0x8d, 0x3b,
  0xdd, 0x70, 0x22, 0x3e, 0xc3, 0x8b, 0x0f, 0xbc, 0xee, 0x41, 0x00, 0xbe, 0xd5, 0xb1, 0x14, 0xbd,
  0x2b, 0x0f, 0x0f, 0xbd, 0xe1, 0xe5, 0x13, 0xbd, 0xed, 0x7f, 0x05, 0xbe, 0xcd, 0xfb, 0x37, 0xbe,
  0x96, 0x78, 0x7c, 0x3d, 0x5b, 0x7f, 0x3d, 0x3d, 0x3f, 0x02, 0x0a, 0x3d, 0x54, 0x09, 0xb4, 0x3c,
  0xb9, 0x19, 0xe5, 0x3d, 0xcc, 0x00, 0x46, 0x3c, 0x28, 0xee, 0xd0, 0xbd, 0x3f, 0x41, 0x1d, 0x3d,
  0xc4, 0xc8, 0x3d, 0xbd, 0xc3, 0x64, 0xbb, 0x3d, 0x4b, 0x11, 0x46, 0x3d, 0x9b, 0x89, 0x98, 0xbe,
  0xd9, 0x88, 0xfd, 0x3d, 0x9c, 0xd3, 0xb0, 0xbc, 0x7a, 0xe6, 0x00, 0x3e, 0xc8, 0x83, 0x52, 0xbe,
  0x2b, 0x2b, 0x49, 0x3c, 0xb9, 0xe1, 0x8c, 0x3d, 0x30, 0x83, 0x09, 0xbe, 0x36, 0xed, 0xed, 0xbd,
  0x0e, 0x17, 0x86, 0xbe, 0xc4, 0xbb, 0x00, 0xbd, 0x9d, 0xe4, 0xaf, 0xbc, 0x10, 0xe5, 0x25, 0xbc,
  0xfb, 0x06, 0xec, 0xbd, 0x56, 0x26, 0x8e, 0xbd, 0xf1, 0x49, 0x5a, 0xbe, 0xea, 0x60, 0xe2, 0xbd,
  0x05, 0x82, 0x1e, 0xbe, 0xb9, 0xe9, 0x77, 0x3d, 0x0d, 0x74, 0xb7, 0x3d, 0x41, 0x69, 0x0a, 0xbe,
  0x16, 0xa6, 0xa0, 0xbd, 0x8d, 0x9a, 0x7b, 0xbd, 0x8a, 0x54, 0x58, 0x3e, 0x58, 0xdc, 0x7e, 0xbe,
  0xd1, 0x89, 0x94, 0x3c, 0xd0, 0xe3, 0xdc, 0xbc, 0xb1, 0xb4, 0xaf, 0xbc, 0x5e, 0xfc, 0xff, 0xff,
  0x04, 0x00, 0x00, 0x00, 0x40, 0x00, 0x00, 0x00, 0x52, 0xb3, 0x46, 0x3e, 0x26, 0x7d, 0x6c, 0xbd,
  0x6b, 0xe2, 0x5b, 0xbe, 0x08, 0x1d, 0xd4, 0x3d, 0xaa, 0x1b, 0x7b, 0x3e, 0x26, 0xca, 0xda, 0xbd,
  0x8f, 0xe0, 0x30, 0x3d, 0x0c, 0xeb, 0xd0, 0x3d, 0x1b, 0x9a, 0x88, 0x3d, 0xab, 0x09, 0x83, 0xbe,
  0x06, 0x97, 0xfb, 0x3d, 0x96, 0x30, 0x9f, 0xbd, 0x17, 0xce, 0x62, 0x3e, 0xf8, 0xed, 0xf1, 0x3c,
  0x2c, 0x41, 0xf1, 0xbb, 0xe6, 0x83, 0x26, 0xbc, 0xaa, 0xfc, 0xff, 0xff, 0x04, 0x00, 0x00, 0x00,
  0x40, 0x02, 0x00, 0x00, 0xbd, 0x25, 0xc4, 0xbb, 0x05, 0x7d, 0x10, 0x3e, 0x81, 0x8b, 0xd0, 0x3d,
  0x29, 0x8d, 0xdb, 0x3d, 0x65, 0x87, 0x14, 0x3e, 0xea, 0xf3, 0x35, 0xbe, 0x8a, 0x39, 0x77, 0xbe,
  0xfd, 0xf6, 0xb0, 0x3e, 0x82, 0xd8, 0x73, 0x3e, 0x0a, 0x51, 0x39, 0x3d, 0xde, 0xfb, 0x6c, 0xbc,
  0x0d, 0x64, 0x2b, 0x3e, 0xb1, 0x15, 0x01, 0xbc, 0x33, 0xae, 0x0e, 0x3e, 0x81, 0x04, 0x5c, 0x3e,
  0x62, 0x8d, 0x84, 0xbd, 0x92, 0x15, 0xd2, 0x3e, 0x99, 0xc7, 0x20, 0xbd, 0x3b, 0x99, 0x32, 0x3e,
  0x6e, 0x4e, 0xc3, 0x3d, 0x34, 0xf2, 0x92, 0x3d, 0x9c, 0x3a, 0x83, 0x3e, 0xa9, 0x31, 0x6e, 0x3e,
  0x4b, 0xaa, 0xfc, 0x3d, 0x32, 0x92, 0xdf, 0x3c, 0x68, 0x66, 0x95, 0x3e, 0xde, 0x7a, 0x5c, 0xbe,
  0x65, 0x99, 0x53, 0x3d, 0xa5, 0x6a, 0x85, 0x3e, 0xa0, 0xd8, 0x4c, 0x3d, 0x28, 0x1c, 0xc5, 0xbd,
  0x15, 0xd9, 0x3d, 0x3c, 0x93, 0x69, 0x16, 0xbe, 0xad, 0xb8, 0x6d, 0xbd, 0x9c, 0xbc, 0xd1, 0x3e,
  0xf6, 0x08, 0x1c, 0x3c, 0x68, 0x61, 0x15, 0xbd, 0x2e, 0xe2, 0xda, 0xbd, 0xa5, 0xe3, 0x21, 0x3e,
  0x47, 0xae, 0xcb, 0xbe, 0x48, 0xf2, 0xff, 0xbd, 0x0c, 0xf9, 0x31, 0x3e, 0xec, 0xe4, 0x66, 0xbe,
  0xd6, 0xdd, 0x18, 0xbe, 0x44, 0x94, 0x4a, 0xbc, 0x7b, 0x19, 0x33, 0xbd, 0x26, 0x91, 0x00, 0x3f,
  0xe7, 0xc1, 0xc7, 0x3e, 0x23, 0xd2, 0x87, 0x3d, 0xc1, 0xec, 0x06, 0x3f, 0xdf, 0xc8, 0x54, 0xbe,
  0x9c, 0x7c, 0x5a, 0x3d, 0x2c, 0xe0, 0xca, 0xbd, 0xbc, 0x37, 0xe1, 0x3e, 0xdc, 0xe0, 0x90, 0x3e,
  0x32, 0x39, 0x94, 0x3e, 0xed, 0xbd, 0x7d, 0x3e, 0x67, 0x16, 0x0b, 0xbe, 0x47, 0xd5, 0xed, 0x3d,
  0xd5, 0x25, 0x50, 0xbe, 0x05, 0x2e, 0x32, 0xbe, 0xff, 0xe0, 0xa2, 0x3e, 0xd1, 0xa5, 0x1f, 0xbe,
  0xd9, 0xde, 0x4d, 0xbd, 0xb0, 0x9c, 0xbf, 0x3e, 0x38, 0xb5, 0x0f, 0xbe, 0x43, 0x2f, 0x9c, 0x3e,
  0x34, 0x22, 0xfa, 0xbd, 0xb6, 0x60, 0x40, 0xbe, 0x9f, 0xee, 0x34, 0x3e, 0xcb, 0x35, 0xa4, 0xba,
  0xb6, 0xb2, 0xd0, 0x3d, 0xc6, 0xb8, 0x05, 0x3e, 0xff, 0xde, 0x79, 0x3e, 0xff, 0xad, 0xeb, 0x3e,
  0x4a, 0x3f, 0x11, 0xbd, 0xe0, 0x54, 0xca, 0xbe, 0x1e, 0xba, 0xe5, 0xbc, 0x01, 0xd5, 0xfe, 0x3c,
  0x96, 0xa7, 0x32, 0x3e, 0x38, 0x2b, 0xbc, 0xbd, 0x78, 0x35, 0x50, 0xbe, 0xd7, 0x70, 0x94, 0xbe,
  0x62, 0x44, 0x91, 0xbe, 0xe8, 0x90, 0x47, 0xbe, 0x0b, 0xb8, 0x68, 0xbd, 0x23, 0x1b, 0x29, 0xbe,
  0x42, 0xe4, 0x8b, 0xbe, 0x22, 0x63, 0xa8, 0x3e, 0x56, 0xbd, 0xe9, 0x3a, 0x16, 0x25, 0x74, 0xbe,
  0x7d, 0x36, 0xe4, 0xbd, 0xed, 0x97, 0x3f, 0xbe, 0x86, 0xeb, 0x96, 0x3e, 0x14, 0x20, 0x87, 0x3e,
  0xc0, 0xd9, 0x8b, 0xbe, 0x25, 0xfa, 0x4b, 0xbe, 0x41, 0x58, 0xb1, 0x3e, 0xfb, 0xf1, 0x0c, 0xbe,
  0x6e, 0x6f, 0x81, 0xbe, 0x3c, 0x0f, 0x9b, 0x3e, 0x2a, 0x60, 0xa6, 0x3d, 0xf4, 0x83, 0xd0, 0xbd,
  0x8b, 0x60, 0x61, 0x3d, 0xc6, 0xd9, 0xa0, 0x3e, 0x47, 0xb2, 0xaa, 0x3e, 0x39, 0x90, 0x41, 0x3e,
  0xcb, 0x05, 0x46, 0xbe, 0xd8, 0xe9, 0xcb, 0xbd, 0x80, 0xd5, 0x00, 0xbe, 0xe9, 0xf2, 0xe0, 0x3d,
  0x5e, 0xae, 0xcf, 0xbe, 0x5a, 0x68, 0xbc, 0x3e, 0xcf, 0x8b, 0x5b, 0xbd, 0x55, 0xcf, 0x42, 0xbe,
  0x2b, 0xc9, 0x21, 0xbd, 0x6b, 0x72, 0xfe, 0xbd, 0x16, 0x04, 0x04, 0x3e, 0xd0, 0x2e, 0x97, 0x3e,
  0x8b, 0x90, 0x47, 0x3e, 0x52, 0x50, 0x8e, 0x3d, 0xd4, 0x97, 0x3f, 0xbd, 0xfa, 0x35, 0x8d, 0xbd,
  0xd5, 0xa2, 0x49, 0xbd, 0xa9, 0xd8, 0x01, 0xbc, 0x46, 0x33, 0xba, 0xbe, 0x44, 0xad, 0x27, 0x3e,
  0x19, 0xf1, 0x58, 0xbe, 0x7f, 0xec, 0x4b, 0xbe, 0x4e, 0x97, 0x39, 0xbe, 0x3f, 0x9d, 0xe3, 0x3e,
  0xcd, 0x45, 0x35, 0x3e, 0x25, 0x63, 0xdb, 0x3e, 0xa5, 0xd1, 0x07, 0x3d, 0xd5, 0x39, 0xba, 0x3e,
  0x84, 0x32, 0x2d, 0x3e, 0xdc, 0xf1, 0x18, 0x3e, 0x94, 0x2e, 0x7e, 0x3d, 0xa5, 0xca, 0x7c, 0x3b,
  0x2b, 0xfb, 0xa5, 0xbe, 0x41, 0x39, 0x08, 0xbe, 0xa7, 0x0f, 0x5e, 0xbe, 0xf1, 0x7a, 0x1f, 0x3e,
  0xe3, 0x7e, 0x10, 0x3d, 0x04, 0x00, 0x06, 0x00, 0x04, 0x00, 0x00, 0x00, 0x00, 0x00, 0x0e, 0x00,
  0x18, 0x00, 0x14, 0x00, 0x10, 0x00, 0x0c, 0x00, 0x08, 0x00, 0x04, 0x00, 0x0e, 0x00, 0x00, 0x00,
  0x14, 0x00, 0x00, 0x00, 0x20, 0x00, 0x00, 0x00, 0x34, 0x00, 0x00, 0x00, 0x38, 0x00, 0x00, 0x00,
  0x3c, 0x00, 0x00, 0x00, 0x0b, 0x00, 0x00, 0x00, 0x65, 0x73, 0x70, 0x63, 0x6e, 0x5f, 0x6d, 0x69,
  0x63, 0x72, 0x6f, 0x00, 0x05, 0x00, 0x00, 0x00, 0x88, 0x01, 0x00, 0x00, 0x38, 0x01, 0x00, 0x00,
  0xf0, 0x00, 0x00, 0x00, 0xa0, 0x00, 0x00, 0x00, 0x5c, 0x00, 0x00, 0x00, 0x01, 0x00, 0x00, 0x00,
  0x0a, 0x00, 0x00, 0x00, 0x01, 0x00, 0x00, 0x00, 0x00, 0x00, 0x00, 0x00, 0x0d, 0x00, 0x00, 0x00,
  0xb8, 0x05, 0x00, 0x00, 0x48, 0x05, 0x00, 0x00, 0xf0, 0x04, 0x00, 0x00, 0x94, 0x04, 0x00, 0x00,
  0x34, 0x04, 0x00, 0x00, 0xf0, 0x03, 0x00, 0x00, 0x94, 0x03, 0x00, 0x00, 0x34, 0x03, 0x00, 0x00,
  0xf0, 0x02, 0x00, 0x00, 0x94, 0x02, 0x00, 0x00, 0x4c, 0x02, 0x00, 0x00, 0xf4, 0x01, 0x00, 0x00,
  0x78, 0x01, 0x00, 0x00, 0x00, 0x00, 0x0e, 0x00, 0x18, 0x00, 0x14, 0x00, 0x10, 0x00, 0x0c, 0x00,
  0x0b, 0x00, 0x04, 0x00, 0x0e, 0x00, 0x00, 0x00, 0x14, 0x00, 0x00, 0x00, 0x00, 0x00, 0x00, 0x5e,
  0x14, 0x00, 0x00, 0x00, 0x18, 0x00, 0x00, 0x00, 0x02, 0x00, 0x00, 0x00, 0xbe, 0xff, 0xff, 0xff,
  0x02, 0x00, 0x00, 0x00, 0x01, 0x00, 0x00, 0x00, 0x0a, 0x00, 0x00, 0x00, 0x01, 0x00, 0x00, 0x00,
  0x0c, 0x00, 0x00, 0x00, 0x00, 0x00, 0x0e, 0x00, 0x1a, 0x00, 0x14, 0x00, 0x10, 0x00, 0x0c, 0x00,
  0x0b, 0x00, 0x04, 0x00, 0x0e, 0x00, 0x00, 0x00, 0x1c, 0x00, 0x00, 0x00, 0x00, 0x00, 0x00, 0x17,
  0x1c, 0x00, 0x00, 0x00, 0x20, 0x00, 0x00, 0x00, 0x01, 0x00, 0x00, 0x00, 0x00, 0x00, 0x06, 0x00,
  0x08, 0x00, 0x04, 0x00, 0x06, 0x00, 0x00, 0x00, 0x03, 0x00, 0x00, 0x00, 0x01, 0x00, 0x00, 0x00,
  0x0c, 0x00, 0x00, 0x00, 0x02, 0x00, 0x00, 0x00, 0x09, 0x00, 0x00, 0x00, 0x0b, 0x00, 0x00, 0x00,
  0x00, 0x00, 0x0e, 0x00, 0x16, 0x00, 0x00, 0x00, 0x10, 0x00, 0x0c, 0x00, 0x0b, 0x00, 0x04, 0x00,
  0x0e, 0x00, 0x00, 0x00, 0x1c, 0x00, 0x00, 0x00, 0x00, 0x00, 0x00, 0x01, 0x20, 0x00, 0x00, 0x00,
  0x24, 0x00, 0x00, 0x00, 0x00, 0x00, 0x0a, 0x00, 0x0c, 0x00, 0x00, 0x00, 0x08, 0x00, 0x04, 0x00,
  0x0a, 0x00, 0x00, 0x00, 0x01, 0x00, 0x00, 0x00, 0x01, 0x00, 0x00, 0x00, 0x01, 0x00, 0x00, 0x00,
  0x09, 0x00, 0x00, 0x00, 0x03, 0x00, 0x00, 0x00, 0x06, 0x00, 0x00, 0x00, 0x07, 0x00, 0x00, 0x00,
  0x08, 0x00, 0x00, 0x00, 0xc2, 0xff, 0xff, 0xff, 0x10, 0x00, 0x00, 0x00, 0x00, 0x00, 0x00, 0x01,
  0x18, 0x00, 0x00, 0x00, 0x1c, 0x00, 0x00, 0x00, 0xb4, 0xff, 0xff, 0xff, 0x00, 0x00, 0x00, 0x01,
  0x01, 0x00, 0x00, 0x00, 0x01, 0x00, 0x00, 0x00, 0x01, 0x00, 0x00, 0x00, 0x06, 0x00, 0x00, 0x00,
  0x03, 0x00, 0x00, 0x00, 0x03, 0x00, 0x00, 0x00, 0x04, 0x00, 0x00, 0x00, 0x05, 0x00, 0x00, 0x00,
  0x00, 0x00, 0x0e, 0x00, 0x14, 0x00, 0x00, 0x00, 0x10, 0x00, 0x0c, 0x00, 0x0b, 0x00, 0x04, 0x00,
  0x0e, 0x00, 0x00, 0x00, 0x1c, 0x00, 0x00, 0x00, 0x00, 0x00, 0x00, 0x01, 0x24, 0x00, 0x00, 0x00,
  0x28, 0x00, 0x00, 0x00, 0x0c, 0x00, 0x10, 0x00, 0x00, 0x00, 0x0c, 0x00, 0x08, 0x00, 0x07, 0x00,
  0x0c, 0x00, 0x00, 0x00, 0x00, 0x00, 0x00, 0x01, 0x01, 0x00, 0x00, 0x00, 0x01, 0x00, 0x00, 0x00,
  0x01, 0x00, 0x00, 0x00, 0x03, 0x00, 0x00, 0x00, 0x03, 0x00, 0x00, 0x00, 0x00, 0x00, 0x00, 0x00,
  0x01, 0x00, 0x00, 0x00, 0x02, 0x00, 0x00, 0x00, 0x04, 0xfc, 0xff, 0xff, 0x38, 0x00, 0x00, 0x00,
  0x08, 0x00, 0x00, 0x00, 0x44, 0x00, 0x00, 0x00, 0x26, 0x00, 0x00, 0x00, 0x6e, 0x6f, 0x64, 0x65,
  0x5f, 0x70, 0x69, 0x78, 0x65, 0x6c, 0x5f, 0x73, 0x68, 0x75, 0x66, 0x66, 0x6c, 0x65, 0x5f, 0x63,
  0x72, 0x64, 0x5f, 0x69, 0x6e, 0x70, 0x75, 0x74, 0x5f, 0x72, 0x65, 0x6f, 0x72, 0x64, 0x65, 0x72,
  0x65, 0x64, 0x00, 0x00, 0x04, 0x00, 0x00, 0x00, 0x01, 0x00, 0x00, 0x00, 0x18, 0x00, 0x00, 0x00,
  0x20, 0x00, 0x00, 0x00, 0x04, 0x00, 0x00, 0x00, 0x04, 0x00, 0x00, 0x00, 0x01, 0x00, 0x00, 0x00,
  0x18, 0x00, 0x00, 0x00, 0x20, 0x00, 0x00, 0x00, 0x04, 0x00, 0x00, 0x00, 0x14, 0x00, 0x18, 0x00,
  0x14, 0x00, 0x13, 0x00, 0x0c, 0x00, 0x08, 0x00, 0x00, 0x00, 0x00, 0x00, 0x00, 0x00, 0x04, 0x00,
  0x14, 0x00, 0x00, 0x00, 0x40, 0x00, 0x00, 0x00, 0x10, 0x00, 0x00, 0x00, 0x07, 0x00, 0x00, 0x00,
  0x00, 0x00, 0x00, 0x02, 0x38, 0x00, 0x00, 0x00, 0x25, 0x00, 0x00, 0x00, 0x6e, 0x6f, 0x64, 0x65,
  0x5f, 0x70, 0x69, 0x78, 0x65, 0x6c, 0x5f, 0x73, 0x68, 0x75, 0x66, 0x66, 0x6c, 0x65, 0x5f, 0x63,
  0x72, 0x64, 0x5f, 0x74, 0x6f, 0x5f, 0x64, 0x63, 0x72, 0x5f, 0x69, 0x6e, 0x64, 0x69, 0x63, 0x65,
  0x73, 0x00, 0x00, 0x00, 0x01, 0x00, 0x00, 0x00, 0x04, 0x00, 0x00, 0x00, 0x01, 0x00, 0x00, 0x00,
  0x04, 0x00, 0x00, 0x00, 0xd0, 0xfc, 0xff, 0xff, 0x18, 0x00, 0x00, 0x00, 0x08, 0x00, 0x00, 0x00,
  0x24, 0x00, 0x00, 0x00, 0x06, 0x00, 0x00, 0x00, 0x6f, 0x75, 0x74, 0x70, 0x75, 0x74, 0x00, 0x00,
  0x04, 0x00, 0x00, 0x00, 0x01, 0x00, 0x00, 0x00, 0x30, 0x00, 0x00, 0x00, 0x40, 0x00, 0x00, 0x00,
  0x01, 0x00, 0x00, 0x00, 0x04, 0x00, 0x00, 0x00, 0x01, 0x00, 0x00, 0x00, 0x30, 0x00, 0x00, 0x00,
  0x40, 0x00, 0x00, 0x00, 0x01, 0x00, 0x00, 0x00, 0x14, 0xfd, 0xff, 0xff, 0x2c, 0x00, 0x00, 0x00,
  0x08, 0x00, 0x00, 0x00, 0x38, 0x00, 0x00, 0x00, 0x19, 0x00, 0x00, 0x00, 0x6e, 0x6f, 0x64, 0x65,
  0x5f, 0x63, 0x6f, 0x6e, 0x76, 0x32, 0x64, 0x5f, 0x32, 0x5f, 0x6f, 0x75, 0x74, 0x70, 0x75, 0x74,
  0x5f, 0x6e, 0x68, 0x77, 0x63, 0x00, 0x00, 0x00, 0x04, 0x00, 0x00, 0x00, 0x01, 0x00, 0x00, 0x00,
  0x18, 0x00, 0x00, 0x00, 0x20, 0x00, 0x00, 0x00, 0x04, 0x00, 0x00, 0x00, 0x04, 0x00, 0x00, 0x00,
  0x01, 0x00, 0x00, 0x00, 0x18, 0x00, 0x00, 0x00, 0x20, 0x00, 0x00, 0x00, 0x04, 0x00, 0x00, 0x00,
  0xd8, 0xfd, 0xff, 0xff, 0x2c, 0x00, 0x00, 0x00, 0x0c, 0x00, 0x00, 0x00, 0x06, 0x00, 0x00, 0x00,
  0x28, 0x00, 0x00, 0x00, 0x17, 0x00, 0x00, 0x00, 0x6e, 0x6f, 0x64, 0x65, 0x5f, 0x63, 0x6f, 0x6e,
  0x76, 0x32, 0x64, 0x5f, 0x32, 0x5f, 0x63, 0x6f, 0x6e, 0x76, 0x5f, 0x62, 0x69, 0x61, 0x73, 0x00,
  0x01, 0x00, 0x00, 0x00, 0x04, 0x00, 0x00, 0x00, 0x01, 0x00, 0x00, 0x00, 0x04, 0x00, 0x00, 0x00,
  0x18, 0xfe, 0xff, 0xff, 0x30, 0x00, 0x00, 0x00, 0x0c, 0x00, 0x00, 0x00, 0x05, 0x00, 0x00, 0x00,
  0x38, 0x00, 0x00, 0x00, 0x19, 0x00, 0x00, 0x00, 0x6e, 0x6f, 0x64, 0x65, 0x5f, 0x63, 0x6f, 0x6e,
  0x76, 0x32, 0x64, 0x5f, 0x32, 0x5f, 0x63, 0x6f, 0x6e, 0x76, 0x5f, 0x66, 0x69, 0x6c, 0x74, 0x65,
  0x72, 0x00, 0x00, 0x00, 0x04, 0x00, 0x00, 0x00, 0x04, 0x00, 0x00, 0x00, 0x03, 0x00, 0x00, 0x00,
  0x03, 0x00, 0x00, 0x00, 0x08, 0x00, 0x00, 0x00, 0x04, 0x00, 0x00, 0x00, 0x04, 0x00, 0x00, 0x00,
  0x03, 0x00, 0x00, 0x00, 0x03, 0x00, 0x00, 0x00, 0x08, 0x00, 0x00, 0x00, 0x08, 0xfe, 0xff, 0xff,
  0x2c, 0x00, 0x00, 0x00, 0x08, 0x00, 0x00, 0x00, 0x38, 0x00, 0x00, 0x00, 0x18, 0x00, 0x00, 0x00,
  0x6e, 0x6f, 0x64, 0x65, 0x5f, 0x63, 0x6f, 0x6e, 0x76, 0x32, 0x64, 0x5f, 0x32, 0x5f, 0x69, 0x6e,
  0x70, 0x75, 0x74, 0x5f, 0x6e, 0x68, 0x77, 0x63, 0x00, 0x00, 0x00, 0x00, 0x04, 0x00, 0x00, 0x00,
  0x01, 0x00, 0x00, 0x00, 0x18, 0x00, 0x00, 0x00, 0x20, 0x00, 0x00, 0x00, 0x08, 0x00, 0x00, 0x00,
  0x04, 0x00, 0x00, 0x00, 0x01, 0x00, 0x00, 0x00, 0x18, 0x00, 0x00, 0x00, 0x20, 0x00, 0x00, 0x00,
  0x08, 0x00, 0x00, 0x00, 0xcc, 0xfe, 0xff, 0xff, 0x2c, 0x00, 0x00, 0x00, 0x0c, 0x00, 0x00, 0x00,
  0x04, 0x00, 0x00, 0x00, 0x28, 0x00, 0x00, 0x00, 0x17, 0x00, 0x00, 0x00, 0x6e, 0x6f, 0x64, 0x65,
  0x5f, 0x63, 0x6f, 0x6e, 0x76, 0x32, 0x64, 0x5f, 0x31, 0x5f, 0x63, 0x6f, 0x6e, 0x76, 0x5f, 0x62,
  0x69, 0x61, 0x73, 0x00, 0x01, 0x00, 0x00, 0x00, 0x08, 0x00, 0x00, 0x00, 0x01, 0x00, 0x00, 0x00,
  0x08, 0x00, 0x00, 0x00, 0x0c, 0xff, 0xff, 0xff, 0x30, 0x00, 0x00, 0x00, 0x0c, 0x00, 0x00, 0x00,
  0x03, 0x00, 0x00, 0x00, 0x38, 0x00, 0x00, 0x00, 0x19, 0x00, 0x00, 0x00, 0x6e, 0x6f, 0x64, 0x65,
  0x5f, 0x63, 0x6f, 0x6e, 0x76, 0x32, 0x64, 0x5f, 0x31, 0x5f, 0x63, 0x6f, 0x6e, 0x76, 0x5f, 0x66,
  0x69, 0x6c, 0x74, 0x65, 0x72, 0x00, 0x00, 0x00, 0x04, 0x00, 0x00, 0x00, 0x08, 0x00, 0x00, 0x00,
  0x03, 0x00, 0x00, 0x00, 0x03, 0x00, 0x00, 0x00, 0x10, 0x00, 0x00, 0x00, 0x04, 0x00, 0x00, 0x00,
  0x08, 0x00, 0x00, 0x00, 0x03, 0x00, 0x00, 0x00, 0x03, 0x00, 0x00, 0x00, 0x10, 0x00, 0x00, 0x00,
  0xfc, 0xfe, 0xff, 0xff, 0x2c, 0x00, 0x00, 0x00, 0x08, 0x00, 0x00, 0x00, 0x38, 0x00, 0x00, 0x00,
  0x18, 0x00, 0x00, 0x00, 0x6e, 0x6f, 0x64, 0x65, 0x5f, 0x63, 0x6f, 0x6e, 0x76, 0x32, 0x64, 0x5f,
  0x31, 0x5f, 0x69, 0x6e, 0x70, 0x75, 0x74, 0x5f, 0x6e, 0x68, 0x77, 0x63, 0x00, 0x00, 0x00, 0x00,
  0x04, 0x00, 0x00, 0x00, 0x01, 0x00, 0x00, 0x00, 0x18, 0x00, 0x00, 0x00, 0x20, 0x00, 0x00, 0x00,
  0x10, 0x00, 0x00, 0x00, 0x04, 0x00, 0x00, 0x00, 0x01, 0x00, 0x00, 0x00, 0x18, 0x00, 0x00, 0x00,
  0x20, 0x00, 0x00, 0x00, 0x10, 0x00, 0x00, 0x00, 0xc0, 0xff, 0xff, 0xff, 0x2c, 0x00, 0x00, 0x00,
  0x0c, 0x00, 0x00, 0x00, 0x02, 0x00, 0x00, 0x00, 0x28, 0x00, 0x00, 0x00, 0x15, 0x00, 0x00, 0x00,
  0x6e, 0x6f, 0x64, 0x65, 0x5f, 0x63, 0x6f, 0x6e, 0x76, 0x32, 0x64, 0x5f, 0x63, 0x6f, 0x6e, 0x76,
  0x5f, 0x62, 0x69, 0x61, 0x73, 0x00, 0x00, 0x00, 0x01, 0x00, 0x00, 0x00, 0x10, 0x00, 0x00, 0x00,
  0x01, 0x00, 0x00, 0x00, 0x10, 0x00, 0x00, 0x00, 0x14, 0x00, 0x14, 0x00, 0x10, 0x00, 0x00, 0x00,
  0x0c, 0x00, 0x08, 0x00, 0x00, 0x00, 0x00, 0x00, 0x00, 0x00, 0x04, 0x00, 0x14, 0x00, 0x00, 0x00,
  0x2c, 0x00, 0x00, 0x00, 0x0c, 0x00, 0x00, 0x00, 0x01, 0x00, 0x00, 0x00, 0x34, 0x00, 0x00, 0x00,
  0x17, 0x00, 0x00, 0x00, 0x6e, 0x6f, 0x64, 0x65, 0x5f, 0x63, 0x6f, 0x6e, 0x76, 0x32, 0x64, 0x5f,
  0x63, 0x6f, 0x6e, 0x76, 0x5f, 0x66, 0x69, 0x6c, 0x74, 0x65, 0x72, 0x00, 0x04, 0x00, 0x00, 0x00,
  0x10, 0x00, 0x00, 0x00, 0x03, 0x00, 0x00, 0x00, 0x03, 0x00, 0x00, 0x00, 0x01, 0x00, 0x00, 0x00,
  0x04, 0x00, 0x00, 0x00, 0x10, 0x00, 0x00, 0x00, 0x03, 0x00, 0x00, 0x00, 0x03, 0x00, 0x00, 0x00,
  0x01, 0x00, 0x00, 0x00, 0x14, 0x00, 0x10, 0x00, 0x0c, 0x00, 0x00, 0x00, 0x00, 0x00, 0x08, 0x00,
  0x00, 0x00, 0x00, 0x00, 0x00, 0x00, 0x04, 0x00, 0x14, 0x00, 0x00, 0x00, 0x18, 0x00, 0x00, 0x00,
  0x08, 0x00, 0x00, 0x00, 0x24, 0x00, 0x00, 0x00, 0x05, 0x00, 0x00, 0x00, 0x69, 0x6e, 0x70, 0x75,
  0x74, 0x00, 0x00, 0x00, 0x04, 0x00, 0x00, 0x00, 0x01, 0x00, 0x00, 0x00, 0x18, 0x00, 0x00, 0x00,
  0x20, 0x00, 0x00, 0x00, 0x01, 0x00, 0x00, 0x00, 0x04, 0x00, 0x00, 0x00, 0x01, 0x00, 0x00, 0x00,
  0x18, 0x00, 0x00, 0x00, 0x20, 0x00, 0x00, 0x00, 0x01, 0x00, 0x00, 0x00, 0xe8, 0xff, 0xff, 0xff,
  0x05, 0x00, 0x00, 0x00, 0x00, 0x00, 0x00, 0x05, 0xf4, 0xff, 0xff, 0xff, 0x24, 0x00, 0x00, 0x00,
  0x00, 0x00, 0x00, 0x24, 0x0c, 0x00, 0x0c, 0x00, 0x0b, 0x00, 0x00, 0x00, 0x00, 0x00, 0x04, 0x00,
  0x0c, 0x00, 0x00, 0x00, 0x03, 0x00, 0x00, 0x00, 0x00, 0x00, 0x00, 0x03,
};
const size_t espcn_micro_float32_tflite_len = 8588;
