#pragma once
#include <cstddef>
#include <cstdint>

alignas(16) const unsigned char espcn_micro_int8_tflite[] = {
  0x1c, 0x00, 0x00, 0x00, 0x54, 0x46, 0x4c, 0x33, 0x14, 0x00, 0x20, 0x00, 0x1c, 0x00, 0x18, 0x00,
  0x14, 0x00, 0x10, 0x00, 0x0c, 0x00, 0x00, 0x00, 0x08, 0x00, 0x04, 0x00, 0x14, 0x00, 0x00, 0x00,
  0x1c, 0x00, 0x00, 0x00, 0x90, 0x00, 0x00, 0x00, 0xe8, 0x00, 0x00, 0x00, 0xac, 0x08, 0x00, 0x00,
  0xbc, 0x08, 0x00, 0x00, 0xc4, 0x13, 0x00, 0x00, 0x03, 0x00, 0x00, 0x00, 0x01, 0x00, 0x00, 0x00,
  0x10, 0x00, 0x00, 0x00, 0x00, 0x00, 0x0a, 0x00, 0x10, 0x00, 0x0c, 0x00, 0x08, 0x00, 0x04, 0x00,
  0x0a, 0x00, 0x00, 0x00, 0x0c, 0x00, 0x00, 0x00, 0x1c, 0x00, 0x00, 0x00, 0x3c, 0x00, 0x00, 0x00,
  0x0f, 0x00, 0x00, 0x00, 0x73, 0x65, 0x72, 0x76, 0x69, 0x6e, 0x67, 0x5f, 0x64, 0x65, 0x66, 0x61,
  0x75, 0x6c, 0x74, 0x00, 0x01, 0x00, 0x00, 0x00, 0x04, 0x00, 0x00, 0x00, 0x98, 0xff, 0xff, 0xff,
  0x0a, 0x00, 0x00, 0x00, 0x04, 0x00, 0x00, 0x00, 0x08, 0x00, 0x00, 0x00, 0x6f, 0x75, 0x74, 0x70,
  0x75, 0x74, 0x5f, 0x30, 0x00, 0x00, 0x00, 0x00, 0x01, 0x00, 0x00, 0x00, 0x04, 0x00, 0x00, 0x00,
  0x3a, 0xf7, 0xff, 0xff, 0x04, 0x00, 0x00, 0x00, 0x05, 0x00, 0x00, 0x00, 0x69, 0x6e, 0x70, 0x75,
  0x74, 0x00, 0x00, 0x00, 0x02, 0x00, 0x00, 0x00, 0x34, 0x00, 0x00, 0x00, 0x04, 0x00, 0x00, 0x00,
  0xdc, 0xff, 0xff, 0xff, 0x0d, 0x00, 0x00, 0x00, 0x04, 0x00, 0x00, 0x00, 0x13, 0x00, 0x00, 0x00,
  0x43, 0x4f, 0x4e, 0x56, 0x45, 0x52, 0x53, 0x49, 0x4f, 0x4e, 0x5f, 0x4d, 0x45, 0x54, 0x41, 0x44,
  0x41, 0x54, 0x41, 0x00, 0x08, 0x00, 0x0c, 0x00, 0x08, 0x00, 0x04, 0x00, 0x08, 0x00, 0x00, 0x00,
  0x0c, 0x00, 0x00, 0x00, 0x04, 0x00, 0x00, 0x00, 0x13, 0x00, 0x00, 0x00, 0x6d, 0x69, 0x6e, 0x5f,
  0x72, 0x75, 0x6e, 0x74, 0x69, 0x6d, 0x65, 0x5f, 0x76, 0x65, 0x72, 0x73, 0x69, 0x6f, 0x6e, 0x00,
  0x0e, 0x00, 0x00, 0x00, 0xc0, 0x07, 0x00, 0x00, 0xb4, 0x07, 0x00, 0x00, 0x94, 0x07, 0x00, 0x00,
  0x64, 0x06, 0x00, 0x00, 0x34, 0x06, 0x00, 0x00, 0xa4, 0x01, 0x00, 0x00, 0x54, 0x01, 0x00, 0x00,
  0xb4, 0x00, 0x00, 0x00, 0xac, 0x00, 0x00, 0x00, 0xa4, 0x00, 0x00, 0x00, 0x9c, 0x00, 0x00, 0x00,
  0x94, 0x00, 0x00, 0x00, 0x74, 0x00, 0x00, 0x00, 0x04, 0x00, 0x00, 0x00, 0xe6, 0xf7, 0xff, 0xff,
  0x04, 0x00, 0x00, 0x00, 0x60, 0x00, 0x00, 0x00, 0x0c, 0x00, 0x00, 0x00, 0x08, 0x00, 0x0e, 0x00,
  0x08, 0x00, 0x04, 0x00, 0x08, 0x00, 0x00, 0x00, 0x10, 0x00, 0x00, 0x00, 0x28, 0x00, 0x00, 0x00,
  0x00, 0x00, 0x06, 0x00, 0x08, 0x00, 0x04, 0x00, 0x06, 0x00, 0x00, 0x00, 0x04, 0x00, 0x00, 0x00,
  0x01, 0x00, 0x00, 0x00, 0xeb, 0x03, 0x00, 0x00, 0x0c, 0x00, 0x18, 0x00, 0x14, 0x00, 0x10, 0x00,
  0x0c, 0x00, 0x04, 0x00, 0x0c, 0x00, 0x00, 0x00, 0xcc, 0x75, 0x17, 0x39, 0x61, 0x4f, 0xaf, 0x55,
  0x02, 0x00, 0x00, 0x00, 0x02, 0x00, 0x00, 0x00, 0x04, 0x00, 0x00, 0x00, 0x06, 0x00, 0x00, 0x00,
  0x32, 0x2e, 0x32, 0x31, 0x2e, 0x30, 0x00, 0x00, 0x52, 0xf8, 0xff, 0xff, 0x04, 0x00, 0x00, 0x00,
  0x10, 0x00, 0x00, 0x00, 0x32, 0x2e, 0x35, 0x2e, 0x30, 0x00, 0x00, 0x00, 0x00, 0x00, 0x00, 0x00,
  0x00, 0x00, 0x00, 0x00, 0x04, 0xf9, 0xff, 0xff, 0x08, 0xf9, 0xff, 0xff, 0x0c, 0xf9, 0xff, 0xff,
  0x10, 0xf9, 0xff, 0xff, 0x7e, 0xf8, 0xff, 0xff, 0x04, 0x00, 0x00, 0x00, 0x90, 0x00, 0x00, 0x00,
  0xfe, 0x34, 0x25, 0x27, 0x35, 0xbf, 0xa7, 0x7f, 0x57, 0x0e, 0xfc, 0x34, 0xfe, 0x2b, 0x43, 0xec,
  0x7f, 0xf4, 0x4c, 0x2a, 0x1f, 0x70, 0x65, 0x36, 0x0c, 0x7f, 0xa2, 0x10, 0x51, 0x10, 0xe2, 0x04,
  0xd2, 0xee, 0x7f, 0x03, 0xf4, 0xde, 0x32, 0x81, 0xd8, 0x37, 0xb8, 0xd0, 0xfc, 0xf5, 0x79, 0x5e,
  0x10, 0x7f, 0xce, 0x0d, 0xe8, 0x6a, 0x71, 0x74, 0x63, 0xca, 0x2e, 0xaf, 0xbb, 0x7f, 0xc2, 0xef,
  0x7f, 0xd0, 0x68, 0xd7, 0xc0, 0x3c, 0x00, 0x23, 0x24, 0x43, 0x7f, 0xf6, 0x93, 0xf8, 0x09, 0x30,
  0xe7, 0xb1, 0x90, 0x92, 0xb5, 0xea, 0xc0, 0x96, 0x7f, 0x01, 0xa9, 0xd7, 0xbb, 0x6c, 0x61, 0x9c,
  0xb7, 0x7f, 0xce, 0xa0, 0x73, 0x1f, 0xd9, 0x15, 0x78, 0x7f, 0x48, 0xb6, 0xe1, 0xd9, 0x22, 0x81,
  0x73, 0xef, 0xc4, 0xf4, 0xd9, 0x2d, 0x67, 0x44, 0x18, 0xf0, 0xe8, 0xef, 0xfd, 0x81, 0x2f, 0xc3,
  0xc7, 0xcc, 0x7f, 0x33, 0x7a, 0x09, 0x68, 0x42, 0x3b, 0x18, 0x02, 0x81, 0xcc, 0xab, 0x3d, 0x0e,
  0x1a, 0xf9, 0xff, 0xff, 0x04, 0x00, 0x00, 0x00, 0x40, 0x00, 0x00, 0x00, 0x05, 0x47, 0x00, 0x00,
  0x33, 0xee, 0xff, 0xff, 0xe8, 0xa2, 0xff, 0xff, 0xfc, 0x1f, 0x00, 0x00, 0xfb, 0x4d, 0x00, 0x00,
  0x5c, 0xe6, 0xff, 0xff, 0x2c, 0x11, 0x00, 0x00, 0x7b, 0x22, 0x00, 0x00, 0x55, 0x12, 0x00, 0x00,
  0x8e, 0x9d, 0xff, 0xff, 0xde, 0x2c, 0x00, 0x00, 0x82, 0xe2, 0xff, 0xff, 0x14, 0x45, 0x00, 0x00,
  0x46, 0x0a, 0x00, 0x00, 0xe8, 0xfd, 0xff, 0xff, 0x09, 0xfc, 0xff, 0xff, 0x66, 0xf9, 0xff, 0xff,
  0x04, 0x00, 0x00, 0x00, 0x80, 0x04, 0x00, 0x00, 0xf8, 0x09, 0x21, 0x23, 0x18, 0x6d, 0xff, 0x22,
  0xa9, 0xee, 0xf9, 0xf0, 0x05, 0xb2, 0x25, 0x18, 0x14, 0x26, 0xf5, 0x50, 0xf8, 0xf7, 0x07, 0x13,
  0x0e, 0x03, 0x18, 0x13, 0xf9, 0xe1, 0x0b, 0x08, 0xe9, 0xff, 0x06, 0x08, 0xe9, 0x1d, 0xf3, 0x0b,
  0x22, 0x11, 0xfa, 0x25, 0xe9, 0x01, 0x24, 0xe4, 0xec, 0x1b, 0xda, 0xd8, 0xfc, 0xe5, 0x09, 0x11,
  0xa9, 0xea, 0x01, 0x2b, 0x2b, 0x37, 0x2c, 0x0d, 0x1c, 0x17, 0x04, 0xe9, 0x17, 0x7f, 0xf0, 0xfb,
  0x8d, 0xff, 0x2d, 0xfc, 0x0f, 0x0d, 0x3c, 0xed, 0x1a, 0xfd, 0x1d, 0x29, 0xfb, 0xcb, 0x13, 0x30,
  0xed, 0xfd, 0x24, 0xf2, 0xec, 0xfd, 0xe3, 0xf1, 0x14, 0xec, 0xf0, 0x0a, 0x16, 0x45, 0xf2, 0x03,
  0x0c, 0xf2, 0xff, 0x1a, 0xf4, 0xfb, 0xf0, 0x19, 0x21, 0x0d, 0x1a, 0x29, 0xf5, 0xb6, 0xfe, 0x0a,
  0x0a, 0xfe, 0x12, 0x27, 0xfa, 0xfb, 0xe0, 0x05, 0xfc, 0x09, 0x1d, 0xa6, 0x16, 0x18, 0x24, 0xeb,
  0xc7, 0xfd, 0xe5, 0x00, 0x26, 0xf1, 0xeb, 0xf0, 0x23, 0x12, 0xf5, 0x20, 0xe4, 0x38, 0xe4, 0x0f,
  0xd0, 0xeb, 0xf6, 0x01, 0x27, 0xc2, 0x15, 0x0b, 0xe5, 0x3b, 0x13, 0xf0, 0x12, 0xa3, 0xf1, 0xe7,
  0xf8, 0xde, 0x21, 0x06, 0xf0, 0x32, 0x16, 0x18, 0xfe, 0xe4, 0xdc, 0x81, 0xf6, 0x4e, 0x0c, 0x04,
  0xe6, 0xdf, 0xed, 0xf2, 0x11, 0x18, 0x0d, 0xef, 0x1c, 0xf5, 0x2d, 0xfb, 0x14, 0xe6, 0x0b, 0x08,
  0xee, 0xf3, 0xd7, 0xf9, 0x10, 0xdb, 0xf6, 0xfc, 0x17, 0xf9, 0xdd, 0x69, 0x15, 0x62, 0x21, 0x31,
  0xf6, 0xe6, 0x2e, 0xe2, 0x2a, 0x4a, 0xf3, 0xf3, 0xf5, 0x09, 0x18, 0x52, 0xf1, 0xf9, 0x03, 0x1b,
  0xf9, 0x16, 0x10, 0xf2, 0x0b, 0x2e, 0x02, 0xef, 0x25, 0x07, 0xf1, 0x0b, 0x04, 0x8e, 0x09, 0xe5,
  0x01, 0x17, 0xdc, 0x0b, 0x11, 0xf7, 0x09, 0xeb, 0x26, 0x00, 0x1d, 0xf1, 0x13, 0xff, 0x27, 0xf3,
  0xc9, 0x1f, 0x00, 0x0f, 0xf4, 0xe1, 0xe7, 0x08, 0x1f, 0xef, 0x05, 0xbc, 0x07, 0x1c, 0x05, 0xe0,
  0xf0, 0xff, 0x04, 0xec, 0x13, 0xf0, 0x12, 0x1f, 0x18, 0x13, 0x06, 0xbd, 0x0e, 0x26, 0x13, 0x1c,
  0xa5, 0x31, 0xda, 0x1e, 0x2e, 0x11, 0x4c, 0xdc, 0x12, 0xe5, 0xd2, 0x4c, 0x09, 0xe5, 0xe5, 0xd8,
  0xf5, 0xd9, 0x1d, 0xf9, 0x2c, 0xdd, 0xd1, 0xf4, 0x25, 0x13, 0x06, 0xd1, 0x35, 0x2d, 0x2e, 0xde,
  0x0b, 0xce, 0x1e, 0x40, 0xca, 0xfc, 0x28, 0x2e, 0xfb, 0x10, 0xf7, 0xfa, 0xe5, 0xc1, 0xe4, 0xf0,
  0xb9, 0x05, 0xfc, 0x0e, 0xd1, 0x41, 0x22, 0xfb, 0xe3, 0x14, 0x41, 0x40, 0xd1, 0xd9, 0x40, 0x0c,
  0xf3, 0xed, 0x09, 0x1c, 0x28, 0x6f, 0xf7, 0x31, 0xfe, 0xe8, 0x2b, 0x1b, 0xd9, 0x81, 0xe3, 0x1c,
  0x04, 0xf0, 0x19, 0xc2, 0xe9, 0xdf, 0x10, 0x10, 0xfb, 0x0f, 0xf3, 0x07, 0x23, 0xde, 0xf0, 0x08,
  0x9e, 0xcd, 0x1c, 0x30, 0xda, 0x0f, 0xf5, 0xf4, 0x47, 0x07, 0x1b, 0xc4, 0xe4, 0x0c, 0x4a, 0x31,
  0xb0, 0x03, 0xf2, 0x2e, 0x04, 0x16, 0x5e, 0x3a, 0x0a, 0xdf, 0xe5, 0xbd, 0x19, 0xe7, 0x19, 0x23,
  0x09, 0x10, 0xc8, 0xb4, 0x29, 0x06, 0x3e, 0x0d, 0xec, 0x2c, 0xf5, 0x13, 0x1f, 0x1a, 0x11, 0xf8,
  0xa3, 0xdd, 0x06, 0xdf, 0xde, 0x03, 0x31, 0xfe, 0x2c, 0x27, 0x0f, 0x7f, 0x01, 0xc1, 0x33, 0x07,
  0x1e, 0xf4, 0x2a, 0x24, 0x23, 0xe5, 0x7a, 0xfe, 0x23, 0xff, 0xe2, 0xcd, 0x12, 0xe7, 0xfc, 0x1e,
  0x1a, 0x1c, 0x26, 0x61, 0x18, 0xe1, 0x51, 0x0b, 0x03, 0x52, 0xf5, 0xe9, 0xe7, 0xc0, 0x24, 0xdd,
  0x58, 0x08, 0x11, 0x46, 0x22, 0x35, 0x04, 0x0e, 0x25, 0xba, 0x54, 0x0c, 0x12, 0x70, 0x1f, 0x17,
  0xd8, 0xf6, 0xf4, 0x20, 0x23, 0x20, 0xf4, 0xdd, 0xf6, 0xc9, 0xfa, 0xc1, 0xd0, 0xed, 0xf0, 0x1a,
  0x08, 0x12, 0x09, 0xef, 0xec, 0x19, 0xcb, 0xfe, 0x20, 0xff, 0x00, 0xc4, 0xbf, 0x2e, 0x06, 0xf2,
  0xaf, 0x06, 0xf5, 0xcf, 0xed, 0xbc, 0x3f, 0x0d, 0xe0, 0x05, 0x1d, 0xd4, 0xc0, 0x7c, 0xe3, 0x06,
  0xf6, 0xec, 0x15, 0xd2, 0xff, 0x0e, 0xe2, 0x05, 0xd0, 0x23, 0xfd, 0xfe, 0x0e, 0x2b, 0xf1, 0xc9,
  0x10, 0xe3, 0x1a, 0x09, 0xce, 0xf4, 0x16, 0xe4, 0xef, 0xfb, 0x15, 0x0b, 0xf6, 0x23, 0xfe, 0xfe,
  0x09, 0xfe, 0x0c, 0xf2, 0x03, 0xd8, 0x1a, 0x0f, 0x09, 0x25, 0x0e, 0x01, 0xee, 0x05, 0x03, 0xf2,
  0x16, 0x08, 0x0a, 0x17, 0xeb, 0x08, 0x40, 0xf2, 0x01, 0x10, 0xe6, 0xeb, 0x05, 0xea, 0x07, 0x14,
  0x1c, 0x0b, 0xf0, 0x39, 0xf5, 0xf2, 0x28, 0x00, 0x15, 0xf7, 0x02, 0xd4, 0xfd, 0x04, 0xef, 0xf8,
  0xcf, 0x09, 0x04, 0x16, 0x1b, 0x14, 0x14, 0xfd, 0x11, 0x27, 0x25, 0x28, 0x02, 0x36, 0xfe, 0xff,
  0x81, 0x09, 0x22, 0x1e, 0x16, 0xfb, 0x13, 0xf3, 0x14, 0xe6, 0xe7, 0xe2, 0xfe, 0xfc, 0xf0, 0x23,
  0xf7, 0xf3, 0x18, 0x07, 0xf1, 0xfa, 0x1d, 0xf1, 0x11, 0x0c, 0x02, 0x1e, 0x0f, 0xd4, 0xf0, 0x03,
  0x1b, 0xfc, 0xfa, 0xf5, 0xf7, 0xe9, 0xf2, 0xed, 0x0b, 0x02, 0x00, 0x13, 0xf1, 0x41, 0x04, 0xec,
  0xdc, 0x12, 0xf7, 0x1d, 0xfb, 0x0d, 0x0f, 0xeb, 0x09, 0xf6, 0xf7, 0x0d, 0x0c, 0xfd, 0x09, 0xfd,
  0x0e, 0x0b, 0xea, 0xf1, 0xeb, 0xfc, 0xec, 0x0d, 0x11, 0xf2, 0xfa, 0x08, 0x11, 0x35, 0x06, 0x11,
  0xa9, 0x00, 0x11, 0x12, 0xfb, 0xfd, 0x28, 0x00, 0xec, 0xfa, 0x02, 0xfc, 0xf8, 0x81, 0x0b, 0xe7,
  0x52, 0x13, 0xfe, 0xef, 0xee, 0xff, 0xe9, 0x09, 0x00, 0xed, 0xf8, 0x2a, 0xf7, 0xfe, 0xfa, 0x06,
  0x1e, 0x0a, 0xfb, 0xe0, 0xe9, 0x10, 0xdd, 0x0f, 0xee, 0xed, 0x08, 0xfe, 0xf3, 0xf9, 0xf8, 0xf7,
  0x22, 0xed, 0xf8, 0xda, 0xf5, 0x1b, 0xf7, 0x0a, 0xf3, 0xe9, 0x07, 0x10, 0xf1, 0xd5, 0x0f, 0xfb,
  0x0f, 0x0b, 0x0f, 0x03, 0x11, 0xff, 0xf2, 0xe8, 0xe4, 0x09, 0xed, 0x19, 0x03, 0x1c, 0x08, 0xea,
  0xea, 0x07, 0x02, 0x01, 0xfe, 0xdc, 0x0d, 0xe4, 0xe6, 0xef, 0x0e, 0x08, 0x07, 0xe7, 0x01, 0xf0,
  0xff, 0xff, 0x06, 0x00, 0xf1, 0xec, 0x04, 0x10, 0xfc, 0x02, 0xf7, 0x08, 0xf1, 0xf8, 0xf2, 0x0f,
  0x1d, 0xfb, 0xf6, 0xf6, 0xf0, 0xfe, 0xef, 0x0b, 0xe9, 0xfa, 0x0a, 0x31, 0x0f, 0xf6, 0x04, 0x02,
  0x3d, 0xfa, 0xf2, 0xf2, 0x0e, 0xeb, 0xef, 0x07, 0x09, 0x0b, 0x07, 0xf2, 0xf4, 0x0b, 0xf1, 0xe3,
  0xd2, 0xfa, 0xf1, 0x12, 0x07, 0xfa, 0x13, 0xf4, 0x06, 0x12, 0x0b, 0x7f, 0xf9, 0xfd, 0x1b, 0xf4,
  0x1d, 0xee, 0x2c, 0xfd, 0xf9, 0xf4, 0x28, 0x10, 0x13, 0x21, 0xe9, 0x21, 0xe4, 0xf2, 0xe9, 0x0e,
  0x10, 0xea, 0xe4, 0x23, 0x05, 0xc5, 0x12, 0xf1, 0x15, 0x16, 0x12, 0xf4, 0x0f, 0xe2, 0x0a, 0xe1,
  0x14, 0x0c, 0xef, 0xff, 0x02, 0x0c, 0x1c, 0x0d, 0x21, 0xfb, 0x13, 0x3b, 0xe8, 0x5a, 0x0a, 0xeb,
  0xa8, 0x05, 0xfd, 0x1d, 0x00, 0xf3, 0x50, 0xee, 0x1e, 0x1e, 0x02, 0xd7, 0xda, 0x02, 0x14, 0x22,
  0xe1, 0x16, 0x10, 0xfe, 0xf2, 0x03, 0xf9, 0xef, 0xfe, 0x16, 0x0a, 0xd5, 0x18, 0xed, 0xfd, 0xf4,
  0x07, 0x0b, 0xf7, 0x05, 0x01, 0x12, 0xf4, 0xe1, 0x0a, 0x0e, 0xf6, 0xd7, 0xeb, 0xe3, 0x0a, 0xf3,
  0xb0, 0x1a, 0xe7, 0xea, 0xeb, 0xf9, 0xe6, 0xe5, 0xfb, 0x0c, 0xf7, 0xd2, 0xf8, 0x04, 0x11, 0xfd,
  0xf7, 0x0d, 0xfa, 0x19, 0xf8, 0xf6, 0xfe, 0xf7, 0x00, 0x36, 0x11, 0x2b, 0xf2, 0x09, 0x1d, 0xf5,
  0xcb, 0x02, 0x2a, 0x4b, 0xff, 0x93, 0x21, 0x1e, 0x02, 0xfb, 0xcf, 0x58, 0xd5, 0xcd, 0xed, 0x1e,
  0x04, 0x0a, 0xf6, 0xd9, 0x02, 0x53, 0x4c, 0x09, 0xfc, 0xe2, 0x39, 0x47, 0xf6, 0x01, 0xf2, 0x16,
  0x35, 0xf7, 0xf3, 0x2a, 0x0a, 0xb6, 0x4b, 0xd7, 0x1b, 0x4a, 0xce, 0x06, 0x0d, 0x0f, 0xfb, 0xc6,
  0xc2, 0x0a, 0x1f, 0xf6, 0xf7, 0x0c, 0x1e, 0x1f, 0x05, 0x2f, 0x0a, 0xe6, 0x9e, 0xe3, 0xff, 0x09,
  0x06, 0x1c, 0x28, 0x27, 0xd2, 0x14, 0x49, 0xfb, 0xd7, 0x16, 0x1e, 0xab, 0xdf, 0x1c, 0x09, 0x28,
  0xf5, 0xe0, 0x2d, 0x37, 0xcc, 0x12, 0x26, 0x07, 0x02, 0x44, 0xfc, 0xcb, 0xf1, 0xf1, 0xf1, 0xc8,
  0xb3, 0x1a, 0x14, 0x0e, 0x09, 0x30, 0x05, 0xd5, 0x10, 0xec, 0x27, 0x15, 0x81, 0x35, 0xf7, 0x36,
  0xa8, 0x05, 0x1d, 0xc7, 0xce, 0x90, 0xf3, 0xf7, 0xfc, 0xcf, 0xe2, 0xa5, 0xd1, 0xbe, 0x1a, 0x26,
  0xc6, 0xdf, 0xe6, 0x5a, 0x96, 0x08, 0xf5, 0xf7, 0xf2, 0xfd, 0xff, 0xff, 0x04, 0x00, 0x00, 0x00,
  0x20, 0x00, 0x00, 0x00, 0x17, 0x02, 0x00, 0x00, 0x36, 0xf9, 0xff, 0xff, 0x50, 0x24, 0x00, 0x00,
  0x77, 0xf7, 0xff, 0xff, 0x52, 0x05, 0x00, 0x00, 0xe0, 0x0b, 0x00, 0x00, 0x53, 0xf9, 0xff, 0xff,
  0xdd, 0x11, 0x00, 0x00, 0x1e, 0xfe, 0xff, 0xff, 0x04, 0x00, 0x00, 0x00, 0x20, 0x01, 0x00, 0x00,
  0x3a, 0x06, 0xf5, 0xe0, 0xba, 0x03, 0x2e, 0xc5, 0xf7, 0x08, 0x2b, 0xea, 0x1c, 0xe9, 0x1b, 0x7f,
  0x05, 0xfc, 0x0b, 0x11, 0xdf, 0x22, 0x06, 0xe9, 0x08, 0x18, 0x2b, 0x1f, 0xe9, 0xf1, 0x02, 0x24,
  0x1e, 0x23, 0x1d, 0x60, 0x49, 0x0f, 0x0d, 0x04, 0xf5, 0x34, 0xfb, 0xdc, 0x49, 0xfd, 0xee, 0xf8,
  0x1e, 0x3b, 0xfc, 0xfc, 0xd9, 0xda, 0xf6, 0xf1, 0x15, 0x0e, 0x4a, 0x38, 0xd7, 0xd8, 0x17, 0xd7,
  0x03, 0xed, 0x19, 0xef, 0xec, 0x01, 0xfc, 0xff, 0x2c, 0xf9, 0x1f, 0x98, 0xdc, 0x37, 0x4e, 0x3d,
  0xf6, 0x16, 0x2b, 0xff, 0x0b, 0x2a, 0x29, 0xd3, 0xee, 0x06, 0x00, 0xf9, 0xd5, 0xe0, 0x39, 0x7f,
  0xe9, 0xd7, 0xf5, 0xf6, 0x02, 0xf6, 0x04, 0x00, 0x71, 0x2e, 0xfb, 0x74, 0x2d, 0x1f, 0x38, 0xc8,
  0x1a, 0x11, 0x0d, 0x04, 0x20, 0xcb, 0xc3, 0x18, 0x0f, 0x33, 0x35, 0x1c, 0xf0, 0xd2, 0xcd, 0xe8,
  0xf2, 0x18, 0x2a, 0x28, 0xe5, 0x26, 0x4c, 0x02, 0xfc, 0x09, 0xfc, 0xd2, 0x03, 0xd3, 0xe0, 0xf9,
  0x0d, 0x1e, 0x1a, 0x04, 0xfe, 0x0d, 0xdf, 0x13, 0xad, 0xe4, 0x40, 0xe5, 0x26, 0xd0, 0x1b, 0x7a,
  0x07, 0xec, 0xdd, 0x30, 0xfa, 0x19, 0xde, 0xe6, 0xf8, 0xe9, 0x2f, 0xd1, 0xfe, 0xd8, 0xfc, 0xee,
  0x57, 0xd1, 0x1f, 0x56, 0x7f, 0x02, 0x1d, 0x4b, 0xea, 0x1d, 0x19, 0xec, 0x14, 0xde, 0x19, 0x12,
  0x09, 0xe3, 0xf3, 0xea, 0xff, 0x17, 0xfa, 0x0f, 0xe7, 0x2b, 0xf4, 0x41, 0xfa, 0x02, 0x14, 0xd3,
  0xed, 0x10, 0x11, 0xe9, 0xe7, 0x4d, 0xf6, 0xf7, 0x35, 0x10, 0x2c, 0xc0, 0xe6, 0xe3, 0x05, 0x1f,
  0xbc, 0x11, 0x23, 0xfd, 0x53, 0xd9, 0xf4, 0xc4, 0xe4, 0xfc, 0x24, 0xf2, 0xc4, 0x20, 0x43, 0x64,
  0xf3, 0xc4, 0xb8, 0xd9, 0x0f, 0x06, 0x3d, 0x03, 0x4d, 0x48, 0x1a, 0x12, 0x7f, 0x4c, 0x4c, 0xbb,
  0xfd, 0x14, 0xd1, 0x23, 0x2c, 0xfe, 0xde, 0x4a, 0xee, 0xe4, 0x14, 0x16, 0x23, 0x13, 0x17, 0xf4,
  0xf0, 0x1a, 0x26, 0x10, 0x07, 0xe8, 0x3f, 0xcb, 0xe2, 0xdd, 0x30, 0xd7, 0xd7, 0xcb, 0x07, 0xf9,
  0x4a, 0xff, 0xff, 0xff, 0x04, 0x00, 0x00, 0x00, 0x10, 0x00, 0x00, 0x00, 0xdc, 0xfb, 0xff, 0xff,
  0x92, 0x04, 0x00, 0x00, 0xc4, 0x0b, 0x00, 0x00, 0x8b, 0x0a, 0x00, 0x00, 0xfc, 0xff, 0xff, 0xff,
  0x04, 0x00, 0x04, 0x00, 0x04, 0x00, 0x00, 0x00, 0x0f, 0x00, 0x00, 0x00, 0x4d, 0x4c, 0x49, 0x52,
  0x20, 0x43, 0x6f, 0x6e, 0x76, 0x65, 0x72, 0x74, 0x65, 0x64, 0x2e, 0x00, 0x01, 0x00, 0x00, 0x00,
  0x14, 0x00, 0x00, 0x00, 0x00, 0x00, 0x0e, 0x00, 0x18, 0x00, 0x14, 0x00, 0x10, 0x00, 0x0c, 0x00,
  0x08, 0x00, 0x04, 0x00, 0x0e, 0x00, 0x00, 0x00, 0x14, 0x00, 0x00, 0x00, 0x1c, 0x00, 0x00, 0x00,
  0x5c, 0x01, 0x00, 0x00, 0x60, 0x01, 0x00, 0x00, 0x64, 0x01, 0x00, 0x00, 0x04, 0x00, 0x00, 0x00,
  0x6d, 0x61, 0x69, 0x6e, 0x00, 0x00, 0x00, 0x00, 0x04, 0x00, 0x00, 0x00, 0xf8, 0x00, 0x00, 0x00,
  0xa8, 0x00, 0x00, 0x00, 0x60, 0x00, 0x00, 0x00, 0x14, 0x00, 0x00, 0x00, 0x00, 0x00, 0x0e, 0x00,
  0x1a, 0x00, 0x14, 0x00, 0x10, 0x00, 0x0c, 0x00, 0x0b, 0x00, 0x04, 0x00, 0x0e, 0x00, 0x00, 0x00,
  0x1c, 0x00, 0x00, 0x00, 0x00, 0x00, 0x00, 0x5e, 0x1c, 0x00, 0x00, 0x00, 0x20, 0x00, 0x00, 0x00,
  0x01, 0x00, 0x00, 0x00, 0x00, 0x00, 0x06, 0x00, 0x08, 0x00, 0x04, 0x00, 0x06, 0x00, 0x00, 0x00,
  0x02, 0x00, 0x00, 0x00, 0x01, 0x00, 0x00, 0x00, 0x0a, 0x00, 0x00, 0x00, 0x01, 0x00, 0x00, 0x00,
  0x09, 0x00, 0x00, 0x00, 0x00, 0x00, 0x0e, 0x00, 0x16, 0x00, 0x00, 0x00, 0x10, 0x00, 0x0c, 0x00,
  0x0b, 0x00, 0x04, 0x00, 0x0e, 0x00, 0x00, 0x00, 0x1c, 0x00, 0x00, 0x00, 0x00, 0x00, 0x00, 0x01,
  0x20, 0x00, 0x00, 0x00, 0x24, 0x00, 0x00, 0x00, 0x00, 0x00, 0x0a, 0x00, 0x0c, 0x00, 0x00, 0x00,
  0x08, 0x00, 0x04, 0x00, 0x0a, 0x00, 0x00, 0x00, 0x01, 0x00, 0x00, 0x00, 0x01, 0x00, 0x00, 0x00,
  0x01, 0x00, 0x00, 0x00, 0x09, 0x00, 0x00, 0x00, 0x03, 0x00, 0x00, 0x00, 0x08, 0x00, 0x00, 0x00,
  0x02, 0x00, 0x00, 0x00, 0x01, 0x00, 0x00, 0x00, 0xc2, 0xff, 0xff, 0xff, 0x10, 0x00, 0x00, 0x00,
  0x00, 0x00, 0x00, 0x01, 0x18, 0x00, 0x00, 0x00, 0x1c, 0x00, 0x00, 0x00, 0xb4, 0xff, 0xff, 0xff,
  0x00, 0x00, 0x00, 0x01, 0x01, 0x00, 0x00, 0x00, 0x01, 0x00, 0x00, 0x00, 0x01, 0x00, 0x00, 0x00,
  0x08, 0x00, 0x00, 0x00, 0x03, 0x00, 0x00, 0x00, 0x07, 0x00, 0x00, 0x00, 0x04, 0x00, 0x00, 0x00,
  0x03, 0x00, 0x00, 0x00, 0x00, 0x00, 0x0e, 0x00, 0x14, 0x00, 0x00, 0x00, 0x10, 0x00, 0x0c, 0x00,
  0x0b, 0x00, 0x04, 0x00, 0x0e, 0x00, 0x00, 0x00, 0x1c, 0x00, 0x00, 0x00, 0x00, 0x00, 0x00, 0x01,
  0x24, 0x00, 0x00, 0x00, 0x28, 0x00, 0x00, 0x00, 0x0c, 0x00, 0x10, 0x00, 0x00, 0x00, 0x0c, 0x00,
  0x08, 0x00, 0x07, 0x00, 0x0c, 0x00, 0x00, 0x00, 0x00, 0x00, 0x00, 0x01, 0x01, 0x00, 0x00, 0x00,
  0x01, 0x00, 0x00, 0x00, 0x01, 0x00, 0x00, 0x00, 0x07, 0x00, 0x00, 0x00, 0x03, 0x00, 0x00, 0x00,
  0x00, 0x00, 0x00, 0x00, 0x06, 0x00, 0x00, 0x00, 0x05, 0x00, 0x00, 0x00, 0x01, 0x00, 0x00, 0x00,
  0x0a, 0x00, 0x00, 0x00, 0x01, 0x00, 0x00, 0x00, 0x00, 0x00, 0x00, 0x00, 0x0b, 0x00, 0x00, 0x00,
  0x00, 0x09, 0x00, 0x00, 0x18, 0x08, 0x00, 0x00, 0x74, 0x07, 0x00, 0x00, 0x58, 0x06, 0x00, 0x00,
  0x84, 0x05, 0x00, 0x00, 0x08, 0x04, 0x00, 0x00, 0xd4, 0x02, 0x00, 0x00, 0x00, 0x02, 0x00, 0x00,
  0x2c, 0x01, 0x00, 0x00, 0x78, 0x00, 0x00, 0x00, 0x04, 0x00, 0x00, 0x00, 0x42, 0xf7, 0xff, 0xff,
  0x00, 0x00, 0x00, 0x01, 0x14, 0x00, 0x00, 0x00, 0x30, 0x00, 0x00, 0x00, 0x0b, 0x00, 0x00, 0x00,
  0x00, 0x00, 0x00, 0x09, 0x44, 0x00, 0x00, 0x00, 0x2c, 0xf7, 0xff, 0xff, 0x08, 0x00, 0x00, 0x00,
  0x10, 0x00, 0x00, 0x00, 0x01, 0x00, 0x00, 0x00, 0xa1, 0xff, 0xff, 0xff, 0xff, 0xff, 0xff, 0xff,
  0x01, 0x00, 0x00, 0x00, 0x89, 0xcc, 0xaa, 0x3b, 0x1b, 0x00, 0x00, 0x00, 0x53, 0x74, 0x61, 0x74,
  0x65, 0x66, 0x75, 0x6c, 0x50, 0x61, 0x72, 0x74, 0x69, 0x74, 0x69, 0x6f, 0x6e, 0x65, 0x64, 0x43,
  0x61, 0x6c, 0x6c, 0x5f, 0x31, 0x3a, 0x30, 0x00, 0x04, 0x00, 0x00, 0x00, 0x01, 0x00, 0x00, 0x00,
  0x30, 0x00, 0x00, 0x00, 0x40, 0x00, 0x00, 0x00, 0x01, 0x00, 0x00, 0x00, 0xb2, 0xf7, 0xff, 0xff,
  0x00, 0x00, 0x00, 0x01, 0x14, 0x00, 0x00, 0x00, 0x30, 0x00, 0x00, 0x00, 0x0a, 0x00, 0x00, 0x00,
  0x00, 0x00, 0x00, 0x09, 0x84, 0x00, 0x00, 0x00, 0x9c, 0xf7, 0xff, 0xff, 0x08, 0x00, 0x00, 0x00,
  0x10, 0x00, 0x00, 0x00, 0x01, 0x00, 0x00, 0x00, 0xa1, 0xff, 0xff, 0xff, 0xff, 0xff, 0xff, 0xff,
  0x01, 0x00, 0x00, 0x00, 0x89, 0xcc, 0xaa, 0x3b, 0x5b, 0x00, 0x00, 0x00, 0x66, 0x75, 0x6e, 0x63,
  0x74, 0x69, 0x6f, 0x6e, 0x61, 0x6c, 0x5f, 0x31, 0x2f, 0x63, 0x6f, 0x6e, 0x76, 0x32, 0x5f, 0x31,
  0x2f, 0x42, 0x69, 0x61, 0x73, 0x41, 0x64, 0x64, 0x3b, 0x66, 0x75, 0x6e, 0x63, 0x74, 0x69, 0x6f,
  0x6e, 0x61, 0x6c, 0x5f, 0x31, 0x2f, 0x63, 0x6f, 0x6e, 0x76, 0x32, 0x5f, 0x31, 0x2f, 0x63, 0x6f,
  0x6e, 0x76, 0x6f, 0x6c, 0x75, 0x74, 0x69, 0x6f, 0x6e, 0x3b, 0x66, 0x75, 0x6e, 0x63, 0x74, 0x69,
  0x6f, 0x6e, 0x61, 0x6c, 0x5f, 0x31, 0x2f, 0x63, 0x6f, 0x6e, 0x76, 0x32, 0x5f, 0x31, 0x2f, 0x53,
  0x71, 0x75, 0x65, 0x65, 0x7a, 0x65, 0x31, 0x00, 0x04, 0x00, 0x00, 0x00, 0x01, 0x00, 0x00, 0x00,
  0x18, 0x00, 0x00, 0x00, 0x20, 0x00, 0x00, 0x00, 0x04, 0x00, 0x00, 0x00, 0x62, 0xf8, 0xff, 0xff,
  0x00, 0x00, 0x00, 0x01, 0x14, 0x00, 0x00, 0x00, 0x34, 0x00, 0x00, 0x00, 0x09, 0x00, 0x00, 0x00,
  0x00, 0x00, 0x00, 0x09, 0xa4, 0x00, 0x00, 0x00, 0x4c, 0xf8, 0xff, 0xff, 0x08, 0x00, 0x00, 0x00,
  0x14, 0x00, 0x00, 0x00, 0x01, 0x00, 0x00, 0x00, 0x80, 0xff, 0xff, 0xff, 0xff, 0xff, 0xff, 0xff,
  0x00, 0x00, 0x00, 0x00, 0x01, 0x00, 0x00, 0x00, 0x45, 0xdf, 0x02, 0x3c, 0x75, 0x00, 0x00, 0x00,
  0x66, 0x75, 0x6e, 0x63, 0x74, 0x69, 0x6f, 0x6e, 0x61, 0x6c, 0x5f, 0x31, 0x2f, 0x63, 0x6f, 0x6e,
  0x76, 0x31, 0x5f, 0x31, 0x2f, 0x52, 0x65, 0x6c, 0x75, 0x3b, 0x66, 0x75, 0x6e, 0x63, 0x74, 0x69,
  0x6f, 0x6e, 0x61, 0x6c, 0x5f, 0x31, 0x2f, 0x63, 0x6f, 0x6e, 0x76, 0x31, 0x5f, 0x31, 0x2f, 0x42,
  0x69, 0x61, 0x73, 0x41, 0x64, 0x64, 0x3b, 0x66, 0x75, 0x6e, 0x63, 0x74, 0x69, 0x6f, 0x6e, 0x61,
  0x6c, 0x5f, 0x31, 0x2f, 0x63, 0x6f, 0x6e, 0x76, 0x31, 0x5f, 0x31, 0x2f, 0x63, 0x6f, 0x6e, 0x76,
  0x6f, 0x6c, 0x75, 0x74, 0x69, 0x6f, 0x6e, 0x3b, 0x66, 0x75, 0x6e, 0x63, 0x74, 0x69, 0x6f, 0x6e,
  0x61, 0x6c, 0x5f, 0x31, 0x2f, 0x63, 0x6f, 0x6e, 0x76, 0x31, 0x5f, 0x31, 0x2f, 0x53, 0x71, 0x75,
  0x65, 0x65, 0x7a, 0x65, 0x31, 0x00, 0x00, 0x00, 0x04, 0x00, 0x00, 0x00, 0x01, 0x00, 0x00, 0x00,
  0x18, 0x00, 0x00, 0x00, 0x20, 0x00, 0x00, 0x00, 0x08, 0x00, 0x00, 0x00, 0x32, 0xf9, 0xff, 0xff,
  0x00, 0x00, 0x00, 0x01, 0x14, 0x00, 0x00, 0x00, 0x34, 0x00, 0x00, 0x00, 0x08, 0x00, 0x00, 0x00,
  0x00, 0x00, 0x00, 0x09, 0xa4, 0x00, 0x00, 0x00, 0x1c, 0xf9, 0xff, 0xff, 0x08, 0x00, 0x00, 0x00,
  0x14, 0x00, 0x00, 0x00, 0x01, 0x00, 0x00, 0x00, 0x80, 0xff, 0xff, 0xff, 0xff, 0xff, 0xff, 0xff,
  0x00, 0x00, 0x00, 0x00, 0x01, 0x00, 0x00, 0x00, 0xdd, 0xad, 0xc4, 0x3b, 0x75, 0x00, 0x00, 0x00,
  0x66, 0x75, 0x6e, 0x63, 0x74, 0x69, 0x6f, 0x6e, 0x61, 0x6c, 0x5f, 0x31, 0x2f, 0x63, 0x6f, 0x6e,
  0x76, 0x30, 0x5f, 0x31, 0x2f, 0x52, 0x65, 0x6c, 0x75, 0x3b, 0x66, 0x75, 0x6e, 0x63, 0x74, 0x69,
  0x6f, 0x6e, 0x61, 0x6c, 0x5f, 0x31, 0x2f, 0x63, 0x6f, 0x6e, 0x76, 0x30, 0x5f, 0x31, 0x2f, 0x42,
  0x69, 0x61, 0x73, 0x41, 0x64, 0x64, 0x3b, 0x66, 0x75, 0x6e, 0x63, 0x74, 0x69, 0x6f, 0x6e, 0x61,
  0x6c, 0x5f, 0x31, 0x2f, 0x63, 0x6f, 0x6e, 0x76, 0x30, 0x5f, 0x31, 0x2f, 0x63, 0x6f, 0x6e, 0x76,
  0x6f, 0x6c, 0x75, 0x74, 0x69, 0x6f, 0x6e, 0x3b, 0x66, 0x75, 0x6e, 0x63, 0x74, 0x69, 0x6f, 0x6e,
  0x61, 0x6c, 0x5f, 0x31, 0x2f, 0x63, 0x6f, 0x6e, 0x76, 0x30, 0x5f, 0x31, 0x2f, 0x53, 0x71, 0x75,
  0x65, 0x65, 0x7a, 0x65, 0x31, 0x00, 0x00, 0x00, 0x04, 0x00, 0x00, 0x00, 0x01, 0x00, 0x00, 0x00,
  0x18, 0x00, 0x00, 0x00, 0x20, 0x00, 0x00, 0x00, 0x10, 0x00, 0x00, 0x00, 0x02, 0xfa, 0xff, 0xff,
  0x00, 0x00, 0x00, 0x01, 0x14, 0x00, 0x00, 0x00, 0xe8, 0x00, 0x00, 0x00, 0x07, 0x00, 0x00, 0x00,
  0x00, 0x00, 0x00, 0x09, 0x04, 0x01, 0x00, 0x00, 0xec, 0xf9, 0xff, 0xff, 0x08, 0x00, 0x00, 0x00,
  0x8c, 0x00, 0x00, 0x00, 0x10, 0x00, 0x00, 0x00, 0x00, 0x00, 0x00, 0x00, 0x00, 0x00, 0x00, 0x00,
  0x00, 0x00, 0x00, 0x00, 0x00, 0x00, 0x00, 0x00, 0x00, 0x00, 0x00, 0x00, 0x00, 0x00, 0x00, 0x00,
  0x00, 0x00, 0x00, 0x00, 0x00, 0x00, 0x00, 0x00, 0x00, 0x00, 0x00, 0x00, 0x00, 0x00, 0x00, 0x00,
  0x00, 0x00, 0x00, 0x00, 0x00, 0x00, 0x00, 0x00, 0x00, 0x00, 0x00, 0x00, 0x00, 0x00, 0x00, 0x00,
  0x00, 0x00, 0x00, 0x00, 0x00, 0x00, 0x00, 0x00, 0x00, 0x00, 0x00, 0x00, 0x00, 0x00, 0x00, 0x00,
  0x00, 0x00, 0x00, 0x00, 0x00, 0x00, 0x00, 0x00, 0x00, 0x00, 0x00, 0x00, 0x00, 0x00, 0x00, 0x00,
  0x00, 0x00, 0x00, 0x00, 0x00, 0x00, 0x00, 0x00, 0x00, 0x00, 0x00, 0x00, 0x00, 0x00, 0x00, 0x00,
  0x00, 0x00, 0x00, 0x00, 0x00, 0x00, 0x00, 0x00, 0x00, 0x00, 0x00, 0x00, 0x00, 0x00, 0x00, 0x00,
  0x00, 0x00, 0x00, 0x00, 0x00, 0x00, 0x00, 0x00, 0x00, 0x00, 0x00, 0x00, 0x10, 0x00, 0x00, 0x00,
  0xb4, 0x5b, 0x32, 0x3b, 0x0c, 0xbd, 0x53, 0x3b, 0x8f, 0x93, 0x16, 0x3b, 0x63, 0x63, 0x53, 0x3b,
  0xd9, 0x48, 0x4d, 0x3b, 0xba, 0xfc, 0x87, 0x3b, 0x52, 0x29, 0x24, 0x3b, 0xee, 0x1e, 0x41, 0x3b,
  0x11, 0x89, 0x6d, 0x3b, 0x8f, 0xb6, 0x29, 0x3b, 0xbc, 0xbd, 0x32, 0x3b, 0x5c, 0x0a, 0x2c, 0x3b,
  0x00, 0x51, 0x51, 0x3b, 0x9b, 0xaa, 0x3b, 0x3b, 0x0f, 0x68, 0x65, 0x3b, 0xbe, 0x49, 0x27, 0x3b,
  0x20, 0x00, 0x00, 0x00, 0x66, 0x75, 0x6e, 0x63, 0x74, 0x69, 0x6f, 0x6e, 0x61, 0x6c, 0x5f, 0x31,
  0x2f, 0x63, 0x6f, 0x6e, 0x76, 0x30, 0x5f, 0x31, 0x2f, 0x63, 0x6f, 0x6e, 0x76, 0x6f, 0x6c, 0x75,
  0x74, 0x69, 0x6f, 0x6e, 0x00, 0x00, 0x00, 0x00, 0x04, 0x00, 0x00, 0x00, 0x10, 0x00, 0x00, 0x00,
  0x03, 0x00, 0x00, 0x00, 0x03, 0x00, 0x00, 0x00, 0x01, 0x00, 0x00, 0x00, 0x32, 0xfb, 0xff, 0xff,
  0x00, 0x00, 0x00, 0x01, 0x14, 0x00, 0x00, 0x00, 0xe8, 0x00, 0x00, 0x00, 0x06, 0x00, 0x00, 0x00,
  0x00, 0x00, 0x00, 0x02, 0x58, 0x01, 0x00, 0x00, 0x1c, 0xfb, 0xff, 0xff, 0x08, 0x00, 0x00, 0x00,
  0x8c, 0x00, 0x00, 0x00, 0x10, 0x00, 0x00, 0x00, 0x00, 0x00, 0x00, 0x00, 0x00, 0x00, 0x00, 0x00,
  0x00, 0x00, 0x00, 0x00, 0x00, 0x00, 0x00, 0x00, 0x00, 0x00, 0x00, 0x00, 0x00, 0x00, 0x00, 0x00,
  0x00, 0x00, 0x00, 0x00, 0x00, 0x00, 0x00, 0x00, 0x00, 0x00, 0x00, 0x00, 0x00, 0x00, 0x00, 0x00,
  0x00, 0x00, 0x00, 0x00, 0x00, 0x00, 0x00, 0x00, 0x00, 0x00, 0x00, 0x00, 0x00, 0x00, 0x00, 0x00,
  0x00, 0x00, 0x00, 0x00, 0x00, 0x00, 0x00, 0x00, 0x00, 0x00, 0x00, 0x00, 0x00, 0x00, 0x00, 0x00,
  0x00, 0x00, 0x00, 0x00, 0x00, 0x00, 0x00, 0x00, 0x00, 0x00, 0x00, 0x00, 0x00, 0x00, 0x00, 0x00,
  0x00, 0x00, 0x00, 0x00, 0x00, 0x00, 0x00, 0x00, 0x00, 0x00, 0x00, 0x00, 0x00, 0x00, 0x00, 0x00,
  0x00, 0x00, 0x00, 0x00, 0x00, 0x00, 0x00, 0x00, 0x00, 0x00, 0x00, 0x00, 0x00, 0x00, 0x00, 0x00,
  0x00, 0x00, 0x00, 0x00, 0x00, 0x00, 0x00, 0x00, 0x00, 0x00, 0x00, 0x00, 0x10, 0x00, 0x00, 0x00,
  0xc3, 0x0e, 0x33, 0x37, 0x9e, 0x91, 0x54, 0x37, 0xba, 0x2a, 0x17, 0x37, 0x9b, 0x37, 0x54, 0x37,
  0xf1, 0x16, 0x4e, 0x37, 0x40, 0x85, 0x88, 0x37, 0x21, 0xce, 0x24, 0x37, 0xd0, 0xe0, 0x41, 0x37,
  0x89, 0x77, 0x6e, 0x37, 0xf1, 0x60, 0x2a, 0x37, 0x2e, 0x71, 0x33, 0x37, 0x14, 0xb7, 0x2c, 0x37,
  0x24, 0x23, 0x52, 0x37, 0x03, 0x67, 0x3c, 0x37, 0x5e, 0x4e, 0x66, 0x37, 0xb0, 0xf1, 0x27, 0x37,
  0x74, 0x00, 0x00, 0x00, 0x66, 0x75, 0x6e, 0x63, 0x74, 0x69, 0x6f, 0x6e, 0x61, 0x6c, 0x5f, 0x31,
  0x2f, 0x63, 0x6f, 0x6e, 0x76, 0x30, 0x5f, 0x31, 0x2f, 0x52, 0x65, 0x6c, 0x75, 0x3b, 0x66, 0x75,
  0x6e, 0x63, 0x74, 0x69, 0x6f, 0x6e, 0x61, 0x6c, 0x5f, 0x31, 0x2f, 0x63, 0x6f, 0x6e, 0x76, 0x30,
  0x5f, 0x31, 0x2f, 0x42, 0x69, 0x61, 0x73, 0x41, 0x64, 0x64, 0x3b, 0x66, 0x75, 0x6e, 0x63, 0x74,
  0x69, 0x6f, 0x6e, 0x61, 0x6c, 0x5f, 0x31, 0x2f, 0x63, 0x6f, 0x6e, 0x76, 0x30, 0x5f, 0x31, 0x2f,
  0x63, 0x6f, 0x6e, 0x76, 0x6f, 0x6c, 0x75, 0x74, 0x69, 0x6f, 0x6e, 0x3b, 0x66, 0x75, 0x6e, 0x63,
  0x74, 0x69, 0x6f, 0x6e, 0x61, 0x6c, 0x5f, 0x31, 0x2f, 0x63, 0x6f, 0x6e, 0x76, 0x30, 0x5f, 0x31,
  0x2f, 0x53, 0x71, 0x75, 0x65, 0x65, 0x7a, 0x65, 0x00, 0x00, 0x00, 0x00, 0x01, 0x00, 0x00, 0x00,
  0x10, 0x00, 0x00, 0x00, 0xaa, 0xfc, 0xff, 0xff, 0x00, 0x00, 0x00, 0x01, 0x14, 0x00, 0x00, 0x00,
  0x88, 0x00, 0x00, 0x00, 0x05, 0x00, 0x00, 0x00, 0x00, 0x00, 0x00, 0x09, 0xa4, 0x00, 0x00, 0x00,
  0x94, 0xfc, 0xff, 0xff, 0x08, 0x00, 0x00, 0x00, 0x4c, 0x00, 0x00, 0x00, 0x08, 0x00, 0x00, 0x00,
  0x00, 0x00, 0x00, 0x00, 0x00, 0x00, 0x00, 0x00, 0x00, 0x00, 0x00, 0x00, 0x00, 0x00, 0x00, 0x00,
  0x00, 0x00, 0x00, 0x00, 0x00, 0x00, 0x00, 0x00, 0x00, 0x00, 0x00, 0x00, 0x00, 0x00, 0x00, 0x00,
  0x00, 0x00, 0x00, 0x00, 0x00, 0x00, 0x00, 0x00, 0x00, 0x00, 0x00, 0x00, 0x00, 0x00, 0x00, 0x00,
  0x00, 0x00, 0x00, 0x00, 0x00, 0x00, 0x00, 0x00, 0x00, 0x00, 0x00, 0x00, 0x00, 0x00, 0x00, 0x00,
  0x00, 0x00, 0x00, 0x00, 0x08, 0x00, 0x00, 0x00, 0xbc, 0x37, 0x2e, 0x3b, 0xca, 0x5c, 0x15, 0x3b,
  0xbc, 0x5e, 0xb6, 0x3a, 0x36, 0x12, 0x0d, 0x3b, 0xcd, 0x37, 0x8a, 0x3b, 0x90, 0xa8, 0x5e, 0x3b,
  0xa4, 0xf8, 0x4d, 0x3b, 0x15, 0xbd, 0x19, 0x3b, 0x20, 0x00, 0x00, 0x00, 0x66, 0x75, 0x6e, 0x63,
  0x74, 0x69, 0x6f, 0x6e, 0x61, 0x6c, 0x5f, 0x31, 0x2f, 0x63, 0x6f, 0x6e, 0x76, 0x31, 0x5f, 0x31,
  0x2f, 0x63, 0x6f, 0x6e, 0x76, 0x6f, 0x6c, 0x75, 0x74, 0x69, 0x6f, 0x6e, 0x00, 0x00, 0x00, 0x00,
  0x04, 0x00, 0x00, 0x00, 0x08, 0x00, 0x00, 0x00, 0x03, 0x00, 0x00, 0x00, 0x03, 0x00, 0x00, 0x00,
  0x10, 0x00, 0x00, 0x00, 0x7a, 0xfd, 0xff, 0xff, 0x00, 0x00, 0x00, 0x01, 0x14, 0x00, 0x00, 0x00,
  0x88, 0x00, 0x00, 0x00, 0x04, 0x00, 0x00, 0x00, 0x00, 0x00, 0x00, 0x02, 0xf8, 0x00, 0x00, 0x00,
  0x64, 0xfd, 0xff, 0xff, 0x08, 0x00, 0x00, 0x00, 0x4c, 0x00, 0x00, 0x00, 0x08, 0x00, 0x00, 0x00,
  0x00, 0x00, 0x00, 0x00, 0x00, 0x00, 0x00, 0x00, 0x00, 0x00, 0x00, 0x00, 0x00, 0x00, 0x00, 0x00,
  0x00, 0x00, 0x00, 0x00, 0x00, 0x00, 0x00, 0x00, 0x00, 0x00, 0x00, 0x00, 0x00, 0x00, 0x00, 0x00,
  0x00, 0x00, 0x00, 0x00, 0x00, 0x00, 0x00, 0x00, 0x00, 0x00, 0x00, 0x00, 0x00, 0x00, 0x00, 0x00,
  0x00, 0x00, 0x00, 0x00, 0x00, 0x00, 0x00, 0x00, 0x00, 0x00, 0x00, 0x00, 0x00, 0x00, 0x00, 0x00,
  0x00, 0x00, 0x00, 0x00, 0x08, 0x00, 0x00, 0x00, 0xfe, 0xd8, 0x85, 0x37, 0xf7, 0x80, 0x65, 0x37,
  0x63, 0x1c, 0x0c, 0x37, 0x81, 0xc3, 0x58, 0x37, 0x30, 0x61, 0xd4, 0x37, 0x46, 0x10, 0xab, 0x37,
  0x40, 0x3e, 0x9e, 0x37, 0x5b, 0x3a, 0x6c, 0x37, 0x74, 0x00, 0x00, 0x00, 0x66, 0x75, 0x6e, 0x63,
  0x74, 0x69, 0x6f, 0x6e, 0x61, 0x6c, 0x5f, 0x31, 0x2f, 0x63, 0x6f, 0x6e, 0x76, 0x31, 0x5f, 0x31,
  0x2f, 0x52, 0x65, 0x6c, 0x75, 0x3b, 0x66, 0x75, 0x6e, 0x63, 0x74, 0x69, 0x6f, 0x6e, 0x61, 0x6c,
  0x5f, 0x31, 0x2f, 0x63, 0x6f, 0x6e, 0x76, 0x31, 0x5f, 0x31, 0x2f, 0x42, 0x69, 0x61, 0x73, 0x41,
  0x64, 0x64, 0x3b, 0x66, 0x75, 0x6e, 0x63, 0x74, 0x69, 0x6f, 0x6e, 0x61, 0x6c, 0x5f, 0x31, 0x2f,
  0x63, 0x6f, 0x6e, 0x76, 0x31, 0x5f, 0x31, 0x2f, 0x63, 0x6f, 0x6e, 0x76, 0x6f, 0x6c, 0x75, 0x74,
  0x69, 0x6f, 0x6e, 0x3b, 0x66, 0x75, 0x6e, 0x63, 0x74, 0x69, 0x6f, 0x6e, 0x61, 0x6c, 0x5f, 0x31,
  0x2f, 0x63, 0x6f, 0x6e, 0x76, 0x31, 0x5f, 0x31, 0x2f, 0x53, 0x71, 0x75, 0x65, 0x65, 0x7a, 0x65,
  0x00, 0x00, 0x00, 0x00, 0x01, 0x00, 0x00, 0x00, 0x08, 0x00, 0x00, 0x00, 0x92, 0xfe, 0xff, 0xff,
  0x00, 0x00, 0x00, 0x01, 0x14, 0x00, 0x00, 0x00, 0x58, 0x00, 0x00, 0x00, 0x03, 0x00, 0x00, 0x00,
  0x00, 0x00, 0x00, 0x09, 0x74, 0x00, 0x00, 0x00, 0x7c, 0xfe, 0xff, 0xff, 0x08, 0x00, 0x00, 0x00,
  0x2c, 0x00, 0x00, 0x00, 0x04, 0x00, 0x00, 0x00, 0x00, 0x00, 0x00, 0x00, 0x00, 0x00, 0x00, 0x00,
  0x00, 0x00, 0x00, 0x00, 0x00, 0x00, 0x00, 0x00, 0x00, 0x00, 0x00, 0x00, 0x00, 0x00, 0x00, 0x00,
  0x00, 0x00, 0x00, 0x00, 0x00, 0x00, 0x00, 0x00, 0x00, 0x00, 0x00, 0x00, 0x04, 0x00, 0x00, 0x00,
  0xef, 0x83, 0x12, 0x3b, 0x57, 0x14, 0xfa, 0x3a, 0x00, 0xd4, 0xfb, 0x3a, 0xbb, 0x64, 0xf7, 0x3a,
  0x20, 0x00, 0x00, 0x00, 0x66, 0x75, 0x6e, 0x63, 0x74, 0x69, 0x6f, 0x6e, 0x61, 0x6c, 0x5f, 0x31,
  0x2f, 0x63, 0x6f, 0x6e, 0x76, 0x32, 0x5f, 0x31, 0x2f, 0x63, 0x6f, 0x6e, 0x76, 0x6f, 0x6c, 0x75,
  0x74, 0x69, 0x6f, 0x6e, 0x00, 0x00, 0x00, 0x00, 0x04, 0x00, 0x00, 0x00, 0x04, 0x00, 0x00, 0x00,
  0x03, 0x00, 0x00, 0x00, 0x03, 0x00, 0x00, 0x00, 0x08, 0x00, 0x00, 0x00, 0x32, 0xff, 0xff, 0xff,
  0x00, 0x00, 0x00, 0x01, 0x14, 0x00, 0x00, 0x00, 0x58, 0x00, 0x00, 0x00, 0x02, 0x00, 0x00, 0x00,
  0x00, 0x00, 0x00, 0x02, 0xac, 0x00, 0x00, 0x00, 0x1c, 0xff, 0xff, 0xff, 0x08, 0x00, 0x00, 0x00,
  0x2c, 0x00, 0x00, 0x00, 0x04, 0x00, 0x00, 0x00, 0x00, 0x00, 0x00, 0x00, 0x00, 0x00, 0x00, 0x00,
  0x00, 0x00, 0x00, 0x00, 0x00, 0x00, 0x00, 0x00, 0x00, 0x00, 0x00, 0x00, 0x00, 0x00, 0x00, 0x00,
  0x00, 0x00, 0x00, 0x00, 0x00, 0x00, 0x00, 0x00, 0x00, 0x00, 0x00, 0x00, 0x04, 0x00, 0x00, 0x00,
  0x90, 0xcd, 0x95, 0x37, 0xdf, 0xb0, 0x7f, 0x37, 0x4a, 0xbd, 0x80, 0x37, 0xd5, 0xf1, 0x7c, 0x37,
  0x5a, 0x00, 0x00, 0x00, 0x66, 0x75, 0x6e, 0x63, 0x74, 0x69, 0x6f, 0x6e, 0x61, 0x6c, 0x5f, 0x31,
  0x2f, 0x63, 0x6f, 0x6e, 0x76, 0x32, 0x5f, 0x31, 0x2f, 0x42, 0x69, 0x61, 0x73, 0x41, 0x64, 0x64,
  0x3b, 0x66, 0x75, 0x6e, 0x63, 0x74, 0x69, 0x6f, 0x6e, 0x61, 0x6c, 0x5f, 0x31, 0x2f, 0x63, 0x6f,
  0x6e, 0x76, 0x32, 0x5f, 0x31, 0x2f, 0x63, 0x6f, 0x6e, 0x76, 0x6f, 0x6c, 0x75, 0x74, 0x69, 0x6f,
  0x6e, 0x3b, 0x66, 0x75, 0x6e, 0x63, 0x74, 0x69, 0x6f, 0x6e, 0x61, 0x6c, 0x5f, 0x31, 0x2f, 0x63,
  0x6f, 0x6e, 0x76, 0x32, 0x5f, 0x31, 0x2f, 0x53, 0x71, 0x75, 0x65, 0x65, 0x7a, 0x65, 0x00, 0x00,
  0x01, 0x00, 0x00, 0x00, 0x04, 0x00, 0x00, 0x00, 0x00, 0x00, 0x16, 0x00, 0x1c, 0x00, 0x18, 0x00,
  0x17, 0x00, 0x10, 0x00, 0x0c, 0x00, 0x08, 0x00, 0x00, 0x00, 0x00, 0x00, 0x00, 0x00, 0x07, 0x00,
  0x16, 0x00, 0x00, 0x00, 0x00, 0x00, 0x00, 0x01, 0x20, 0x00, 0x00, 0x00, 0x3c, 0x00, 0x00, 0x00,
  0x01, 0x00, 0x00, 0x00, 0x00, 0x00, 0x00, 0x09, 0x4c, 0x00, 0x00, 0x00, 0x0c, 0x00, 0x0c, 0x00,
  0x00, 0x00, 0x00, 0x00, 0x08, 0x00, 0x04, 0x00, 0x0c, 0x00, 0x00, 0x00, 0x08, 0x00, 0x00, 0x00,
  0x10, 0x00, 0x00, 0x00, 0x01, 0x00, 0x00, 0x00, 0x80, 0xff, 0xff, 0xff, 0xff, 0xff, 0xff, 0xff,
  0x01, 0x00, 0x00, 0x00, 0x81, 0x80, 0x80, 0x3b, 0x17, 0x00, 0x00, 0x00, 0x73, 0x65, 0x72, 0x76,
  0x69, 0x6e, 0x67, 0x5f, 0x64, 0x65, 0x66, 0x61, 0x75, 0x6c, 0x74, 0x5f, 0x69, 0x6e, 0x70, 0x75,
  0x74, 0x3a, 0x30, 0x00, 0x04, 0x00, 0x00, 0x00, 0x01, 0x00, 0x00, 0x00, 0x18, 0x00, 0x00, 0x00,
  0x20, 0x00, 0x00, 0x00, 0x01, 0x00, 0x00, 0x00, 0x02, 0x00, 0x00, 0x00, 0x24, 0x00, 0x00, 0x00,
  0x04, 0x00, 0x00, 0x00, 0xf0, 0xff, 0xff, 0xff, 0x05, 0x00, 0x00, 0x00, 0x02, 0x00, 0x00, 0x00,
  0x00, 0x00, 0x00, 0x05, 0x0c, 0x00, 0x10, 0x00, 0x0f, 0x00, 0x00, 0x00, 0x08, 0x00, 0x04, 0x00,
  0x0c, 0x00, 0x00, 0x00, 0x03, 0x00, 0x00, 0x00, 0x03, 0x00, 0x00, 0x00, 0x00, 0x00, 0x00, 0x03,
};
const size_t espcn_micro_int8_tflite_len = 5168;
